#version: 0.2
Ġ t
Ġ a
i n
h e
r e
o n
Ġ s
a t
e r
o r
e n
Ġ c
i s
Ġt he
o u
Ġa n
Ġ w
Ġ b
Ġ m
Ġ p
i t
e d
a l
Ġ f
Ġ d
Ġ o
a n
e s
i c
Ġan d
in g
Ġ h
Ġ in
i on
Ġt o
a r
Ġo f
a s
Ġ I
l e
c t
o m
Ġ n
v e
en t
Ġ y
Ġt h
l l
Ġ l
Ġ re
Ġy ou
Ġ is
o t
u s
Ġ e
Ġb e
l y
Ġ g
r o
Ġh a
i d
e t
Ġf or
o s
o w
at ion
Ġ he
u r
u l
Ġ T
Ġ i
a y
f t
i g
l d
Ġ H
Ġ it
it h
Ġ on
Ġ A
en d
Ġs t
Ġw ith
Ġc on
a c
Ġha ve
a in
v er
u t
o d
s t
o l
es t
a m
o p
ct or
Ġa s
e x
Ġ (
u n
Ġ or
i m
Ġm y
Ġ C
o ctor
Ġyou r
t h
k e
at i
Ġ S
c e
Ġ 1
Ġth at
Ġc an
ex t
Ġ r
Ġa re
he r
o ft
q u
is t
c h
end oft
< |
| >
endoft ext
g e
a d
Ġ ,
u m
Ġw e
e ct
i r
Ġw h
i l
Ġn ot
Ġs u
ou ld
re s
i ll
e l
Ġa l
ati ent
Ġ M
Ġp ro
Ġ D
ig h
a b
. .
Ġ 2
Ġe x
ic al
m ent
Ġn e
Ġth is
Ġw as
Ġ B
Ġs e
e ll
r om
ou t
Ġ v
p t
ĠT he
in e
Ġ .
Ġl i
Ġ P
Ġd e
r i
t er
or m
Ġs h
at e
s e
p p
as e
Ġc om
Ġd i
Ġm e
es s
o od
o c
ul t
f f
r a
igh t
Ġc a
as t
o re
o g
Ġa b
Ġa t
Ġ le
D octor
u re
us e
at ed
an t
Ġb y
i ve
P atient
Ġf e
Ġp ain
Ġ qu
t her
om e
an d
ar t
Ġ k
Ġ un
Ġ W
Ġb ut
Ġf rom
Ġ Ċ
a g
i b
ou n
d er
on e
Ġa m
Ġc h
Ġs p
e ar
Ġd o
k s
re at
Ġin f
or t
Ġd is
it y
Ġt a
g h
Ġ F
Ġh as
ar d
s o
re d
Ġp er
n ow
e m
Ġi f
Ġa d
u e
Ġd ay
ic h
Ġha d
i v
Ġs y
Ġw ill
Ġ R
id e
al ly
os t
ou gh
Ġb l
i a
i es
l p
p er
res s
Ġg et
al l
Ġ L
Ġm ay
ĠT h
Ġli ke
Ġan y
Ġhe lp
Ġwh ich
Ġ 3
Ġ E
u d
er y
Ġp re
i f
Ġal so
Ġ us
Ġw he
Ġcon t
ou r
h y
Ġi m
ac k
ft er
ct ion
Ġ N
ver y
Ġ G
r y
Ġ Ġ
Ġbe en
Ġa ll
Ġ u
Ġre s
ou s
re n
Ġ K
Ġ -
Ġw or
i al
Ġcom p
on g
c er
0 0
k ing
e c
us t
Ġin c
Ġthe re
Ġsh ould
ĠH i
Ġt im
oun d
Ġy ear
ect ion
Ġm ed
â Ģ
r u
Ġ j
Ġa c
ar y
ĠI n
i z
Ġ O
Ġa fter
Ġcon s
Ġd octor
Ġt reat
Ġne ed
ab le
e p
a ge
Ġa g
Ġ Y
op e
Ġ out
Ġ )
Ġa r
en s
Ġc l
Ġt est
d u
Ġs ome
a p
b le
Ġs o
Ġan t
a ct
ul ar
ve l
ation s
i p
ĠI t
Ġun der
it ion
ol og
Ġm on
Ġw ould
Ġm ore
er s
Ġin t
Ġre c
Ġbl ood
ic e
r an
h at
Ġp l
Ġa pp
o ll
Ġ 5
or y
Ġo ther
os e
i an
Ġta ke
c y
Ġn o
Ġg o
Ġqu ery
Ġthe n
p h
Ġ 4
n e
Ġtreat ment
g g
Ġab out
m pt
f orm
Ġhe r
) .
ĠH ell
Ġday s
i e
Ġk now
w e
ĠHell o
al th
Ġre l
Ġu p
Ġs ur
Ġs c
Ġwhe n
mpt om
Ġe v
Ġc he
v ing
in d
Ġb ack
Ġp atient
ble m
Ġtim e
Ġpro blem
Ġwe e
Ġp os
Ġt w
orm al
l ed
Ġas s
Ġsy mptom
Ġre p
ur ther
Ġfe el
an ks
Ġinf ection
o id
ff ect
Ġn ow
Ġmon th
Ġbe c
le ase
Ġwe re
Ġon e
Ġd ue
Ġre g
Ġyear s
Ġmed ic
Ġf urther
gg est
Ġp r
ĠI f
ot h
Ġsu ggest
Ġs he
Ġ very
m on
is h
Ġ1 9
ion s
at er
it e
Ġan s
led ge
a ke
Ġim p
Ġh is
Ġwh at
ig n
is e
Ġbe t
Ġ U
ed ical
ac h
Ġp res
Ġhe alth
am e
os is
en ce
Ġsymptom s
Ġm an
Ġc ould
ĠK now
i le
I n
ĠKnow ledge
M edical
y p
a use
er m
an ce
g n
Ġad v
Ġthe se
Ġ J
as s
t s
Ġc ell
r on
Ġthe y
v ed
ĠD octor
ĠA n
Ġca use
Ġth an
ag n
ac e
ĠM y
Ġl ow
Ġdis e
Ġit s
a il
i ly
l es
Ġ en
it is
c c
re e
op ic
Ġo ver
Ġcons ult
.. .
Ġst art
am in
Ġn ormal
Ġo ld
ot her
' s
cer n
Ġs m
u b
Ġcon cern
ĠY ou
t ing
t e
u c
ati ve
r ic
Ġon ly
Ġj ust
hy s
Ġ 6
om et
Ġg en
r ough
ĠH e
Ġca us
Ġ2 0
Ġqu est
in al
er g
Ġha ving
if ic
Ġtw o
on d
s ib
Ġf oll
âĢ ĵ
Ġpre gn
form ation
d ition
Ġa ct
Ġ use
i ld
ren t
Ġca re
e g
ir st
he s
ard s
Ġdi agn
Ġr ight
Ġdi ff
Ġe ffect
i ous
Ġg ood
c ed
Ġd one
o ve
f ul
Ġm ost
Ġf l
Ġth rough
In formation
T opic
ro l
Ġpatient s
Ġp art
p l
l ud
n ess
a re
a k
at h
o k
Ġre m
h ing
an g
Ġl ast
as ed
i od
Ġdise ase
c ri
ĠC hat
in ce
ic s
Ġs ide
Ġmonth s
Ġsu ch
Ġin ter
a v
on s
f ore
Ġinc re
n ing
at ing
r it
ĠH ope
Ġin d
ĠTh is
u ally
Ġh igh
ur ing
as es
o b
p s
f e
Ġper iod
y s
Ġc y
Ġle vel
Ġfoll ow
Ġbec ause
Ġres ult
ro w
ran s
Ġpos sib
is s
in k
Ġg r
ra p
c k
Ġ ur
ĠĠ ĠĠ
Ġc o
Ġs a
w ay
Ġs er
Ġle ft
Ġf irst
c ess
Ġe t
p le
Ġd et
Ġst ud
u al
y m
) ,
Ġ1 0
r ain
c es
ĠTh anks
Ġp hys
at es
or d
Ġs w
Ġp o
Ġwe ll
Ġin v
Ġquest ion
Ġsur g
Ġ V
Ġunder st
d om
ĠA l
Ġsh ow
Ġh y
Ġus ed
us c
od y
Ġsu b
Ġo b
Ġpr ot
an cy
il ity
in t
Ġ 7
um b
s y
i ot
Ġwh o
Ġinc lud
Ġdis c
Ġm et
Ġo cc
olog ist
Ġant ib
e ver
Ġe ar
Ġsp ec
k in
Ġl ong
Ġwee ks
Ġfor m
un ction
Ġd a
Ġres p
Ġdo es
Ġs ign
on t
d ay
Ġhe art
ro p
Ġt rans
Ġde p
Ġunderst and
or s
Ġt e
he n
ra ct
g s
er t
u ch
an k
Ġac c
oc i
Ġex t
ĠA s
c ome
Ġh ow
ĠS o
Ġcomp le
Ġta king
oun t
Ġs omet
v oid
Ġst ill
Ġd id
Ġans w
ĠC h
qu i
Ġh ist
Ġex p
Ġcell s
l i
Ġc ol
Ġha pp
Ġbe fore
' t
Ġ "
Ġag o
Ġwee k
l ic
Ġde c
Ġse e
Ġd uring
Ġm usc
u res
ĠF or
Ġrep ort
Ġl o
Ġint o
Ġat t
Ġhe ad
it al
Ġpregn ancy
he d
vel op
ent s
Ġm in
Ġd es
Ġ &
Ġde f
u ll
is m
Ġ2 00
Ġag ain
Ġt yp
Ġfe w
ect ed
in es
ent ly
Ġs ince
Ġcon dition
ce pt
Ġe very
Ġt r
Ġh im
Ġc ase
Ġd ru
er c
Ġ 8
Ġp ress
ro s
am m
Ġg iv
Ġcom mon
ing s
Ġg ot
Ġ end
ul ation
o x
Ġus ing
Ġse c
m b
cri b
Ġsu pp
Ġ20 1
Ġthe ir
Ġcan cer
ri ed
Ġb oth
Ġb ody
Ġwor ry
Ġde velop
ĠS t
Ġre qui
Ġche st
al e
Ġin j
Ġsm all
Ġse em
st em
Ġ ro
i en
eg ards
ow n
we en
Ġev en
Ġm uch
m un
ĠD r
ic k
Ġin s
ent ion
Ġdiff e
al u
Ġantib iot
it t
at ory
ĠP lease
T h
r al
er v
Ġare a
a x
Ġlow er
Ġbet ween
Ġcl in
ress ion
re ct
Ġbet ter
Ġg l
Ġman y
Ġre du
Ġpre v
le ct
.. ..
we red
i um
Ġans wered
in s
Â ł
Ġab dom
Ġa ge
ical ly
an s
Ġk id
Ġo p
o le
Ġsu ff
iz ed
Ġex amin
um p
Ġpress ure
Ġtim es
Ġsurg ery
ar g
os ed
Ġfe ver
Ġpro du
or der
at ic
er ing
i ed
Ġs ame
ve re
et y
Ġpossib le
Ġocc ur
Ġsy stem
Ġs ex
Ġch ild
ad e
Ġhist ory
Ġper s
ut e
Ġp h
o v
Ġs kin
t en
Ġta k
Ġinf orm
Ġf ood
Ġp e
ard i
Ġ 9
Ġm ight
ar ge
Ġd own
Ġstart ed
Ġf unction
Ġt ry
Ġass oci
Ġwhe re
Ġthe m
Ġwor k
Ġh our
ĠA m
Ġcont in
Ġc le
u le
Ġli ver
i or
Ġn umb
Ġp lease
Ġthe rap
er al
act er
n al
pt ion
el f
iz e
Ġinf l
ment s
Ġp ost
ĠB ut
Ġf ound
Ġw ater
Ġm g
ic ian
Ġdiagn osis
it ive
Ġv is
u p
r am
Ġansw er
Ġl oc
it s
i x
Ġpres ent
Ġ ve
Ġex per
Ġc ar
Ġth ree
Ġf ind
Ġse vere
Ġth ink
Ġf at
Ġof f
ĠH ow
Ġact iv
Ġs im
id ent
Ġwh ile
un g
ĠI s
os p
Ġv ar
Ġe m
Ġcon f
it ies
Ġtest s
Ġant i
Ġg ive
Ġall erg
a ve
Ġs l
Ġw ant
Ġle ad
Ġprot e
Ġd ist
Ġass ist
r as
Ġan al
ĠW hat
Ġm ar
le ep
Ġc or
us s
Ġw ent
y n
est er
Ġ1 2
ar m
Ġd on
it ed
Ġus ually
Ġm od
Ġinform ation
Ġt able
om m
im es
Ġf a
Ġ 0
Ġsa id
u es
R I
Ġsy n
Ġr is
Ġdis order
Ġcaus es
Ġ1 5
Ġrel ated
ĠThe re
sy ch
an ge
Ġdiffe rent
o h
th ing
oc k
Ġpro per
Ġlevel s
Ġn ight
Ġev alu
u id
g en
Ġ /
Ġar ound
Ġwe ight
ĠS he
Ġsec ond
ate ly
Ġget ting
ell ing
ĠL et
Ġv ir
ur y
Ġm or
Ġb reat
Ġ ke
olog y
Ġe p
al s
i ally
l ine
Ġda ily
crib ed
Ġa void
Ġp ar
Ġst op
Ġassoci ated
Ġcont rol
at ure
Ġh ope
Ġstud y
ne y
Ġs it
Ġc ount
Ġs leep
is ed
Ġs ens
Ġgiv en
Ġc al
c ent
Ġp ill
Ġth ough
Ġclin ical
om a
Ġs ol
ĠT ake
Ġproblem s
E R
Ġst ress
Ġb re
r ay
ad i
ver s
Ġgo ing
Ġexamin ation
Ġre st
Ġre f
Ġtak en
Ġse ver
m ed
i ety
Ġex erc
Ġhy per
Ġl ot
Ġo v
Ġcomple te
Ġpro v
Ġwith out
Ġ1 8
t he
ut ion
i at
Ġtherap y
m a
Ġc ough
Ġbe ing
Ġb est
Ġg one
Ġche ck
ed ing
ur n
Ġm ain
ĠR egards
Ġrel ie
os s
Ġt re
Ġm a
Ġdi et
Ġd r
t ic
Ġhelp s
Ġimp ro
Ġ ult
c l
Ġre d
Ġmedic ine
g an
Ġac id
Ġur ine
c om
Ġc all
a red
r ot
Ġt iss
Ġh ur
Ġmusc le
Ġgr ou
ĠU n
Ġimp ort
ur al
am ily
er ve
Ġhe m
ie w
er ic
Ġc ent
Ġeffect s
Ġre ally
en ing
Ġadv ise
Ġp ast
om y
Ġtyp e
Ġbe l
Ġris k
omm end
e f
Ġl ess
Ġ x
Ġh and
Ġet c
ou th
Ġb le
Ġs ay
re qu
ord ing
our se
Ġresult s
en cy
el come
Ġ âĢĵ
Ġto o
Ġan x
Ġch ang
Ġb r
Ġre t
Ġli fe
Ġin h
y l
Ġne w
Ġl ater
Ġrec ommend
Ġb i
itt le
re t
Ġal ong
way s
Ġp sych
Ġt um
re ad
ur rent
ĠS h
Ġst om
Ġre as
ag ic
o ol
H ope
Ġc re
Ġreg ular
Ġear ly
Ġre ad
ter n
rol og
Ġcon st
1 0
ro id
Ġfa ctor
Ġpro g
r s
Ġw ay
Ġseem s
T he
Ġc ardi
Ġne u
ĠH C
ĠTh ank
o ld
Ġas k
Ġfeel ing
Ġar m
et h
Ġadv ice
op h
Ġa ffect
ron ic
n g
Ġl ittle
Ġhour s
Ġstom ach
on es
ĠN e
Ġc ases
Ġl ym
Ġsomet hing
p ec
Ġantibiot ics
Ġl ump
Ġto oth
Ġon ce
osp ital
a ction
I N
Ġn on
est ig
pp er
r ist
a w
r ation
in ation
Ġd el
Ġcy st
ab et
Ġkid ney
Ġwith in
Ġmedic ation
Ġe l
Ġsc an
a z
1 2
Ġm ult
Ġof ten
Ġr ule
ĠW ish
ras ound
Ġimport ant
it ing
ant s
Ġf requ
Ġb ab
other ap
ic t
Ġad dition
Ġinfl amm
Ġb rain
Ġg row
v en
Ġ es
Ġind ic
Ġb ad
ens ion
Ġdru gs
ys is
Ġs ize
Ġinv estig
as h
t ain
âĢ Ļ
Ġis s
1 9
ĠĠĠĠ ĠĠĠĠ
Ġim mun
ĠA r
Ġsign ific
Ġn erve
c ing
Ġsw elling
ch ing
Ġpart ic
Ġsuff ering
n er
v es
Ġdet ail
ĠD o
ĠC an
Ġp ath
ru ct
Ġincre ased
Ġmor ning
ĠAl so
2 0
Ġm ove
Ġs al
as c
Ġse en
Ġlym ph
Ġanx iety
Ġfollow ing
Ġab s
Ġapp ear
id es
Ġan other
. ,
t y
Ġne ck
Ġincre ase
r ong
Ġ ent
Ġper form
Ġle g
Ġpregn ant
D r
Ġabdom en
Ġ3 0
Ġi r
Ġinv ol
Ġto ld
Ġw om
Ġl es
Ġm ake
e re
on al
i ent
Ġh ospital
n ot
Ġbab y
ge on
Ġr ate
Ġke ep
Ġh ard
u gh
m in
Ġin st
a ir
Ġhelp ful
ation al
ĠO n
ĠHC M
Ġl oss
Ġphys ical
Ġe y
Ġh i
Ġs on
Ġab ove
Ġp en
Ġe le
Ġtre ated
Ġl im
ĠHow ever
o f
Ġsomet imes
ab ly
Ġl arge
ĠAn d
Ġe ach
ĠM RI
Ġu pper
Ġsignific ant
Ġh orm
ol ic
Ġor al
Ġ ;
an ces
Ġmed ical
Ġcall ed
Ġw al
Ġr adi
th ough
it amin
b ut
Ġble eding
Ġsu re
Ġf ib
Ġt erm
Ġb one
Ġto ok
Ġhapp y
Ġne g
iz ation
Ġhe re
Ġcle ar
Ġphys ician
Ġdru g
o ved
Ġinclud ing
o ot
ain s
Ġapp ro
Th anks
Ġsever al
u g
m ost
l ess
Ġd ose
Ġspec ial
it her
is ion
Ġt ra
Ġinclud e
Ġa ut
Ġult rasound
o king
Ġmedic ines
Ġp ass
Ġcont act
ic ult
ag es
Ġp ul
Ġnumb er
Ġfl uid
Ġcom e
Ġth ose
Ġfe m
Ġm ention
Ġb en
us ion
Ġop in
el s
o int
ur b
Ġtw ice
j or
Ġpro b
Ġdiagn osed
oc y
Ġany thing
Ġt em
Ġb o
og en
Ġd ent
Ġex am
Ġb as
Ġf amily
b and
Ġch ronic
Ġhow ever
if ied
Ġh yp
Ġacc ording
Ġresp on
Ġp op
Ġd ou
Ġt ub
Ġtiss ue
Ġn ext
Ġdi abet
otherap y
Ġdi rect
op le
c oh
Ġ19 9
Ġ est
Ġprote in
Ġcaus ed
il ar
in ed
Ġm ust
i re
Ġopin ion
ure d
Ġme as
Ġ ident
Ġun t
Ġdiff icult
Ġh ome
Ġconf ir
Ġsh ort
N A
e red
Ġ1 4
Ġp ut
t al
us band
Ġre v
Ġha ir
Ġm outh
? ?
ect ive
Ġk ne
Ġco ld
Ġ :
T I
Ġinj ury
Ġdec re
Ġm ot
Ġdisc uss
Ġdep end
Ġg ast
ist s
v ail
Ġf ine
Ġpl ay
n ormal
Ġk ind
c le
im e
Ġperiod s
Ġh usband
O N
Ġloc al
Ġp an
Ġgrou p
d rom
Ġto day
Ġm al
Ġcaus ing
Ġ [
Ġknow n
m an
Ġman age
Ġche m
ac he
Ġrec ently
Ġa way
Ġ âĢ
an e
Ġchang es
g et
Ġn od
Ġgen eral
os c
Ġp at
ĠA t
ar k
Ġs et
c in
ĠThe y
Ġ our
Ġbre ast
Ġf ree
ĠAm eric
ri end
Ġst and
ren ce
Ġnot hing
Ġrequi re
Ġpro cess
Ġma jor
Ġreas on
ain ing
Ġf our
Ġne ar
Ġal ways
Ġme mb
m g
Ġt ell
Ġc ourse
Ġf ail
Ġ2 5
Ġne ver
Ġrequi red
Ġw rit
ĠA fter
m ia
Ġcom b
Ġab le
Ġimpro ve
id ed
Ġpres cribed
Ġte eth
id ual
ĠW elcome
ĠThe se
Ġneg ative
Ġlike ly
Ġ1 6
am p
ut er
Ġpr im
Ġneed ed
olog ical
Ġcal c
n t
Ġcont r
ĠC l
Ġc ir
Ġp ot
Ġrelie f
ĠW e
Ġex pl
id ence
in a
ugh ter
m e
coh ol
Ġad d
Ġw a
n i
Ġe lect
Ġ X
ĠW hen
vail able
f l
Ġob s
I f
Ġe ither
b s
or n
Ġv om
ĠT H
Ġh ig
Ġar ter
Ġstud ies
Ġt ri
Ġ ed
Ġh al
Ġwor ried
og rap
Ġunt il
Ġg reat
Ġrem oved
Ġm ild
Ġpe ople
y roid
er ies
f ort
Ġsyn drom
Ġex c
Ġprev ent
Ġ1 1
Ġt end
Ġm ic
Ġon line
Ġrec o
R E
ad der
Ġmet h
Ġneed s
Ġal most
at a
Ġsp erm
Ġbe h
Ġspec ific
Ġ1 00
Ġb ased
ar r
ĠI m
Ġfeel s
ic ed
Ġ1 7
Ġexerc ise
Ġch ar
Ġquest ions
Ġ1 3
cri ption
e e
Ġantibiot ic
l and
Ġwom en
Ġa st
Ġv al
Ġ =
Ġpain ful
at hy
Ġpos itive
Ġme an
Ġin it
ig ure
Âł Âł
Ġgen er
Ġabdom inal
Ġc ou
ĠH I
is es
i red
Ġexper ien
Ġhe p
ip le
Ġor gan
Ġr un
Ġo per
Ġsim ilar
Ġf ull
Ġm il
Ġda ughter
Ġb it
f er
is hed
Ġab normal
Ġmedic ations
Ġmanage ment
Y ou
ĠY our
Ġm id
Ġm ade
Ġhealth y
ograp hy
Ġd am
Ġsupp ort
um an
op y
Ġredu ce
l ing
Ġwe ak
Ġl ab
ron ch
Ġto p
Ġi ll
Ġm en
n a
d d
Ġvir al
Ġc ame
med i
rolog ist
Ġre action
ul es
re g
Ġm at
Ġs ing
et ic
Ġb acter
Ġcontin u
ot s
Ġ2 4
Ġbec ome
iv idual
Ġdou b
c are
el t
an y
w n
Ġc ult
Ġc urrent
Ġal cohol
ĠHe alth
ĠN ow
Ġth ro
Ġactiv ity
Ġst er
Ġso on
Ġb ur
Ġf ace
Ġwh ite
ect s
as m
Ġdo ing
en ed
Ġg u
Ġevalu ation
Ġm ass
in c
it or
Ġfem ale
oll en
s elf
al ity
Ġl ight
ab ility
in ess
b e
Ġconcern s
Ġlo ok
ar ch
Ġf all
r ate
Ġrev iew
ur g
Ġhal f
p ar
g ar
ĠA b
Ġa ir
Ġ ?
ain ed
ic ien
Ġcontin ue
t es
ĠA ll
ĠC om
ert ain
Ġth ing
Ġsyndrom e
Ġbreat h
Ġsp ine
Ġmention ed
un d
Ġch ange
Ġth anks
Ġeffect ive
Ġl ung
ĠA void
Ġwe l
Ġtum or
Ġact ive
st ru
Ġp red
Ġe at
Ġp a
Ġkne e
A s
Ġpl an
Ġdise ases
Ġs ore
ter ior
Ġ- -
Ġre cept
pec ially
Ġte ch
Ġind ividual
uc k
ĠA N
ĠR e
Ġsur geon
Ġa p
yn ec
Ġsl ight
Ġreg ard
Ġcre am
Ġfactor s
if e
c i
Ġpro ced
ros s
t ed
im al
E S
ons ult
Ġst at
Ġw on
ent ial
Ġwhe ther
uc le
al ing
ain e
g es
Ġcl ass
Ġd ont
m en
asc ular
Ġass ess
Ġpro f
Ġle ast
at her
Ġem erg
E N
Ġrespon se
Ġm other
Ġv itamin
Ġinfection s
Ġli p
Ġan g
ĠAn y
Ġdoctor s
Ġreg ion
r itis
Ġin du
Ġpo ly
Ġvis it
Ġa vailable
Ġpartic ular
Ġhig her
he m
b er
ĠD ear
Ġnot iced
Ġ5 0
ut es
Ġcondition s
00 0
ĠAmeric an
A S
a h
Ġchar acter
Ġac ute
w ard
Ġf oot
Ġcardi ac
ĠN o
Ġst ool
ir d
Ġanal ysis
Ġinh ib
Ġ ide
Ġmeth od
1 5
Ġo pt
ĠC T
ĉ ĉ
m y
st e
Ġconcern ed
id er
Ġpen is
Ġf elt
Ġsw ollen
Ġst ruct
Ġhe av
p or
Ġd ys
Ġth ings
Ġthro at
ĠB l
erm at
R egards
Ġprev ious
Ġm m
Ġcomp lic
iv ed
Ġser ious
z z
Ġb ronch
Ġqu eries
Ġc ertain
le x
g o
Ġspecial ist
Ġas p
w h
a pt
ent al
Ġpo int
ch an
Ġp ub
Ġth yroid
Ġwel come
Ġshow ed
Ġm ale
ĠA d
Ġth in
Ġcan not
Ġinflamm ation
ir th
in ary
Ġf ac
icien cy
Ġinj ection
Ġcir c
A T
O R
Ġwor se
ĠG en
Ġdevelop ed
Ġcomp l
ot t
c hes
b l
ol ar
iat ric
Ġhyper t
ed ic
Ġhy d
Ġbl ock
Ġmult iple
Ġd os
t o
Ġb ed
oc aine
Ġr ash
Ġgrow th
Ġ19 8
re l
Ġtry ing
Ġbel ow
Ġcon cent
Ġ ver
Ġne cess
1 1
Ġe ff
Ġsit u
Ġ z
Ġdiabet es
Ġo x
Ġes pecially
ĠE x
Ġele v
A L
Ġs oft
ra ph
Ġreport s
âĢ Ķ
Ġpro p
Ġthough t
Ġp ow
em ia
Ġtable t
Ġdevelop ment
ole c
o y
en g
Ġd ata
Ġv ag
I t
iv ity
Ġcy cle
Ġg um
l er
um e
ĠS ince
Ġl ine
og n
Ġallerg ic
Ġchild ren
Ġsing le
re en
mon ary
if y
Ġoccur s
Ġpos ition
Ġf riend
Ġext re
Ġ-- >
Ġconfir m
v ic
ro ll
Y Y
as ing
Ġrep e
ĠS p
Ġc oun
z ym
Ġcom es
op sy
Ġdetail s
h ip
Ġast h
ific ation
Ġvar i
Ġdep ression
Ġreport ed
Ġ er
Ġdent ist
Ġg all
Ġ4 0
Ġst ate
Ġsurg ical
Ġst age
ide red
Ġpl ace
n d
Ġp rom
A N
Ġpossib ility
Ġm agic
Ġle gs
ra ction
in us
ĠL e
- -
Ġn ame
Ġcons idered
Ġcou ple
o ks
is c
Ġm ast
Ġpro l
Ġdam age
Ġcomplete ly
Ġprob ably
Ġapp ly
Ġdet erm
Ġdef in
Ġrel ax
Ġsa fe
Ġmin utes
Ġtable ts
Ġn erv
ric t
cc ess
at t
Ġc erv
Ġor ig
ac c
op l
at or
qu e
b y
ĠP hys
Ġal though
j ac
Ġwrit ing
Ġh ot
s ide
Ġr out
ĠIn d
Ġsu per
Ġagain st
Ġca p
us h
Ġreco very
ro du
Ġmusc les
1 4
u ff
Ġs us
Ġ ]
Ġ \
Ġins ide
Ġser um
r ated
a pp
Ġbreat hing
Ġall ow
en se
is od
am ine
Ġt ou
Ġwal k
Ġsub st
r ing
Ġim medi
Ġcomple x
Ġprim ary
ĠO r
Ġy rs
Ġpers on
2 5
Ġp al
Ġwh y
Ġs ch
Ġcy t
ib le
1 3
o ly
O U
i ence
oid s
le t
ester day
s et
Ġg ave
iv al
Ġb irth
v ice
Ġallerg y
read y
T H
Ġsupp le
Ġn ose
Ġle t
Ġd ermat
iss ion
Ġam ong
Ġemerg ency
' m
Ġm uc
Ġiss ues
ĠD e
Ġinter v
Ġperform ed
Ġsu gar
Ġs ite
Ġhur ts
) :
r ac
I C
ress ive
Ġp ract
ĠS e
o ke
Ġme chan
Ġf ast
al ed
Ġstop p
Ġey e
Ġ Z
Ġep isod
Ġpain s
Ġp ri
Ġdel ay
Ġm olec
Ġres ol
ar s
Ġal ready
Ġto tal
Ġsur f
r in
Ġpill s
li ke
Ġmar k
Ġles ions
Ġadv ised
Ġre nal
1 8
Ġv ol
ir atory
Ġst rong
Ġvom iting
Ġre ce
Th ank
A R
Ġfail ure
ul ated
ĠO ther
Ġcl ar
as is
ie ld
Ġc at
os ure
Ġf il
T ake
ran e
Ġbi opsy
Ġt ract
ul in
Ġsuggest ed
Ġo wn
Ġdoes n
ver se
Ġare as
Ġme ans
Ġen zym
ur ation
Ġaffect ed
ĠC on
ound s
Ġdisorder s
ro ph
I D
ĠB e
Ġr ib
Ġb ro
row n
5 0
Ġn at
Ġnecess ary
he a
Ġshow n
Ġprote ins
ort ic
Ġr are
Ġde ep
Ġpers ist
Ġexam ple
Ġc rit
Ġas king
ul ate
ĠI I
Ġhead ache
Ġhur t
ĠG ood
ĠP ro
Ġre se
r h
er ative
and s
Ġfoll ic
Ġp ur
ĠC onsult
um ps
ress ed
l ob
Ġ uter
Ġasth ma
ar i
Ġcl ose
or k
Ġcol on
Ġch o
ĠE ng
ion al
Ġb il
Ġexerc ises
Ġf in
d le
Ġcult ure
ar ing
Ġprodu ct
at itis
rop ri
Ġd u
Ġor der
Ġdis ch
Ġmost ly
C G
ĠD i
Ġsp read
Ġth or
Ġmain tain
er ved
se qu
Ġw arm
Ġvir us
Ġqu ite
Ġsm oking
ĠP l
Ġmil k
c on
Ġmet ab
o res
Ġshow s
Ġd oc
E D
Ġbl adder
Ġex cess
Ġde ar
l ish
Ġd ry
u x
Ġiss ue
Ġdi zz
Ġst im
Ġsu dd
Ġb u
ak es
Ġheav y
Ġsu ccess
re ction
Ġr ange
1 6
Ġpl ac
Ġj oint
Ġw is
os ing
iat rist
Ġh uman
Ġ '
osc opy
Ġde ath
Ġc ocaine
Ġsudd en
st et
ar ian
Ġsl ow
1 7
Ġwa it
Ġt urn
Ġn ucle
Ġs inus
on ia
ĠW ith
ou se
Ġfollow ed
Ġgl uc
Ġphys i
Ġget s
Ġp el
end ing
Ġevalu ated
om es
g r
Ġaddition al
olog ic
ens ive
ĠC ol
Ġt ried
ac ks
min ist
Ġextre me
Ġles ion
Ġne ur
Ġear li
Ġvar ious
Ġreg ards
! !
Ġproced ure
Ġe as
at s
i k
Ġel se
s p
Ġdes cribed
r il
Ġpres ence
Ġen l
Ġl ay
a f
ot ic
ĠS ome
Ġ Q
Ġc r
Ġsay s
ane ous
Ġn ause
Ġfat her
Ġro ot
Ġredu ced
Ġm ut
Ġch ol
Ġcle an
Ġit ch
I S
ri es
Ġfe et
Ġs elf
ar p
Ġw rong
Ġ19 7
ag ing
ter s
Ġgo es
Ġcheck ed
Ġill ness
Ġcomb ination
Ġatt ack
Ġcontr ace
B C
Ġinvestig ations
Ġpre c
i vers
Ġ ul
Ġshould er
ĠAn t
a e
Ġresp iratory
Ġconst ant
Ġt ill
Ġwon der
Ġbeh av
og raph
Ġex act
an n
ly ing
ce ll
3 0
ne um
is ing
ut ure
ĠAN D
ro gen
Ġe qu
Ġaccording ly
Ġmod er
ĠSh ould
Ġcons ider
Ġbe g
Ġse iz
Ġb ow
Ġbel ie
Ġexperien cing
Ġcerv ical
r ight
Ġf act
Ġtra um
ed iatric
IN G
ĠA p
Ġf et
Ġb ig
Ġwho le
Ġmast urb
Ġyou ng
Ġsens ation
Ġc ur
Ġ }
Ġf ore
Ġtech ni
os ter
Ġst one
Ġir rit
Ġhypert ension
Ġf ive
Ġben ef
hy d
Ġunder go
Ġansw ers
Ġmic ro
Ġsur v
w ards
crib e
ĠU S
v ir
Ġy esterday
ap s
Ġf igure
a king
ac hes
ore d
Ġapp ropri
m itt
âĢ Ŀ
ĠW h
Ġl un
Ġsitu ation
ab les
Ġf ing
Ġl ate
Ġcomp ared
it ate
Ġfl u
Ġappear s
hy l
Ġrout ine
he l
ĠNe w
it ation
Ġsex ual
Ġf ract
f or
os ph
Ġst ren
Ġv ess
Ġgener ally
ri b
erg y
ec ause
Ġm ater
o in
Ġcommon ly
Ġcon ce
Ġsus p
Ġr a
Ġf ron
Ġsp inal
Ġw ife
Ġen ough
he re
ri al
Ġfind ings
it ivity
Ġgen e
Ġinflamm atory
ra z
Ġsurf ace
Ġv ent
Ġb ru
Ġc ure
L E
Ġref er
Ġinf ected
Ġcor rect
rom b
Ġarter y
ro f
s on
f ull
Ġuse ful
he ad
is on
x im
ort ion
Ġwor king
Ġs ix
r id
ĠUn ited
Ġm iss
Ġse men
sib le
Ġelev ated
Ġd ro
l ished
Ġthan k
Ġgast ro
Ġdef iciency
Ġrep l
Ġc ut
v i
ist er
Ġro le
Ġe ating
O S
ung al
Ġch ances
Ġregard ing
Ġse qu
ĠM ost
Ġsign s
Ġy et
Ġprov ide
ĠThe n
Ġre le
Ġgiv ing
Ġst ep
ver n
Ġbur ning
o ch
Ġd om
y le
Ġs we
Ġe mb
Ġres ist
Ġdisch arge
Ġor th
w ise
Ġstopp ed
y ear
an c
Ġint ra
Ġh ip
Ġam ount
Ġsp ot
Ġdr ink
ĠF e
ĠP ar
Ġad minist
ĠI N
Ġper cent
Ġsim ple
u rop
Ġpsych iatrist
Ġits elf
Ġbl ack
Ġl uck
ism s
e an
Ġbec ame
Ġr ap
Ġsol ution
Ġdi arr
Ġpop ulation
Ġch ance
Ġev idence
Ġfl ow
Ġhe ll
Ġul cer
ul ed
om p
Ġdet ected
om ic
d s
ĠS c
ĠT O
Ġconsult ing
Ġop en
a i
Ġw all
Ġov ulation
e z
Ġs ick
Ġtem per
se e
Ġit ching
Ġb al
pt ive
roll ed
e ad
Ġf uture
ang u
ĠE R
reat ment
u k
Ġc ere
it ary
res ent
l or
Ġfrequ ent
Ġ ...
Ġincre asing
lic ation
Ġpl ate
Ġ2 8
Ġ2 1
" .
al y
og lob
ĠA c
Ġtreat ing
Ġform ation
op athy
Ġmon itor
c hed
Ġappropri ate
ĠA pp
Ġfrequ ently
Ġo k
Ġ2 2
Ġur inary
Ġinter c
ren ces
am s
Ġfood s
ac y
Ġgrou ps
Ġey es
Ġv alu
i ver
Ġlo oks
Ġst ay
f unction
Ġcom ing
i er
Ġtou ch
ont in
Ġcon n
Ġtr ig
ag ed
Ġpan c
Ġsecond ary
ong ue
Ġe jac
p ort
Ġsp e
n ia
Ġcol le
Ġimmedi ately
od ies
Ġmid dle
Ġk ill
ra w
ul a
Ġrel ative
omet imes
Ġexper ience
ific ations
at in
Ġser vice
Ġi ron
arg ed
Ġf ar
ri but
oc ial
Ġrecommend ed
Ġr ather
orm ally
Ġobs erved
end ed
ater al
Ġ +
et s
Ġmemb rane
Ġt al
Ġlead ing
Ġpo or
at ures
ĠT o
Ġ ..
Ġsec ret
Ġhorm one
Ġp us
m s
Ġp neum
O M
Ġevery thing
Ġhand s
an ced
Ġhe s
Ġc oll
l o
ĠP C
est inal
u pt
Ġwor ld
ist ic
Ġt ongue
Ġpat tern
Ġcom m
Ġa ction
ĠC ould
ter nal
ĠâĢ ľ
Ġre al
ĠĠĠĠĠĠĠĠ ĠĠĠĠĠĠĠĠ
O T
Ġth us
Ġt ab
Ġpro st
Ġanal ges
Ġimmun e
Ġint ake
Ġcol or
Ġsh arp
Ġcomplic ations
Ġm l
t on
Ġth ick
o e
us ed
j ect
Ġrap id
Ġe gg
he st
Ġup on
Ġag g
ra g
Ġex cept
Ġg uid
id s
Ġexp osure
as al
r ine
Ġcons ist
Ġapp re
Ġprodu ction
ĠGen eral
Ġt ight
Ġdecre ase
Ġ2 6
Ġ19 6
Ġ Î
r um
Ġnause a
Ġl arg
ot e
Ġn ut
ĠWish ing
Ġ ure
k ill
Ġpul monary
Ġt ired
Ġv iew
fl amm
er ation
ĠO ne
Ġad ult
b o
Ġen c
Ġm o
c al
Ġb ind
Ġhell o
ĠB P
ynec ologist
em a
as ma
Ġ6 0
Ġan k
ĠB ecause
m m
b al
Ġest ab
Ġf oc
Ġm ill
F T
Ġrec ent
b ral
Ġbacter ial
ĠO b
E L
ast ic
ocy tes
Ġdirect ly
ol it
b all
Ġtyp es
ĠP h
Ġwal king
az ole
Ġnat ural
Ġwonder ing
Ġother s
Ġal tern
b it
Ġl ost
Ġstat us
Ġst ones
Ġslight ly
g er
Ġp hen
ĠH is
Ġincre ases
r im
Ġfat ty
and om
m or
Ġtest ing
Ġtak es
am et
Ġe ch
Ġorig in
il s
ĠSt ates
ĠB est
Ġde mon
Ġ2 3
Ġc m
ur s
pt ic
Ġindividual s
ep end
Ġdoub ts
Ġdi v
th ritis
Ġdermat ologist
ros is
Ġm ix
ĠA L
Ġcom mun
Ġcalc ium
Ġn or
Ġsol ved
Ġlong er
Ġs at
ac et
ter m
Ġinvol ved
ĠB rit
m ore
rot e
Ġs ir
Ġc ram
Ġinfl u
Ġbow el
Ġret urn
full y
Ġs ound
ĠH er
Ġlun gs
Ġpot ential
ester ol
Ġstren g
Ġcurrent ly
Ġcan t
ic ient
ra v
em ber
qu es
Ġli ve
ind ly
4 0
h a
Ġdemon st
Ġmove ment
Ġm om
ox ic
Ġappre ci
Ġtiss ues
Ġdisc om
stru ction
Ġweak ness
W elcome
it er
Ġl ack
est ion
o on
ĠAl though
Ġdiarr hea
Ġs our
Ġrecept or
Ġcon c
ra ft
Ġtraum a
om as
Ġexpl ain
Ġexp ression
Ġdiscom fort
Ġdid n
Ġdefin ite
Ġparticular ly
Ġtest ed
Ġr ay
ĠIt s
ĠE CG
ir l
ip her
ar c
Ġinterc ourse
ove red
Ġreas ons
Ġd ark
Ġw ish
ov al
l in
F ig
Ġl ig
Ġgluc ose
ver age
Ġregular ly
p ut
Ġpost ing
Ġdr in
Ġstart ing
ent y
Ġtum ors
Ġre ve
Ġev ent
ĠJ ust
Ġl angu
Ġen ergy
Ġd uration
S A
ĠTH E
Ġ2 7
Ġth ird
pl ant
Ġan emia
Ġd ri
Ġe ver
ĠS urg
Ġearli er
o ver
ĠR ec
Ġfron t
" ,
Ġcon cept
ic y
Ġs am
Ġt er
ar ily
Ġt arg
Ġst ro
am es
f ect
Ġpri or
ert ility
Ġto x
Ġw at
ic ial
Ġexamin ed
Ġm akes
er ous
Ġa w
ar b
Ġinit ial
Ġag ents
Ġ vers
C h
Ġcontrace ptive
Ġb ase
Ġsch ool
ens ity
Ġb ott
pp ed
C T
ac hed
Ġvalu es
Ġdes ign
Ġinter nal
Ġhep atitis
ĠA f
Ġa ch
ĠHealth care
am ol
Ġc reat
Ġc ost
reg ular
Ġgr ad
Ġde g
ros c
Ġc ry
Ġf ru
Ġhyp ot
Ġun p
Ġrel ations
Ġster oid
s c
Ġreview ed
Ġcent ral
Ġtemper ature
Ġcon du
ĠPhys ician
i ft
Ġcontinu ous
ĠB y
Ġcan al
Ġd il
S o
am ed
Ġhorm onal
ig en
Ġhes itate
ĠI V
Ġj aw
Ġmal ign
m p
Ġth romb
mb er
Ġcl ot
O D
Ġthere fore
Ġg reen
s h
in flamm
ar ies
Ġsens itivity
Ġhem at
z e
Ġmeas ure
' ve
Ġhapp ened
Ġcyst s
act ive
as ter
am ent
ĠW ill
A D
Ġnod es
Ġ2 9
Ġdys function
Ġhapp en
ĠH ave
Ġ <
il t
Ġcompl ain
Ġunder lying
ĠG et
Ġob tain
vir on
Ġr andom
ĠF irst
Ġinvol ve
ĠD NA
Ġca v
i o
ell ow
or rh
ĠP re
Ġrec ur
mitt ed
Ġabs cess
ere st
Ġdifficult y
y ou
ur geon
as ion
xim ately
Ġbehav ior
og ram
ĠS ometimes
Ġchol esterol
n y
e qu
eng th
Ġdoub t
ect omy
ost ic
op ath
ip ation
ro x
Ġf ill
ent er
Ġox y
Ġins ulin
w hat
ĠĠ Ġ
Ġd er
li ed
Ġma king
E T
ĠR ep
Ġve get
iv es
P T
Ġcomp on
Ġ3 5
od e
hy th
Ġdes cription
h ist
2 00
rof en
Ġnumb ness
Ġthor ough
j ects
Ġcomp ression
Ġval ue
l ant
Ġrec ogn
Ġstand ard
ĠNe u
Ġcontr ast
lect ed
ĠD on
Ġassess ment
Ġhigh ly
Ġs qu
Ġse par
Ġbeg in
im um
Ġdist urb
ivers ity
Ġsc re
Th is
Ġhapp ens
Ġbacter ia
Ġpl asma
Ġlab or
Ġv acc
ĠS y
ĠM ay
Ġsever ity
Ġrem oval
es e
os ition
Ġprof ile
Ġnod e
Ġg irl
Ġresp ond
C H
Ġdecre ased
Ġvess els
Ġfe atures
Ġmar ried
Ġqu ick
Ġo pp
Ġconfir med
j ust
it ud
Ġbronch itis
Ġsal t
Ġprodu ce
ĠU s
Ġd rain
Ġrecept ors
b up
ol ism
ĠB r
Ġgum s
Ġprov ided
Ġl in
o z
Ġst rain
ru p
Ġhealth care
Ġask ed
Ġfat ig
Ġlim ited
Ġcons um
Ġmove ments
. )
Ġp ull
V E
Ġcont aining
Ġs un
Ġr uled
Ġrec ord
oglob in
Ġtr ou
Ġp le
Ġappro ach
Ġint erest
Ġli ft
Ġinh al
um ent
2 4
Ġin ner
ĠM ed
Ġgu ide
Ġh arm
Ġm ax
Ġ201 0
ap e
Ġ5 00
hes is
Ġm ental
Ġgo vern
op erative
Ġm ind
Ġexcess ive
il ities
ĠCh rist
i ff
Ġw ound
iz ing
Ġgen es
Ġh it
Ġproper ly
Ġsp ace
Ġmod el
Ġuter us
at ors
Ġl ink
Ġarm s
Ġg ynecologist
Ġdis s
Ġa x
Ġd ig
Ġen g
v ent
ĠC are
Ġir regular
if est
ill in
Ġv ascular
Ġ >
Ġest im
Ġconce ive
Ġc ort
Ġimprove ment
Ġsit ting
Ġasp ir
viron ment
Ġb ul
ĠA ug
t ime
id ing
Ġt rain
Ġinhib it
l ux
es is
Ġp ediatric
Ġm ig
Ġli qu
Ġchem otherapy
ren ch
b ing
le y
Ġser ies
ĠF ig
ĠN or
p ing
Ġc ity
erc ul
Ġli f
m er
ĠCl in
Ġgen etic
Ġenzym es
Ġbas is
g ien
Ġre lease
Ġw ide
Ġrese arch
Ġrep resent
m ission
yp e
Ġstro ke
acet amol
s el
bup rofen
ĠW or
ĠF rom
Ġar t
Ġpow er
Ġrem ove
ĠE urop
ipher al
ian s
hel ial
Ġsignificant ly
Ġexc lud
2 1
ĠI S
Ġaut h
Ġn asal
2 3
Ġout side
ĠY es
Ġmet ast
Ġto get
Ġform s
Ġn ormally
Ġdefinite ly
ic es
al ysis
Ġo ption
ĠR eg
Ġtoget her
Ġradi ation
Ġpos terior
Ġelect ro
or i
Ġdu ct
Ġr ates
Ġcont rolled
Ġph ase
Ġt ing
Ġcough ing
Ġbre ak
Ġbe gan
Ġo il
Ġc ord
Ġrequi res
O L
Ġcent ury
ĠH y
Ġitch y
Ġan n
Ġent ire
Ġmen stru
Ġinclud ed
Ġhe aling
ĠD uring
Ġtem por
Ġch rom
Ġl umb
Ġstart s
8 0
ar ri
Ġtest ic
Ġproduct s
Ġnerv es
Ġepisod es
Ġneu rologist
TI ON
Ġan terior
Ġpneum onia
P lease
Ġf ix
Ġlo ose
Ġcar cin
Ġsurv ival
Ġhy gien
Ġpers onal
ĠHI V
Ġide a
ort s
Ġtarg et
Ġro om
Ġresult ing
i ated
Ġhe ight
Ġs ocial
inflamm atory
i very
Ġgreat er
Ġresp ective
ĠS T
A M
Ġclar ifications
t t
e k
Ġsupple ments
Ġdro ps
Ġm it
ÂłÂł ÂłÂł
Ġth igh
in ct
Ġlead s
Ġv en
Ġlo oking
Ġtend er
Ġov arian
Ġcount ry
Ġpel vic
Ġac ross
Ġank le
ĠOb stet
Ġmasturb ation
Ġl aw
Ġ ing
ack age
Ġdepend s
Ġfract ure
we ight
Ġg as
ĠEng lish
d e
os a
Ġ ess
Ġsp ots
n ed
an a
Ġtrans plant
all ow
ĠN ot
Ġpan ic
ĠT reatment
Ġcont ains
Ã ©
Ġextreme ly
Ġident ified
p it
wh ile
y ing
Ġstruct ure
ac es
Ġmin or
Ġthin king
ĠR es
rot ected
ĠA S
Ġdos es
Ġsam ple
Ġy r
en ces
Ġmay be
ment ation
ĠF urther
Ġ8 0
un e
I L
w ith
Ġmater ial
Ġ201 2
W ish
Ġal one
Ġqu ality
Ġneu rolog
Ġ201 1
Ġtechni ques
at al
ĠS ch
ĠM D
Ġconcent ration
ic ation
Ġmeas ures
. "
Ġo ste
Ġindu ced
M y
Ġvag inal
ĠS ec
Ġorth op
Ġpract ice
Ġenl arged
A l
Ġwor s
ly c
ul ating
Ġon set
Ġach ie
Ġb ump
Ġme m
Ġa verage
Ġredu ction
Ġmat ter
Ġpred ict
Ġmed s
Ġbec omes
Ġme als
Ġact ually
Ġs ent
Ġresist ance
Ġdel ivery
Ġr id
oh n
Ġinst ead
ĠG erm
Ġrelations hip
Ġep it
6 0
ro g
Ġvol ume
Ġactiv ities
Ġa ff
Ġhygien e
Ġn ature
in ant
ar ia
Ġad equ
res h
ĠA ust
Ġrem ains
U S
Ġyour self
Ġl ist
ĠH ist
Ġme et
r at
Ġappro ximately
Ġbo y
Ġb ath
Ġindic ate
Ġf ig
Ġpl enty
Ġrelie ve
Ġs k
Ġpres cribe
2 2
Ġl at
Ġprodu ced
Ġtub e
om an
Ġ4 5
Ġdiabet ic
p ite
Ġcent er
Ġm ac
Ġrun ning
9 0
Ġunp rotected
ed s
Ġcar b
n ce
Ġident ify
Ġbeh ind
ĠO F
Ġgl and
Ġcor rel
Ġfrequ ency
Ġs um
ercul osis
Ġe c
Ġsymptom atic
Ġf ield
Ġoxy gen
ĠBrit ish
ĠW ell
I G
ĠC al
Ġother wise
ĠF amily
Ġb all
Ġrem ain
em pt
Ġst re
ĠW ar
Ġdizz iness
Ġnerv ous
Ġfet al
E C
ĠTh at
, ,
Ġend omet
Ġim aging
Ġs ection
Ġref lux
Ġar thritis
Ġben ign
Ġmy self
ol es
Ġ201 3
Ġfatig ue
Ġw ar
Ġapp oint
ens es
ru ction
Ġpanc reat
res p
Ġg el
Ġper ipheral
Ġinvestig ation
Ġinclud es
Ġrec urrent
Ġc ross
Ġf ell
ĠC ar
Ġseiz ures
Ġk g
ĠM agic
Ġtyp ically
Ġman ifest
Ġsy rup
Ġpres cription
or b
Ġj u
Ġm agn
Ġcontinu ed
Ġde gen
Ġen vironment
ĠâĢ ĺ
Ġsuggest ions
Ġal right
h ood
r ite
Ġapp lication
Ġob struction
Ġrepe at
Ġv ia
ĠM edic
Ġj oin
Ġsp asm
Ġun able
Ġs ort
Ġopt ions
Ġh um
ĠK indly
.. ...
ĠOn ce
Ġeven ing
Ġhorm ones
in o
Ġmolec ules
Ġf ungal
ne ys
ĠE n
Ġmain ly
Ġprevious ly
use p
ĠF ran
O P
Ġdiffe rence
usep ackage
Ġa f
am ic
en e
iv ing
a ut
b orn
ĠB o
Ġsens itive
Ġsuff er
Ġun com
l t
Ġsyn t
Ġh old
Ġmonitor ing
Ġsuggest s
in ate
Ġb urn
Ġrespective ly
N T
Ġthrough out
Ġmem ory
in ine
Ġqu ant
Ġbelie ve
Ġpub lic
as ia
Ġ9 0
Ġpl us
Ġsystem s
Ġph ot
Ġrepl ace
Ġl ength
Ġpart s
Ġrece ived
Ġoper ation
Ġspec ies
Ġchem ical
Ġph osph
Ġmill ion
Ġgr ade
i pp
Ġnot ed
bl adder
ition al
Ġsal ine
Ġindic ated
Ġvent ric
iv en
Ġy ellow
As k
Ġes oph
Ġ4 8
k g
m i
ĠBl ood
ĠY OU
Ġprog ram
ĠJ ohn
Ġatt acks
Ġhem orrh
ĠG ynec
wh ich
Ġsleep ing
Ġrepe ated
od ay
c ont
ar row
om al
im mun
Ġdos age
ĠM any
Ġcon v
am il
Ġ ice
ĠG r
oth ing
er ia
Ġdetail ed
Ġang i
Ġstud ied
Ġpain kill
ph al
Ġhead aches
ul f
Ġher nia
4 8
opl asm
te red
ri ef
Ġbott om
Ġvis ual
Ġapp lied
Ġsystem ic
is f
2 7
I T
Ġconst ipation
rict ion
m l
Ġs ac
Ġ200 9
c an
Ġl ap
Ġchang ed
w ork
os es
Ġm ort
Ġacc um
Ġrefer red
d i
on ic
ĠA cc
epend ent
Ġlater al
Ġpre t
un t
Ġwis hes
Ġp olit
Ġr upt
Ġdeterm ine
Ġsc ared
Ġbu ild
em ic
Ġac he
Ġcirc um
Ġread ing
Ġen h
ĠA D
Ġper man
Ġ3 7
Ġsa w
A C
v is
ed y
Ġpossib ly
Ġb umps
Ġeas ily
Ġatt ention
Ġfru its
Ġexperien ced
ul s
Ġimp act
Ġsub sequ
ĠA M
one y
Ġatt empt
Ġtr ad
Ġpath ology
Ġloc ated
Ġactiv ation
ĠM Y
Ġfunction s
Ġw oke
Ġdiagn ose
Ġre ct
ĠP er
Ġg yn
ĠWor ld
on ary
Ġ7 0
Ġpow der
Ġex ist
Ġwis dom
le g
Ġkid neys
fe rence
Ġlangu age
S H
st er
B S
m et
m ic
ell ular
Ġshow ing
it es
Ġto wards
r is
Ġaut o
Ġt ip
Ġsp ect
Ġfluid s
Ġth r
Ġ3 3
Ġ3 6
I I
Ġfind ing
Ġveget ables
Ġmot ion
Ġhe al
Ġprol ong
Ġr ise
al es
Ġfollow s
am b
Ġantib odies
ap se
4 5
c he
Ġhelp ed
ester one
as k
Ġmot or
Ġb ite
Ġfing er
cy st
and ing
ran ge
Ġpartic ip
Ġra ised
Ġr ich
Ġca ps
a ec
Ġdet ect
or ies
Ġr ub
ĠAug ust
Ġneu rop
Ġsuggest ive
r ound
Ġabnormal ities
e ared
Ġgiv es
Ġg ro
Ġwith d
Ġinter n
Ġve in
Ġdelay ed
Ġev ents
Ġan est
w here
ur ch
Ġh ouse
Ġtrou ble
Ġinter action
Ġst ret
Ġe th
Ġo int
of en
Ġobtain ed
Ġc ate
ĠH A
ocy t
he tic
ĠE ven
Ġp ack
Ġtrans fer
ut ic
Ġp ort
Ġm us
Ġdepend ing
Ġmemb ers
un k
Ġb rown
fort able
Ġc t
Ġcon g
l ation
ĠE ar
Ġep id
ĠC D
Ġform ed
ĠM et
Ġdrin king
g ing
Ġexper im
Ġy es
Ġclin ic
ad es
Ġrelative ly
Ġis ol
al p
Ġwhere as
vic es
ac ed
v ant
osc opic
ogen ic
on y
Ġtop ical
om en
Ġabs ence
Ġcomp ar
Ġad en
Ġ19 5
ul ations
ĠS urgeon
Ġinc idence
Ġl a
n is
Ġt en
Ġd im
ĠI T
Ġt ear
Ġun less
Ġestab lished
ĠAf ric
Ġdeg ree
Ġh ost
Ġmethod s
Ġst ates
2 8
Ġunderst ood
Ġcy c
f riend
Ġdiagn ostic
Ġwom an
Ġstruct ures
an u
ist ics
Ġd ate
re w
Ġcount ries
Ġsp icy
Ġant igen
v al
ĠS ir
a us
ez ing
Ġlarg er
ir ub
Ġe rection
Ġpo in
Ġepisod e
Ġd est
Ġneu ro
Ġmort ality
oc oc
Ġting ling
as hes
Ġdef ined
Ġbro ad
Ġfunction al
y st
U T
Ġgovern ment
Ġr ati
ill ary
Ġgen ital
op s
Ġhyd ro
3 5
Ġgast ric
Ġgall bladder
Ġsub s
Ġmenstru al
o or
ĠP ain
e ep
m it
Ġdizz y
u pp
et ite
ĠA ct
oc al
y cin
Ġ7 5
Ġhem oglobin
Ġ â
a ving
i us
Ġpro gn
ab il
mon ologist
v ision
c o
is p
Ġst ra
c ut
Ġl ob
m agic
ĠS pec
O W
Ġplac ed
Ġtox ic
ĠF l
Ġexp ect
st it
Ġtech n
Ġpre fer
Ġrep air
u ke
h ib
Ġor g
as on
Ġcont ain
Ġnot ice
Ġprof ess
Ġmoder ate
ay s
ĠG o
2 6
Ġtub erculosis
p ress
ĠP atient
Ġed uc
Ġprost ate
oll ow
Ġbal ance
ur ies
Ġ3 1
Ġwor ks
Ġvag ina
Ġprot ect
Ġimpro ved
att le
Ġ ic
Ġcardi ologist
Ġre ach
Ġver te
Ġcav ity
Ġadd ed
Ġanti hist
age al
Ġdevelop ing
rop hy
os in
Ġov ary
Ġsome one
Ġech o
ul monary
Ġc e
t le
un ct
Ġaltern ative
Ġlumb ar
Ġl ed
Ġpart ner
Ġp ict
itud e
Ġstool s
Ġext raction
Ġf r
rib ution
m ature
Ġinterv ention
i ol
Ġresp ons
Ġtal k
ĠUs ually
A B
Ġh or
Ġover all
ri a
Ġantib ody
s he
amp les
ĠT B
2 9
Ġ201 4
Ġn et
c m
Ġwant ed
i ology
od ium
Ġtri al
.... ....
Ġac cept
k now
Ġsour ce
Ġg ran
Ġfe ed
Ġappreci ate
The re
Y our
ĉĉ ĉĉ
ke le
Ġresol ve
Ġbr other
Ġ200 8
Ġacc ident
p les
Ġint rodu
Ġle ar
Ġ200 7
Ġsit es
Ġpass ed
Ġfil m
Ġloc ation
Ġsudden ly
Ġre qu
Ġimp lant
kele tal
Ġallerg ies
ĠT oday
B est
i ation
Ġb us
Ġsm ok
Ġ9 5
ĠUn iversity
ĠSec ond
Ġsp l
Ġf inal
ĠM a
F or
oc ard
ĠF OR
rac ellular
ne ver
b um
p ro
Ġtreatment s
Ġse g
Ġvis ion
Ġsat isf
Ġreg ions
u ed
Ġmin ute
Ġold er
Ġster oids
b ow
7 0
ĠM ore
a im
Ġw rite
Ġess ential
Ġm enses
Ġr ad
Ġto ler
Ġar ch
com es
ol ution
w o
Ġde m
Ġst e
ĠM an
g ia
Ġab ility
Ġb ran
Ġcor onary
Ġsur round
ĠW H
Ġb and
op t
Ġprog ressive
ĠP at
Ġconcept ion
Ġadequ ate
Ġnear ly
apt er
Ġrele ased
Ġappoint ment
Ġpur p
ĠM e
Ġindic ates
Ġexp ected
Ġapp etite
Ġsee ing
g ed
ĠCan ad
Ġassoci ation
Ġcho ice
Ġac cess
ple te
Ġlif est
erv ation
Ġbind ing
Ġl iter
Ġne ut
oph il
ic o
f ection
Ġpret ty
re st
Ġmut ations
Ġ3 2
ps y
ĠS G
Ġacc ur
Ġide as
Ġmechan ism
irub in
an i
Ġwas h
Ġthough ts
ĠL ast
Ġsh ot
Ġ |
a u
ren ts
or ry
Ġwithd raw
Ġgot ten
Ġent er
Ġhapp ening
Ġcondu ct
Ġsm ell
ĠD is
Ġfoc us
ĠA C
Ġstra ight
p e
Ġrespon sible
ĠD ay
ogn itive
Ġinvolve ment
er ior
om b
Ġch ann
Ġgrad ually
ĠT est
Ġcram ps
Ġasp ect
Ġbenef it
Ġdis app
Ġ %
ul atory
ĠC o
Ġcate g
1 00
Ġconsult ed
Ġtrans port
Ġacc omp
Ġdent al
Ġlip id
Ġslow ly
oc ol
Ġ3 8
Ġf av
Ġlook ed
d en
Ġcharacter ized
id ity
ĠF rench
Ġlifest yle
r ations
Ġ ut
Ġpul monologist
Ġfor ce
ĠGynec ol
el ine
Ġg arg
ap h
iven ess
Ġob stet
ach ment
Ġreco ver
ĠAcc ording
Ġm ood
Ġconsult ation
ĠS m
Ġapp end
ov ascular
Ġc ortic
Ġ3 4
Ġprev al
om er
Ġf it
Ġmetab olism
ver t
Ġfull y
Ġdiffe rences
ress ing
Ġpersist ent
ĠCh ar
Ġhe nce
k en
r d
or ption
A P
ing u
Ġbe ll
Ġkind ly
. -
h i
Ġj ob
ĠC ent
Ġcarcin oma
Ġsupple ment
Ġstand ing
en osis
Ġenzym e
Ġmetab olic
Ġproced ures
Ġdis pl
Ġp s
Ġ201 5
ĠS ee
ray s
Ġinf ect
Ġ200 6
Ġhur ting
immun e
Ġhe at
Ġext ent
Ġstreng th
Ġf ert
ĠA re
Ġsw allow
Ġjoin ts
i i
r ates
n o
Ġv it
Ġd ang
id al
Ġnumb ers
Ġtra vel
Ġt ension
Ġadminist ration
Ġrep ly
Ġpe pt
ĠN ational
ĠI g
EN T
Ġneed le
Ġsmall er
Ġtr ue
Ġout come
ati ves
s is
Ġstim ul
a rent
Ġint estinal
) ;
ract ed
Ġad verse
f usion
Ġl umps
Ġm ice
Ġp im
Ġh om
Ġmiss ed
er n
ĠA g
Ġoint ment
ar in
Ġad just
Ġp it
Ġg ain
Ġim bal
Ġgyn aec
Ġc op
Ġal ot
Ġac ne
3 6
Ġins ert
Ġun like
Ġli ving
Ġgrow ing
ĠB en
Ġn um
Ġr ing
Ġauth or
er b
ĠP r
Ġbet a
ĠM in
t a
g y
Ġw rist
om at
ĠDo es
asion ally
ester n
raz ole
Ġvar iety
Ġsal iv
Ġliqu id
em b
Ġadult s
Ġcon sequ
Ġreaction s
Ġ15 0
Ġterm s
Ġimp air
ĠAp ril
Ġle ave
ĠE nd
erg ic
Ġe con
E G
ĠIn t
Ġb rief
Ġsm oke
ĠU se
Ġus ual
Ġcyc les
pl oy
Ġsuff ered
ograph ic
he um
ĠC ardi
e w
Ġne ph
Ġperman ent
Ġrare ly
Ġseiz ure
Ġlot s
ĠF igure
Ġ $
ĠA T
Ġcoun ter
Ġmusc ular
Ġreve aled
Ġinjection s
ĠB oth
ĠB ar
Ġplate let
ian ce
Ġset ting
Ġobstet ric
ut ed
Ġsh all
Ġn arrow
Ġpediatric ian
rel ated
0 5
Ġc ured
ĠAs s
Ġt y
ĠC ont
oc on
och ond
Ġdeterm ined
Ġirrit ation
Ġint eg
7 5
ict ion
A Y
Ġdid nt
Ġdemonst rated
Ġd og
ĠT ry
Ġphysi otherapy
Ġext ra
Ġve ins
Ġmechan isms
3 3
ast e
Ġredu cing
Ġreplace ment
Ġcolle ction
Ġm es
Ġnut r
Ġpoin ts
Ġscre ening
Ġhe ard
ĠG u
ĠT able
Ġd en
ĠG e
a ff
Ġbegin ning
Ġadv is
Ġcrit ical
Ġsequ ence
Ġint est
Ġr ot
ocy te
ĠE S
st ruct
Ġprog esterone
Ġinit ially
ly cer
ic ular
Ġlap ar
Ġha bit
Ġinf ertility
ĠWh ile
Ġatt ached
Ġi l
Ġpar amet
Ġrecur rence
p es
a fter
Ġst iff
Ġed ema
ribut ed
as ive
Ġ Â
Ġte am
art ment
Ġsign al
ig o
ĠJ u
Ġgro in
in ated
Ġsub jects
Ġc d
Ġmeas ured
Ġevalu ate
Ġmuc us
o oth
i ke
Ġlift ing
D o
b ack
Ġp c
Ġcere bral
y ur
ĠB et
oc ks
y rs
Ġl and
Ġb ile
4 7
h al
p r
Ġt it
Ġadv ance
Ġm el
Ġimmun ity
as min
Ġprolong ed
Ġp ap
ĠP e
Ġfing ers
Ġ200 5
Ġs ister
Ġcrit eria
Ġchrom os
Ġdiscuss ed
anu ary
v ious
Ġrati o
ĠQ u
ĠH E
ĠU lt
ĠRe v
ob er
Ġout comes
Ġinh aled
Ġ *
ul itis
Ġappear ance
th s
l am
Ġbas ic
Ġmoder n
ri um
ĠE NT
Ġs end
oun ts
ĠUS G
ĠB C
av es
ĠI ve
Ġsecret ion
p ir
ell a
ol ute
Ġar g
Ġapp eared
Ġl og
ĠT rans
and er
Ġfib ers
Ġpot ent
Ġorg ans
Ġmic rosc
Ġver t
Ġsc ar
Ġext ended
Ġt ons
Ġs ed
Ġpass ing
i et
ass ium
Ġfe ar
ĠInd ia
G ood
per t
Ġanalges ics
ĠT e
ag on
ub lic
ĠA lex
Ġwe igh
Ġn ational
B ut
ress es
Ġlim it
Ġgynaec ologist
hes ia
Ġ q
Ġm isc
im en
Ġi buprofen
L D
p lease
ab ies
ĠHist ory
i ary
L Y
Ġsc alp
Ġha ven
Ġb p
Ġel bow
Ġdou ble
Ġfollic le
ĠS w
c ious
ol i
le ts
a und
ĠCom p
Ġdes pite
ri ble
Ġlim b
Ġt ext
Ġval ve
land s
Ġcomple ted
ox id
o o
Ġfor ward
ur ance
U R
Ġst ent
ir y
ce ed
ĠP sych
ab s
Ġlabor atory
Ġsubst ance
lo ad
Ġcare fully
Ġcreat inine
ĠPatient s
Ġpers ists
ofen ac
Ġconst it
Ġs ides
Ġmix ed
est ed
Ġhe ar
Ġqu it
Ġinhibit ors
ĠM on
Ġejac ulation
z ed
Ġan im
Ġinvestig ated
ree k
Ġp ump
Ġanal y
Ġmor ph
yur ved
Ġinst it
Ġbl o
ĠNor th
y r
Ġpre par
Ġg lyc
Ġtyp ical
3 8
or ation
ro om
ou p
Ġb ar
Ġb ones
t ion
ĠC H
ĠD ep
int estinal
Ġmo ving
Ġtechni que
ast y
Ġag ed
Ġuter ine
ĠO N
Ġanalges ic
Ġpsych ological
Ġrem ember
U L
Ġcon dom
Ġst enosis
ĠIn c
om ing
Ġcho osing
C D
b ra
Ġoccur red
od il
Ġpul se
Ġf amil
oly tic
Ġpr inc
Ġstep s
Ġsuccess ful
Ġch lor
lect ive
air s
re as
Ġs amples
Ġvacc ine
es ity
Ġs ess
S t
Ġsupp ly
Ġgl ands
l im
Ġsc rot
ic l
Ġtrain ing
Ġv ary
know n
ĠY ork
Ġfet us
ren al
Ġmajor ity
ĠO ct
t ies
Ġw in
ag en
Ġprogn osis
Ġrespons es
it ch
Ġfor um
ĠG P
Ġco ver
Ġorig inal
ang l
Ġde b
aund ice
3 9
a ired
c ies
Ġrib s
ĠAl b
Ġgl ob
Ġ200 0
Ġwithdraw al
ĠAust ral
os al
Ġ ....
Ġf resh
it us
ce mber
Ġpath way
oster one
Ġbl ue
ac ity
ĠGerm an
Ġbell y
Ġmar row
Ġevent ually
Ġven ous
ill s
r hyth
Ġsc ore
Ġbr ing
Ġph arm
Ġbut t
ĠI U
Ġ ery
Ġ201 6
ĠC ons
id ine
Ġclin ically
Ġcomb ined
i ate
he li
Ġst ri
ac in
Ġu rologist
ĠB E
ir al
a ks
Ġpub lished
Ġem ot
b ased
k y
p ass
Ġt in
ĠM ar
ĠS im
Ġsc ient
Ġex ternal
Ġv as
Ġcan d
ĠK ing
Ġke y
Ġi ve
ĠS outh
Ġr ashes
a ctor
Ġfa ir
Ġadv anced
t hen
?? ?
U RE
ad s
Ġelectro ly
Ġfin ally
Ġin n
Ġwe ar
Ġo l
Ġd ust
k al
u ous
ast ro
el ing
Ġadvis able
H e
% .
Ġse ven
Ġcre ated
Ġident ity
em s
Ġs il
Ġ5 5
ow er
ur ia
j ection
Ġexam ine
Ġb order
e utic
Ġ !
ĠT r
Ġhep atic
opath ic
Ġk in
ĠP res
Ġs odium
Ġche ek
ary n
Ġov aries
d o
Ġag ent
Ġle v
Ġ7 2
Ġlay er
W e
ĠC or
Ġmalign ant
iot ics
ĠH igh
Ġg ame
Ġdes cribe
Ġprog ression
s m
ard ing
Ġeff ic
ox y
Ġexclud e
Ġimbal ance
ran ial
Ġ ens
Ġm ob
Ġsuper ior
3 4
Ġmy el
ĠTh us
ĠOn ly
Ġarter ies
Ġemb ry
Ġd ull
Ġp y
ogen esis
ĠH ep
Ġcompon ents
ĠP A
Ġknow ledge
Ġrep rodu
Ġox id
Ġb orn
E M
ĠAn other
3 7
fe rences
Ġdi ed
ĠIn tern
Ġgast ritis
Ġsh ift
Ġbru ise
Ġmom ent
Ġdec ided
ĠMedic ine
ĠS er
Ġ4 4
resp ond
Ġne c
Ġprom in
9 9
Ġpar acetamol
Ġ6 5
Ġst rate
ru pt
Ġm ening
Ġfe ature
ĠO R
Ġsh ape
ro b
Ġpa rents
Ġp ig
Ġsynt hesis
Ġf lex
Ġext ensive
Ġrel ation
Ġpossib ilities
Ġpar as
w are
ĠC a
l ast
Ġcomp uter
Ġdoes nt
Ġbil irubin
c hem
Ġobstetric ian
m at
g one
Ġsay ing
ĠAn g
if ically
op en
Ġrapid ly
m al
Ġel im
Ġcortic oster
Ġprov iding
Ġabs olute
Ġneur ons
n es
Ġs ne
Ġexper t
Ġsuff icient
Ġlot ion
ard ia
p art
or al
Ġturn ed
ean while
le ction
Ġcar ry
ĠD ise
Ġfriend s
Ġpel vis
Ġexp ressed
Ġtri als
ad en
Ġpreval ence
Ġ id
Ġn it
Ġbil ateral
oci ety
T S
d a
n s
Ġfollic les
Ġr ound
ĠSe pt
Ġl act
ap an
Ġdec ision
us ive
id ering
ĠR oman
9 5
Ġplay ing
he t
Ġdist al
it one
Ġr ang
Ġshort ness
ĠM c
ag ue
Ġcl aim
Ġpop ular
Ġad apt
ĠT wo
ont aneous
Ġcat he
Ġinj uries
Ġwh ose
Ġdiscuss ion
Ġunder w
ent ation
ĠP R
Ġnear by
Ġde hyd
Ġpart ial
Ġal ter
Ġb ound
Ġenl arge
ĠC ON
th al
ĠJu ly
Ġsw ell
Ġd ensity
Ġsign aling
per s
ĠG od
ov ir
cri pt
Ġm oved
il es
Ġa ortic
Ġsusp ected
s s
Ġprom ot
Ġunder gone
ar a
Ġsperm s
Ġind ex
Ġ4 00
Ġar tic
Ġ200 4
ĠS u
Ġauto immune
sel ves
Ġaffect s
Ġcomplain ts
r ical
Ġsc rat
ras on
Ġi v
b its
ra id
Ġke pt
ear ch
Ġdist ribution
Ġg est
Ġon es
Ġde al
pec ific
iz es
b re
Ġp in
Ġm ov
ĠG I
Ġsh ock
Ġinfect ious
Ġaccomp an
o ff
Ġacid s
Ġmig rain
ĠP art
Ġsubsequ ent
l ight
ĠOr th
hy roid
Ġoff ice
Ġp ortion
b ell
Ġw ake
ĠHA VE
Ġinflu ence
Ġsecond s
Ġguid ance
Ġimmedi ate
Ġfail ed
Ġdist inct
Ġmot ility
Ġgastro enter
ĠEurop e
Ġcompon ent
ce mia
ĠD es
Ġcor respond
id a
ĠD O
oll o
Ġ19 4
Ġstat ist
Ġexp osed
il ization
ct ive
Ġble ed
Ġinvol ves
n el
uman th
Ġ200 3
her s
d l
Ġcontin ues
Ġpot assium
Ġred ness
Ġlarg est
Ġ3 9
Ġcy cl
om s
og a
Ġcarb on
Ġelect ron
Ġform er
e ast
ĠApp ly
Ġacc ount
is hes
ĠJ une
Ġprim arily
rote in
Ġapp arent
Ġprov ides
Ġinc hes
Ġbo ok
Ġocc asionally
Ġne ural
Ġsub side
m ar
Ġc ognitive
Ġfl at
Ġlig ament
g ent
Ġpict ure
Ġop ening
re am
Ġs ust
ic a
in du
ven ous
Ġplay er
ĠB al
O G
Ġper fect
Ġint ense
ĠSpec ial
Ġwrit ten
Ġindu ce
Ġpresent ed
Ġim ages
Ġm is
Ġvis ible
3 1
Ġg e
Ġst ages
us ions
Ġnot e
Ġdi rection
Ġaf raid
Ġansw ering
Ġpo ison
Ġhist or
Ġgl ass
A void
Ġperform ance
Ġl ose
ĠM E
n ers
b or
r or
end er
Ġredu ces
Al so
Ġhep at
Ġnum erous
Ġwhe never
Ġcyt ok
ĠP FT
ac hy
Ġk n
Ġ3 00
r ating
Ġquick ly
ut um
A fter
Ġob esity
Ġsol id
ol in
ĠA ir
Ġind ependent
ĠII I
Ġa head
Ġv ac
mptom atic
il os
Ġcal m
A G
ĠY asmin
Ġar rhyth
Ġcap acity
Ġventric ular
ĠJ anuary
op hen
Ġser vices
Ġe rect
Ġr h
Ġadminist ered
Ġmisc arri
ĠR uss
Ġgr and
Ġep ile
Ġresol ved
Ġout put
Ġinflu en
ĠF ollow
j u
Ġele ments
Ġend ot
Ġprodu ces
Ġtherap eutic
Ġunlike ly
qui red
ĠM or
% ,
th anks
ĠT ab
ri an
Ġle af
Ġder ived
ĠAb out
Ġmolec ular
Ġj aundice
Ġinter p
Ġpull ed
Ġfac ing
A TION
Ġmin imal
Ġthr ice
Ġthem selves
ic le
our s
ence phal
Ġprocess es
A K
Ġaspir ation
ĠM arch
Ġag ree
ĠChat Doctor
Ġx ray
op hy
Ġway s
Ġorthop edic
heum at
ag us
Ġlin ing
Ġinvol ving
ĠP a
ĠO ver
Ġf ores
Ġe ight
Ġch ain
ut ions
Ġsee k
Ġfe eding
Ġbro ken
us hing
ĠU TI
Ġparamet ers
Ġsp ontaneous
ĠS umanth
6 5
ist ry
Ġan imal
Ġun us
Ġor d
Ġcons ists
Ġmus ic
Ġal bum
Ġneurolog ical
Ġhemorrh age
ontin ue
Ġwor ds
Ġconcent rations
heli um
otherap ist
Ġcont ent
e ctor
Ġcon gen
ide press
amin es
6 9
Ġman aged
Ġdepend ent
Ġplan ning
Ġthe ory
i able
3 2
Ġpre p
ĠFe b
Ġm and
im ate
ĠA vailable
ĠK eep
Ġst yle
ld er
Ġinf ar
Ġcomp et
ot rop
Ġsm ooth
Ġse ason
iot ic
Ġsurround ing
Ġneurop athy
Ġc art
Ġpat ch
Ġac et
Ġtrans cription
el ines
Ġcar ried
p ly
Ġs ense
Ġevery day
tt p
Ġm ach
Ġto e
et er
ough t
Ġf und
Ġar ri
Ġim age
Ġdef ect
Ġstim ulation
Ġestim ated
ĠM al
Ġdisc overed
Ġe mpt
ĠSt art
I s
b i
Ġcont raction
Ġc it
ĠCh urch
ic les
amet er
Ġst r
Ġexact ly
Ġ200 2
Ġf rag
Ġconstant ly
th is
u f
ia z
ĠE m
am a
Ġpancreat ic
g l
Ġbec oming
Ġdef ects
Ġimpair ment
ĠE very
ph oid
w ell
ip s
Ġthorough ly
Ġprol if
ne a
Ġcharacter istics
Ġfoot ball
ĠES R
Ġl ately
ow s
Ġbe at
Ġg raft
ul us
Ġmark ed
ĠV itamin
6 7
en ol
Ġsuggest ion
Ġchild hood
rect omy
Ġmater nal
c ardia
Ġmult iv
Ġan e
Ġab ortion
H C
Ġpro x
pp ing
ur ning
Ġact ing
Ġsa f
ur a
rason ography
Ġan at
ĠB i
Ġres ection
Ġl bs
Ġb end
Ġmil itary
Ġrupt ure
8 5
ĠS un
Ġcharacter istic
Ġl ines
ear s
Ġperform ing
rib ute
Ġhe ld
Ġant if
ĠP M
Ġanim als
Ġmax imum
ĠâĢ ¢
Ġinhib itor
er ate
Ġfores kin
Ġe ct
Ġst em
Ġam ino
ĠCan cer
ou d
Ġear s
Ġgl ad
Ġass um
ĠK al
day s
Ġactiv ated
Ġsens ory
b r
Ġwe bs
Ġwork ed
Ġex hib
Ġind ust
v ate
Ġ200 1
ĠM od
Ġju ice
Ġconsist ent
Ġaccompan ied
ĠU R
Ġn m
Ġv o
l s
ee ch
jac ent
am ous
m ing
ĠClin ical
Ġcon j
Ġchem o
Ġpre mature
Ġgastro intestinal
ĠC hest
Ġfac ial
ĠS H
Ġvers us
ĠP ost
Ġscrot um
V ER
Ġt aste
c ol
Ġlymph oma
Ġmal es
Ġte le
Ġunderstand ing
un ic
Ġdi alysis
Ġta il
Ġabnormal ity
Ġher pes
Ġseem ed
S F
Ġcong estion
rh osis
Ġocc as
Ġeduc ation
ĠDe cember
se ud
Ġrem aining
Ġcomplic ation
ace ous
Ġfib rosis
Ġme al
S T
ĠEurop ean
ac ic
p os
Ġs orry
Ġc ore
e ed
st anding
Ġb other
anc ies
ot ype
Ġst rict
Ġuncom fortable
Ġun its
Ġswe at
ib ility
Ġvari able
Ġend oscopy
pit ations
ĠBe fore
ĠR ed
Ġdist ingu
I M
-- --
re te
ox ide
Ġproper ties
Ġwa iting
ur ally
in ating
Ġeffect iveness
ff e
ĠN OT
ur ys
Ġhig hest
Ġher ni
Ġinf erior
Ġboy friend
Ġst uff
Ġmean ing
Ġbig ger
Ġover weight
Ġtub es
Ġkne es
Ġs ounds
ines e
Ġdang erous
v a
ĠOct ober
Ġh ole
ri x
Ġcell ular
Ġm ir
Ġem ploy
pl er
Ġestab lish
Ġto ward
Ġpresent ation
Ġpl s
erv ative
Ġc amp
Ġmod els
ĠÎ ²
ad y
ĠE p
Ġsafe ly
Ġun s
Ġun it
C onsult
ĠB D
less ness
Ġfix ed
Ġn amed
Ġcongen ital
Ġtrans l
ER D
Ġmy ocard
Ġhemat oma
G et
c g
ĠH ar
Ġdoc ument
ĠC ell
Ġsu it
ros p
Ġpromin ent
Ġad hes
Ġap art
le en
Ġegg s
Ġspect rum
Ġs n
Ġnucle ar
Ġac hes
Ġhum ans
if orm
Ġ12 0
Ġfast ing
Ġm ess
ove mber
Ġh rs
oxic illin
H T
Ġhe aring
Ġun d
ant ed
Ġset tle
ĠH B
Ġ4 2
Ġan c
Ġulcer s
Ġant idepress
Ġy east
Ġswe ating
en al
Ġp ay
cl usion
Ġha bits
fort un
c il
Ġu pt
as one
Ġle uk
pl asia
Ġdi ameter
Ġda iry
Ġ201 7
Ġearli est
w w
ain t
Ġcare ful
Ġad jacent
ĠWill i
Ġenlarge ment
Ġam b
Ġwide ly
ĠG l
Ġj ud
ĠRec ently
Ġfill ed
Ġconf used
Ġf er
in ations
Ġcancer s
act iv
Ġocc up
E P
Ġvers ion
Ġ19 0
rough t
I TH
ac ing
Ġbreat he
Ġcompl aining
Ġst able
Ġprot ection
Ġpl z
Ġure ter
Ġm arg
Ġst ated
Ġmo ist
Ġsc ale
Ġbas eline
ĠChrist ian
Ġb ond
ir ing
ĠBl ack
Ġn ice
C A
Ġrandom ized
Ġsu ic
Ġh ttp
Ġcol um
ĠC omm
ri age
Ġun known
Ġref lect
Ġcommun ity
z a
Ġorgan isms
Ġmolec ule
Ġpainkill er
Ġm ri
Ġf ight
N S
Ġeffic acy
ĠThere fore
Ġrel ig
Ġintest ine
Ġsur ve
Ġepit helial
Ġcathe ter
ĠE v
Ġch all
ĠD ec
Ġarter ial
Ġsepar ate
ĠB ased
Ġg on
Ġpers ons
Ġins urance
Ġinst rum
Ġqu al
hen s
Ġcirc ulation
Ġinhal er
ab or
d oc
Ġmiscarri age
h ow
Ġkid s
h am
ition s
Ġpred om
ĠC AN
Ġresult ed
oc hem
Ġal le
Ġur ination
Ġprog ress
Ġm amm
ĠN ovember
d ose
a res
Ġp ounds
ĠC BC
up us
Ġphen omen
ĠH ad
Ġsp utum
ĠR ob
Ġlob e
Ġliter ature
Ġlo ad
Ġf ish
Ġl ying
ax is
ot yp
ri z
Ġspot ting
Ġon c
w ing
iv il
Ġad mitted
Ġli ps
ori asis
ip olar
es ides
se c
Ġun i
Ġdep ressed
Ġpath ways
acc o
ĠW as
Ġanest hesia
Ġtempor ary
Ġt et
ĠB el
Ġsub ject
Ġassess ed
our t
ol s
Ġsp leen
oci ated
Ġvess el
ĠS al
ist ers
Ġinvestig ate
5 5
Ġst abil
ĠC A
Ġpat ches
um ar
Ġpass es
Ġdiet ary
Ġm olar
Ġto t
Ġcl osed
Ġconduct ed
F igure
ĠE l
Ġcardi ovascular
ĠHello Thanks
ĠA st
Ġlast ed
Ġto mor
ĠS te
Ġwh om
r ig
y ond
Ġe osin
ĠR NA
al so
ak er
ĠSt ud
on in
Ġprox imal
Ġdirect ed
Ġisol ated
Ġl ove
e ks
Ġob vious
h aps
Ġis n
ex p
icl ofenac
Ġwor d
Ġlat ter
Ġas c
y mptomatic
ot id
Ġc od
ĠAnt i
Ġsu p
Ġins uff
Ġallow ing
Ġfav or
in ally
Ġreturn ed
Ġ Ã
e v
Ġkeep s
Ġagg rav
Ġpl ant
Ġblock ed
n oon
ste in
Ġtomor row
8 8
Ġsim ply
Ġse pt
a j
Ġintra venous
h an
Ġw ind
ĠH em
Ġunus ual
Ġpanc reas
Ġimpro ving
Ġdet ection
Ġmut ation
ment ia
am ents
Ġcont ribut
az ep
Ġcoun ts
Ġallow s
Ġpal pitations
Ġdiv ided
D L
Ġconsum ption
ud d
oph ageal
Ġrece ive
Ġf al
are t
ĠM R
Ġwant s
Ġavoid ed
rid ay
Ġca ge
it z
an ish
Ġcand id
y al
Ġw et
Ġhe ter
ĠD ue
Ġcont ract
Ġ4 6
Ġsh oot
Ġfl oor
Ġeas y
r adi
ĠUn der
ES T
ĠSept ember
Ġth row
Ġim m
Ġpurp ose
ĠC y
Ġdec l
Ġ199 0
S P
ul os
ĠC ro
Ġinv asive
Ġcream s
Ġprofess ional
Ġbehav i
Ġdrain age
as er
ĠS ub
Ġparticip ants
Ġv es
Ġr ough
ĠPat el
ĠA B
ĠD av
Ġwebs ite
Ġant ip
Ġmalign ancy
Ġsp eech
Ġprev ention
ĠCent ral
Ġk et
Ġpal p
ĠM ake
iz ine
cyst ic
ĠS uch
ĠP os
Ġus es
is ions
Ġmet al
u ation
I R
Wish ing
Ġg ames
Ġover come
ĠE d
ie ce
ond yl
Ġejac ulate
Ġcol lected
Ġeng ine
ĠI L
ol id
Ġundergo ing
f rom
Ġno vel
ock et
9 8
Ġsome what
Ġrepl aced
it ic
ĠA z
Ġmemb er
ĠAnt ib
Ġp et
l ow
Ġachie ve
n ight
Ġmit ochond
ĠT her
ĠSG PT
I F
b aceous
ib ular
ĠA P
Ġrelie ved
Ġgu ess
Ġcontinuous ly
Ġpolit ical
ĠDise ase
Ġfor get
AR T
indu ced
Ġb rought
Ġmin eral
Ġint ensity
ĠAfric an
a it
ro cy
ĠAmeric a
Ġs ulf
Ġcir rhosis
Ġcre ate
c a
ĠC R
st ract
fect ious
Ã ¡
Ġo ily
ment ed
Ġcont ext
L A
se mb
il le
Ġstrong ly
oc ardi
T able
Ġcorrel ation
Ġfunction ing
Ġmar riage
Ġcons idering
Ġdam aged
id azole
re ased
k a
Ġend oc
t ure
ĠF unction
Ġconfirm ation
Ġtight ness
Ġsc ler
i as
Ġcon ver
ĠCom mon
ĠUlt rasound
Ġris ks
Ġesoph agus
Ġbronch odil
Ġ) .
ang i
Ġkeep ing
Ġso ap
4 4
Ġv s
Ġ4 3
Ġfore ign
Ġf ertility
Ġcons ent
Ġcompar ison
Ġr hyth
ĠC he
Ġassist ance
Ġcoun sel
Ġlymph ocytes
Ġn one
Ġ4 7
op pler
Ġpattern s
Ġcomp any
re ed
en ior
ir m
Ġrelax ant
ĠB h
Ġh ar
YY YY
Ġgr ound
Ġsus cept
Ġdermat itis
os ite
Ġt achy
Ġprinc ip
Ġp ad
ĠG reek
le ge
Ġact ual
Ġimport ance
Ġde vice
Ġlin ks
Ġaffect ing
Ġm s
ĠM ic
Ġaccum ulation
u ge
Ġfact s
Ġpsych otherapy
Ġse lected
ĠP ress
ox acin
ĠÎ ±
Ġam ounts
Ġac quired
ĠAr ch
y e
ĠAp ollo
A m
Ġmuc osa
ick en
ĠO f
Ġbo il
all ed
Ġde ad
ĠW est
Ġclean ing
Ġclear ly
an o
Ġdrin ks
d r
Ġd yn
ĠN othing
ru ary
ip id
Ġmin im
H ow
Ġwe ird
usc ular
ĠPC OD
ĠD ef
amin ophen
Ġob struct
b erg
YY Y
Ġguid elines
Ġcol our
Ġinterp ret
Ġd rop
Ġd na
ĠY YYY
Ġachie ved
re et
ther n
ĠCh apter
Ġcons cious
Ġdec ide
ĠAn n
ĠT SH
Ġpainkill ers
Ġinc ision
Ġane urys
al in
Ġafter noon
Ġco ol
vers ion
om atic
9 7
yl enol
Ġenc oun
Ġp i
ol ved
U M
Ġappro ved
Ġallow ed
ĠW ITH
ĠD M
Ġinf ilt
cl usive
c king
Ġrec on
re es
ĠL ym
Ġh all
se m
Ġcont ribute
ĠSpecial ist
ou l
ic illin
Ġtal king
Ġinj ured
Ġsaliv a
Ġrem ained
Ġres id
Ġsaf ety
Ġext end
Ġthick ness
or a
ĠH el
Ġa er
Ġsuggest ing
Ġtot ally
Ġout er
Ġindu ction
ĠO ral
or ic
oc c
Ġoccur ring
Ġc os
n ic
Ġvom ited
Ġhim self
Ġoper ated
Ġintrodu ced
Ġantif ungal
Ġf ist
Ġest rogen
Ġseg ment
Ġfor ces
Ġ5 2
Ġintern ational
Ġprot ocol
Ġpharm ac
ĠIn ter
oc l
Ġcal f
in ing
Ġappreci ated
ĠDi agn
ĠI F
ĠC ount
ĠH S
ut h
Ġas ymptomatic
Ġpost operative
ond on
Ġme at
Ġlink ed
ĠB er
Ġsy mp
Ġwor st
Ġre ference
ĠR el
itone al
Ġwat ch
Ġme ant
Ġm ur
Ġcomp ound
att achment
Ġtin y
y a
Ġ4 1
the ning
ĠSurg ical
Ġpost ure
A n
ĠCh ronic
4 6
Ġmed ial
Ġvom it
Ġprodu cing
Ġany one
ĠHe re
y g
Ġc ig
AS E
c s
Ġpen et
chem ic
ĠCol lege
Ġe lder
Ġprop osed
us es
Ġr an
ign ed
l a
Ġhelp ing
S I
Ġa ug
Ġth reat
oly sis
doc ument
ĠNeu rologist
Ġprop hyl
Ġvir t
cut aneous
im ic
ention al
Ġure th
ĠW hy
Ġm ist
hyroid ism
ĠB as
r hea
Ġsh are
ont al
Ġfill ing
Ġdegen erative
Ġo d
Ġnucle us
Ġbe yond
ĠJ apan
Ġnor th
in as
re ated
ĠIntern ational
Ġt on
as p
ĠH ospital
ĠR adi
Ġput ting
Ġdesign ed
Ġpersonal ity
Ġs outh
ĠP ers
Ġd ad
Ġresist ant
kin son
i ents
Ġby pass
Ġrest ing
Ġle ak
Ġmark et
ĠR ight
Ġmac roph
ĠI buprofen
her n
f s
Ġbru ising
L O
act in
Ġa im
Ġp ink
Ġpl a
ĠC O
Ġform ula
Ġvitamin s
SA ID
ulos keletal
l usion
Ġ ion
Ġf asc
Ġdevelop s
Ġrequ est
ĠRe ferences
ic ations
Ġ199 9
Ġw rote
year s
ar ter
Ġany more
D on
ome g
rolog y
Ġconc lud
ep h
er o
Ġfib r
Ġbro ke
Ġtransplant ation
Ġextre m
fortun ately
Ġbenef icial
Ġrecogn ized
ĠUn ion
u itary
Ġto wn
Ġsc he
Ġcort ex
R es
Ġan a
ĠCh inese
Ġn ail
Ġstruct ural
Ġspe ak
Ġsubst ant
Ġadv ant
ĠJ ew
cl er
l u
ce le
Ġtend on
Ġde mentia
og ens
ĠUR L
ĠRep ublic
Ġsess ions
Ġunderw ent
Ġa ud
Ġplate lets
Ġimp aired
ĠL o
ĠIm mun
Ġinteraction s
c ision
gr ad
Ġob ese
Ġbas al
Ġfin ished
ĠPh il
ĠF IG
Ġsex ually
Ġsour ces
ile t
ĠIV F
Ġbu ilt
I A
ĠH uss
ot al
Ġdom ain
Ġr heumat
and ed
Ġplan ned
Ġcr ack
ĠPar acetamol
ain tain
th ank
Ġtrig lycer
4 9
Ġthe r
gr ound
ide o
l ife
Ġconn ection
e u
v ascular
Ġgreat ly
Ġsuper vision
ĠC urrent
Ġplay ed
ic ated
ke y
ĠS ever
Ġenh ance
ĠS P
Ġrecord ed
ac id
Ġtrans mission
rom ycin
Ġref lex
Ġwhe ezing
Ġfib er
ï ¬
Ġad renal
Ġdecre ases
row s
ĠS yn
il ation
Ġrelax ation
Ġdi e
ï¬ Ĥ
ĠCanad a
Ġtest osterone
Ġreprodu ctive
0 1
c us
Ġp ick
Ġfollic ular
Ġvari ables
Ġa z
Ġrele vant
Ġtrans mitted
Ġmark ers
w or
ro d
Ġexc ision
ĠL iver
h ope
Ġb ill
oun ced
8 9
Ġt un
Ġsmok er
ĠL ib
Ġc ode
Ġl um
ĠM S
ok ed
4 1
ĠN O
Ġmigrain e
Ġse arch
Ġaw are
Ġpoison ing
o es
Ġinf ant
R A
Ġtrad itional
os omal
ten ance
Ġmass age
are ly
0 2
ff ee
Ġchang ing
Ġaspir in
Ġsusp ect
Ġf raction
Ġcl us
oc king
Ġdef ic
est ive
Ġcont roll
Ġrest riction
Ġmultiv itamin
Ġex ert
Ġmel an
Ġend ed
0 3
Ġv iol
Ġsc hed
t ake
ĠP ri
ric k
Ġfem ales
il ateral
r ich
Ġst ar
Ġsc ans
ver sible
ch ange
Ġstopp ing
or ing
Ġb odies
Ġrem edy
Ġ9 9
Ġi am
Ġpsych iatric
ĠC le
Ġempt y
Ġ encephal
ag ues
Ġca pt
ag o
ogen e
Ġcyt oplasm
b ody
ĠC M
olog ies
ĠEng land
ist an
Ġspec ifically
Ġtr im
che mia
Ġg erm
Ġinst ruction
NA C
ogen ous
Ġi gn
ol a
Ġlangu ages
Ġinfar ction
Ġbe ats
Ġaccur ate
Ġre active
Ġchann el
Ġt all
Ġc rown
ly cemia
Ġcolum n
Ġcomp ounds
is k
ĠHuss ain
Ġg ap
Ġinterv al
Ġext racted
cell ent
Ġhe aled
Ġobs ervation
Ġf ed
ĠE mp
Ġc ast
Ġli e
Ġexpl ained
F rom
Ġy oga
Ġyoung er
Ġthere by
Ġty phoid
Ġte a
Ġw orm
Ġpept ide
Ġh r
ĠC ity
Ġpancreat itis
Ġso ld
7 2
Ġint racellular
Ġdep os
Ġtr ack
Ġclose ly
Ġinhal ation
W hat
ER Y
% )
Ġhyp og
yurved a
Ġinter mitt
Ġbus iness
p m
in itis
ag er
C P
Ġair way
ĠHealthcare magic
ĠEar ly
Ġre ached
Ġprevent ing
Ġwors en
Ġnec rosis
p re
et al
ul um
ctor s
im ens
Ġmix ture
Ġy ield
Ġradi o
c raft
Ġdiff use
ĠGe or
ig ens
oc et
Ġpr one
ĠT ill
Ġmor b
ind ing
Ġs kill
ĠSt ill
Ġmat rix
rid ge
ĠFe w
y d
ĠIn fection
out hern
Ġagg ressive
Ġtestic les
Ġepile psy
Ġult rasonography
5 3
eric an
AS T
ob ic
Ġdom inant
ur se
Ġcry ing
ĠL ondon
ĠCh ina
Ġlim bs
Ġblock age
Ġinc or
Ġis chemic
Ġsomet ime
K G
abet es
Ġps oriasis
th rop
ĠAlex ander
Ġdes crib
Ġgran ul
Ġblo ating
Ġthromb osis
ir izine
Ġinf ants
Ġ14 0
Ġcons ervative
ĠCh ap
Ġtem p
a ud
Ġun cle
Ġup set
ocyt osis
er ol
ĠV al
at hetic
ĠJ ay
Ġfac il
f ord
Ġc ru
Ġf old
Ġto es
Ġv ul
ĠN on
Ġser ve
Ġpsych ologist
Ġmal aria
A ny
Ġd at
Ġmed ia
Ġmin imum
Ġleaf y
C E
Ġexc ret
Ġplac es
ĠL ow
Ġal tered
l ies
ĠEx ternal
Ġelev ation
Ġsequ ences
Ġgall st
Ġf aster
Ġal kal
Ġfract ures
Ġnet work
6 6
ĠU r
Ġcalc ulated
Ġcomp osed
ap ed
ic king
unct ure
Ġ5 8
Ġsol ve
ĠM eanwhile
Ġtender ness
ch ol
ĠSh inas
Ġrece iving
Ġre n
Ġ4 9
Ġconn ected
i atic
Ġj unction
e al
es ophageal
dom inal
r amm
ĠR E
Ġst ru
Ġat rial
Ġext ension
ĠM us
ĠE st
Ġprot on
Ġanx ious
Ġcart il
P V
ĠN a
ĠB attle
ic itis
Ġcould n
Ġantihist amine
ĠSy stem
4 2
Ġreg imen
Ġexclud ed
Ġdist ance
Ġcaps ule
cer tain
Ġsc reen
Ġinfl amed
Ġch icken
os er
Ġf olic
th at
lic ations
ch n
Ġc overed
Ġis chemia
Ġcom ment
s ens
form in
ad ine
Ġ8 5
Ġcontrol s
Ġmyocard ial
Ġl osing
Ġ199 8
ĠLe v
it te
Ġsoft ware
Ġvis ited
ot oxic
Ġant ise
Ġm oney
c ence
f ast
Ġneurolog ic
Ġa ort
Ġsk ull
Ġne on
Ġbut ton
Ġorgan ism
w as
ot omy
ĠB M
ĠP en
ĠP al
Ġemot ional
ĠS ud
Ġn ipp
id ney
Ġin her
Ġele ment
Ġwe aring
Ġmechan ical
Ġdispl ay
Ġh op
Ġsp ondyl
Ġur gent
Ġepit helium
Ġbran ch
Ġdear I
at ter
am ide
ĠAr t
mptom s
Ġact s
Ġb ipolar
Ġsuper f
Ġhealthcare magic
Ġad oles
Ġnat urally
ĠFeb ruary
Ġapply ing
al ian
Ġre act
ric ted
Ġsitu ations
Ġmusc uloskeletal
. (
Ġsqu ee
Ġst range
Ġthor acic
ri pt
ĠG astro
al k
Ġcar ri
Ġbenef its
Ġ ~
Ġsp ray
ĠAb stract
Ġpe ak
Ġp ol
Ġter rit
Ġtempor al
Ġcomple ment
Ġobs erv
Ġex cellent
Ġd in
ĠL ike
ĠPhys i
Ġfall ing
ĠCol umb
Ġbath room
Ġdec ay
Ġmain tenance
ag ulation
Ġcolon oscopy
Ġcondu ction
ol one
ĠS U
out s
Ġarrhyth mia
Ġmaintain ed
Ġrhyth m
ĠAfric a
op er
ge al
ĠG reat
Ġal g
ec k
omet ry
Ġmanifest ations
ĠOrth op
t ail
iz er
ĠSever al
i rect
Ġendomet rial
Ġper haps
ĠO v
Ġpre g
Ġkill ers
Ġens ure
coh olic
ĠReg arding
Ġavoid ing
ste rectomy
Ġfal se
k es
Ġenvironment al
Ġmicro b
ĠD I
ro y
ort un
Ġsp ir
Ġterm inal
Ġpop ulations
ig ence
Ġsupp osed
Ġelder ly
r ad
Ch ap
Ġinc ident
Ġmemb ran
U n
Ġ5 6
Ġpercent age
ĠW ould
Ġloc ally
Ġcerv ix
m ark
w ash
der s
or gan
Ġb ony
Ġpri vate
Ġtrig ger
Ġsp orts
Ġanal ys
ĠR A
ediatric ian
Ġstreng thening
M A
Ġsign als
Ġlarge ly
Ġcig aret
Ġpul s
Ġf usion
b ear
ĠM ond
Ġadd ress
g f
Ġpred nis
Ġbelie ved
Ġauth ors
Ġus er
N D
ĠAd v
Ġabs orb
ĠAr ab
Ġo m
Ġqu ad
Ġimp le
w ide
Ġam pl
b one
Ġinhib ition
h ave
ĠN ormal
in f
Ġmed ian
Ġo ct
5 7
Ġdifferent ial
Ġenc ou
Ġvar ies
Ġtachy cardia
Ġo dd
Ġpo op
Ġnutr ition
Ġfour th
Ġvirus es
ri f
Ġ198 0
Ġsne ezing
Ġpa per
Ġabs orption
Ġsusp ic
Ġcoll agen
Ġfoc al
Ġin ch
ĠTh ough
oci ation
Ġbr ight
ry l
Ġdep ressive
Ġph ilos
Ġrun s
Ġdi ver
Ġgen ome
Ġec g
Ġl upus
Ġok ay
k i
ĠS E
r ant
Ġgeneral ized
Ġ5 4
oph ren
Ġto ilet
Ġse baceous
Ġco ffee
Ġ25 0
Ġgastroenter ologist
Ġat e
Ġsubst ances
Ġtechn ology
Ġcytok ines
uf act
8 6
Ġstud ents
Ġprog ramm
Ġcolle agues
ult ure
ĠN E
Ġfore head
Ġro ots
ugh t
Ġstud ent
Ġchann els
Ġexp ress
ik ai
ar cin
ĠW he
Ġcyst ic
Ġch ills
Ġverte bra
x iety
on a
Ġembry o
Ġg ing
qu it
ĠA F
age ment
Ġstiff ness
i asis
ĠI r
Ġexpl an
ĠW BC
our nal
Ġr ins
f ace
j ective
Res earch
j oy
re x
ĠN SAID
ish ing
A nd
R NA
Ġman ufact
Ġecon omic
/ /
ĠChar les
u el
Ġv an
Ġhypot ension
Ġp seud
go ing
Ġmed ium
Ġant agon
Ġult ra
or ph
ip ro
Ġmed itation
e rent
on azole
b a
on omic
Ġair ways
ph osph
Ġplay s
g ot
c line
Ġcle ared
Ġdri ve
Ġradi ating
Ġpotent ially
ĠInd ian
Ġun f
Ġf ire
is ation
ĠD el
Ġse lective
Ġcontact ing
ĠAL T
Ġcram ping
Ġn ons
Ġun c
ary ng
g m
ĠS at
Ġspe ed
ĠFran ce
Ġtherap ies
Ġdiscuss ing
olog ically
Ġbuild ing
ĠD oc
Ġresol ution
Ġdisturb ances
Ġmach ine
the re
it ching
el i
Ġtoxic ity
Ġ5 7
Ġab use
or rhea
ĠM il
ri osis
a ed
Ġhair s
Ġg angl
oc ortic
in ity
Ġdisc ontin
Ġlocal ized
Ġ {
Ġpim ples
Ġr abies
Ġchromos ome
ĠMond ay
ad ol
Ġdisapp ear
Ġl aser
Ġsub t
Ġvo ice
ĠD R
e ff
Ġter rible
Ġp ush
ĠSurg ery
Ġprepar ation
4 3
Ġk ing
Ġkin ase
Ġpredom inant
Ġuni que
ĠW estern
Ġlast s
Ġp ac
Ġben z
P S
is one
Ġup load
Ġsch iz
ĠP ort
rit er
Ġneut roph
Â °
Ġth umb
ĠH EL
ĠA R
c ob
Ġg ut
ac erb
Ī Ĵ
cept ion
p ain
ĠĠĠĠĠĠĠĠĠĠĠĠĠĠĠĠ ĠĠĠĠĠĠĠĠĠĠĠĠĠĠĠĠ
ĠM ot
ĠAL L
Ġglob al
en ic
Ġmetast atic
ĠDav id
Ġp olic
Ġal t
Ġrem ed
os upp
Ġect opic
Ġf ung
Ġf ift
ach ing
opl asty
ĠCanad ian
Ġphenomen on
Ġsched uled
Ġgo ld
Ġoff icial
a ur
Ġun iversity
et ine
ĠC ath
ĠP an
Ġmed iated
Ġhypot hyroidism
Ġs ong
Ġc ock
Ġbeg ins
S he
or ter
ĠC oun
ĠPhys ical
Ġconn ective
ult aneous
Ġp ure
9 6
Ġgener ation
ĠFIG URE
s uch
ĠC ong
Ġequ al
am er
Ġexperim ental
ion ic
Ġant igens
Ġform ing
Ġstret ching
P C
b ul
ent ions
Ġsm ear
Ġw ont
eg ree
Ġb ending
im er
Ġsc ience
Ġon to
ĠC hem
Ġmening itis
ru g
osp or
Ġvert igo
m ath
Ġb ox
Ġmetast asis
acter ial
Ġprop ortion
Ġesoph ageal
Ġbr id
s pecific
Ġantise ptic
m L
ĠE ast
Ġerect ile
riz ine
Ġan us
Ġ5 3
Ġverte bral
gr ade
i os
it ect
7 8
use um
Ġpres ents
Ġcere bell
ent a
Ġgl ut
Ġst ab
r ins
Ġal ph
Ġmasturb ate
o ving
uke mia
gn ancy
Ġech ocardi
Ġgrow n
Ġharm ful
Ġ199 7
ari o
ent in
Ġob ject
Ġtend s
Ġsupport ive
Ġwas n
ĠB UT
Ġint rac
mon ths
Ġ6 4
Ġst ory
ĠL ist
Ġpe e
Ġcomplain t
Ġtestic le
b an
Ġcomm erc
Ġpit uitary
ass ociated
Ġt our
al am
ĠV is
ococ cal
ĠV ir
ep s
Ġdeg rees
Ġbehavior al
Ġc ard
Ġit ems
Ġfeed back
ol er
ra ge
Ġsinus itis
ĠS O
are st
ĠA ut
Ġtestic ular
Ġprolif eration
Ġprot r
Ġradi ograph
ĠAc ute
Ġcl ots
Ġext racellular
7 6
Ġex acerb
Ġcomp ut
Ġenc od
aut ions
z ing
Ġn urse
Ġcom fortable
ĠO x
or ith
Ġd raw
ox etine
Ġi i
Ġtrans fusion
Ġn urs
Ġoccas ional
Ġstrate g
Ġsp h
Ġsc en
Ġelectroly tes
et ics
ron idazole
Ġmacroph ages
Ġ199 6
Ġprol apse
Ġspread ing
Ġsa fer
X X
ĠM ult
Ġur ic
Ġg ender
00 1
Ġindic ation
Ġmiss ing
Ġcry st
s elling
ess ive
Ġatt ributed
Ġpract ition
Ġprec ip
Ġg od
ĠC SF
ĠS S
Ġhy sterectomy
ĠYOU R
Ġco h
Ġrect al
Ġd ram
Ġstret ch
Ġus ers
Ġcap ital
al le
ĠT ur
Ġat rophy
Ġfru it
Ġdefin itive
ĠA ge
Ġas leep
ag inal
Ġmeasure ment
ĠBo ok
open ia
em por
t rans
one ph
ole cyst
c od
Ġpro ject
Ġangi ography
ate ver
if orn
A ll
Ġag on
Ġ6 2
Ġphysi otherapist
ĠO p
ĠFurther more
ĠD ermat
ĠPro g
Ġn a
Ġsp ell
Ġdep th
M P
m ay
ĠS ci
Ġdes c
Ġprob able
Ġpolit ician
Ġm ount
Ġcor rection
ĠV ol
Ġpa rent
re y
Ġso res
Ġp iece
Ġad ip
ĠFollow ing
em y
Ġthin ks
Ġuncom mon
Ġor ally
ĠL I
S ince
ĠN at
Ġfig ures
ĠEmp ire
ĠTH IS
ie f
Ġbul ge
Ġle aving
Ġdon or
F irst
IN E
W ell
Ġsu c
Ġch i
Ã ¶
it ative
Ġh uge
Ġem p
' re
ĠNe ed
ĠB ur
Î ±
ĠP rot
he p
ne g
Ġaort a
Ġha em
ill a
Ġro ll
itte e
Ġ5 1
Ġmeasure ments
5 8
6 8
Ġac ad
Ġclass ified
Ġp oll
Ġman ner
ic ate
ap hyl
Ġanal og
Ġa v
Ġind epend
Ġsw im
Ġcaps ules
Ġscient ific
ĠM id
Ġaltern ate
ĠE EG
7 7
Ġw ave
res ents
ĠT ay
Ġex ec
aryn geal
Ġap opt
Ġpartic les
Ġline ar
ĠA G
ol f
Ġcar otid
Ġsupport ed
Ġnutr itional
Ġendot helial
Ġconf idence
ĠF riday
Ġple ural
Ġo c
ens us
5 9
he ne
es ium
Ġgo al
Ġoff er
ĠAr un
Ġasp ects
f ree
Ġpro sp
Ġreg ulation
Ġcort ical
ĠL a
Ġlym p
Ġpoly mer
Ġvacc ination
Ġconv entional
ur ity
ul ates
ĠE ach
Ġdisc ol
ĠCh ild
Ġper mission
Ġstress ed
Ġdehyd ration
b ed
Ġinform ed
Ġoper ative
Ġsignific ance
Ġprom pt
ph thal
ast s
Ġsc ores
Ġes c
roph ic
in i
Ġphosph ory
) -
Ġs arc
ĠH yp
Ġz inc
Ġcontrace ption
p ed
om plete
Ġord ered
Ġfib ro
p atient
ce ler
O k
mor ph
Ġwat ery
ch ar
p an
Ġweight s
oc ation
im ately
Ġob jects
Ġregion al
Ġappro aches
b c
an th
ĠIn f
Ġphys ically
Ġcartil age
ĠE KG
Ġtr ust
cent ury
r us
ĠW ishes
Ġallerg en
Ġvari ation
Ġcent re
ple x
Ġcyt ology
Ġb arri
OM E
ul i
Ġsubsequ ently
Ġk not
or ous
Ġpro ceed
Ġk it
sib ility
medi ate
Ġconcerns I
: //
Ġt ree
Ġar ise
op rotein
Ġdeath s
es h
Ġsh amp
yp ical
rit ic
C V
hem at
Ġbr ush
Ġtre m
Ġ199 5
ot ide
lud ing
Ġbreath lessness
Ġem ph
ĠCl ass
Ġpim ple
Ġdis p
Ġcomp rom
bl ood
E AR
Ġto b
Ġexp ans
Ġmembran es
as tern
Ġabsolute ly
Ġrec ru
ak en
Ġret ention
Ġprec autions
Ġsph inct
or ad
Ġsc iatic
Ġlapar oscopic
ĠB ab
Ġrep resents
Ġne igh
Ġj unk
d L
Ġequ ival
Ġdegen eration
ag ul
Ġcomp resses
ĠM ont
b les
i ers
ĠB ul
.... ..
Ġcounsel ing
le b
ĠS ociety
Ġprom ote
ĠAustral ian
ĠA V
Ġto m
ĠCh ic
ĠAc ad
Ġn ames
cl ass
ĠT ank
Ġfert ile
amin ation
Ġarm pit
Ġconcent rated
Ġe ase
Ġmult i
6 3
Ġdist ress
az ine
N ow
ĠT AK
cont rolled
ĠB udd
ĠHCM I
Ġpan el
Ġcorrespond ing
Ġinter act
ĠTH AT
ĠF NAC
Ġrec overed
Ġaction s
Ġwe ather
Ġhas n
st ream
Ġfeel ings
Ġen joy
Ġfe b
Ġinter fe
Ġt elling
iz ations
raz il
Ġm ature
ĠP ark
Ġha v
ir c
ĠST D
Ġ100 0
Ġcorticoster oid
Ġdi ure
en cies
ĠH en
Ġdec line
Ġdiv ision
ĠU rologist
Ġmet hyl
h old
ĠD em
s a
Ġche cking
Ġv ict
ĠY esterday
Ġsore ness
Ġfil ms
ĠI C
th yroid
Ġmar ks
Ġret ro
Ġr ice
Ġconf usion
ith romycin
Ġmaterial s
Ġcircum st
Ġorgan ic
Ã ¼
w hen
Ġra ise
Ġanalys es
b urn
m atic
ps is
Ġread y
Ġl it
ĠD oppler
a per
Ġmetast ases
Ġfl ight
Ġf irm
ĠB re
ĠO ur
Ġprot ected
Ġc u
Ġclass ification
Ġb an
av ir
yl ori
Ġgener ated
Ġc i
ur day
ĠS ur
Ġv ital
Ġill ust
Ġwors ening
ent ric
Ġbul ging
Ġincor por
Ġsim ultaneous
Ġbl isters
Ġdifferent iation
Ġdri ving
Ġspasm s
Ġsp in
Ġpain less
6 1
ast ric
Ġcons ume
Ġgl omer
unic ardi
Ġintermitt ent
c ardi
A A
Ġm ouse
Ġpregn ancies
Ġins p
Ġfib roid
Ġsuit able
T C
ot rans
um es
ĠU rine
IG HT
ran k
Ġ6 8
ot es
ĠF E
ĠK umar
ĠWilli am
Ġre h
How ever
Ġm r
ĠS a
Ġimplant ation
Ġs le
Ġtest is
ĠHe art
ĠKing dom
Ġsubst it
Ġquant ity
Ġstatist ical
ra ctor
Ġele ction
Ġbran ches
Ġremed ies
Ġ197 0
Ġde v
Ġantihist amines
G F
Ġfib rom
iforn ia
ĠA RE
ati l
Ġfall s
Ġopp osite
Ġopp ortun
ĠSt ate
a ren
reat ing
Ġshould ers
Ġv ideo
Ġinv asion
Ġrest ricted
Ġswallow ing
Ġinsert ed
Ġanaly zed
Ġam yl
Ġass ay
athy roid
i ren
j ected
u inal
at o
Ġin put
Ġbreast s
ĠH ence
Ġst uck
ab ap
6 2
arb on
osp hat
Ġtoler ance
Ġcateg ory
Ġsuperf icial
w ari
Ġh on
ĠI l
Ġh CG
ĠCon st
Ġmorb idity
Ġtrans ient
Ġn d
Ġmeas uring
od ont
Ġsinus es
du le
Ġacid ity
ophren ia
ip e
ĠPl an
: -
Ġs oci
Ġse m
ind d
Ġtrig g
ĠG ive
Ġ18 0
ĠTher ap
ĠC ap
Ġmass ive
Ġh oney
op razole
ĠP rim
ĠS an
ore ct
Ġgarg les
z en
ĠD id
Ġco ord
5 00
it ting
Ġappend icitis
ĠAr my
M agic
Ġsurg eries
Ġgallst ones
Ġabs ent
Ġcock tail
Ġdi re
v an
Ġch in
Ġsyndrom es
Ġpoly p
Ġconsum ed
ĠPA IN
Ġat he
Ġ199 4
-- -
Ġrecogn ition
u it
Ġsp rain
Ġev olution
Ġprec ise
Ġbru ised
ro ad
ĠW E
ĠS C
our ces
ĠG ERD
Ġtraum atic
ĠIn v
in ter
Ġpath ogens
ĠLe ague
ĠL ong
ĠM ac
mon th
Ġr ig
Ġcent ers
Ġha vent
Ġelect rical
Ġcolle ge
ra wn
usc le
Ġst ick
azep am
H D
Ġp p
ocon st
Ġeosin ophil
ĠMore over
s ome
ĠB at
Ġlear ning
ochem ical
Ġet iology
ĠC ub
Ġar rest
Ġnight s
Ġang le
Ġmov es
Ġmon it
ĠJ os
O C
Ġf om
Ġfamil ies
Ġprep ared
Ġg ained
ĠDis order
Ġsh a
ĠSo vi
st olic
Ġd ors
Ġdiss ection
ĠAlb ert
Ġve h
Ġspe edy
OP D
ĠRes p
9 2
Ġdim in
8 3
Ġrelig ious
D S
f old
p oint
Ġb attle
Ġstrain s
ety l
ĠGerm any
Ġchall en
op or
5 2
Ġc et
ĠC P
Ġmod ified
ĠEng l
Ġphysi ological
Ġ( "
ĠL atin
Ġ201 8
ĠE th
Ġcl ub
ĠCon f
form ed
reg ards
Ġure a
Ġlim its
Ġfair ly
ob last
ĠĠĠĠ Ġ
Ġimmun osupp
D A
ĠE lect
ade qu
9 4
i ant
Ġshoot ing
at us
ĠL ater
Ġweek ly
an cing
Ġfron tal
Ġstru gg
Ã Ń
Ġse psis
oid al
Ġshow er
ip l
Ġreve al
ĠIn it
Ġsynt hes
Ġgenital s
. :
ac ial
ĠD isc
ĠR BC
Ġass ure
ococ cus
ge ons
RI N
c ort
et her
Ġendomet riosis
n et
ĠP ol
Ġde grad
6 4
d ep
Ġsh in
Ġmin s
Ġcomplic ated
Ġ6 3
Ġhour ly
Ġbi ological
Ġhor rible
ĠSecond ly
7 4
Ġmouth wash
ec ess
ep razole
Ġbad ly
Ġlab el
Ġsum mer
Ġd erm
ĠSh a
Ġprol actin
Ġdisturb ance
Ġthigh s
omeg aly
Ġse lection
Ġlist ed
il ing
Ġg ym
os en
Ġ199 2
Ġset s
ĠEx t
Ġlear n
Ġsy mb
Ġcont ro
hy pert
tic aria
Ġnucle i
9 3
amin a
ĠL E
Ġmed i
Ġsphinct er
Ġdi aph
ren d
Ġlip oma
Ġm os
ĠIn stit
?? ??
Ġdecre asing
Ġoper ating
IL L
N o
ĠAs ia
Ġn ine
Ġam oxicillin
d own
ru ption
ĠHep atitis
8 1
ot ed
Ġad op
Ġmen op
Y es
I V
Ġn ic
Ġz one
Ġn an
ur is
ĠSy mptoms
Ġde vi
Ġsub un
Ġradi otherapy
z ema
rot ic
o ar
Ġd yst
ĠH Y
Ġend s
ĠR iver
Ġany where
Ġcommun ication
Ġgirl friend
ov a
Ġtob acco
Ġind irect
Ġorigin ally
Ġa id
Ġl ax
Ġadvant age
Ġalg orith
ĠM ich
Ġca ffe
ip ine
ill ed
ĠWh ite
Ġch urch
Ġpred isp
er ally
Ġprob ability
gy pt
ha ust
Ġresp ect
Ġport al
or age
Ġres idual
Ġdest roy
Ġre verse
ĠW AS
hes h
Ġrelax ed
9 1
ic ing
Ġcoun selling
Ġcur ve
Ġd op
Ġdec omp
ad an
ant ly
Ġoff ic
Ġadd iction
Ġtend ency
o very
v ention
Ġf un
Ġle ukemia
Ġsevere ly
Ġobstruct ive
id one
Ġset t
Ġth y
Ġne ither
Ġpart y
Ġar th
Ġindic ating
ĠAustral ia
Ġrout e
un ch
Ġex change
ĠW il
act ic
Ġcult ures
Ġde fe
Ġposition s
re c
Ġs keletal
Ġrem oving
icien cies
Ġpur ple
Ġt one
Ġpos s
fe red
Ġro ck
Ġsurf aces
Ġflu ct
Ġshamp oo
ĠSim ilar
Ġ ll
Ġp ant
ol k
Ġsh ots
ĠIU I
Ġdifficult ies
Ġf le
ĠB rown
Ġsupp ress
Î ²
Ġas semb
Ġsw itch
Ġtherap ist
ution al
Ġs ocket
Ġper for
Ġbl ess
it ches
es are
ĠM art
Ġinsuff iciency
Ġconscious ness
Ġtele vision
ĠAl ong
Ġbronchodil ators
Ġpass age
A r
Ġl ic
Ġon going
ĠAt lant
Ġ umb
Ġclass ical
Ġbal anced
Ġphen ol
Ġdest ruction
Ġexpans ion
Ġse as
Ġcircum cision
Ġf re
Ġprogram s
Ġwor th
iaz ep
ĠH b
Ġclar ification
Ġexplan ation
Ġenh anced
s w
Ġworry ing
Ġins ect
ify ing
ĠC amb
Ġcorrect ed
aus al
ĠAs h
Ġhead ed
Ġscrat ch
Ġdep osition
ur t
Ġcon clusion
Ġste am
Ġcontroll ing
ĠC ocaine
ter ing
itt ed
Ġb ic
Ġhall uc
8 2
Ġprot ective
or g
ra um
Ġpre ced
Ġo phthal
ĠH ouse
Ġext ract
Ġmark er
Ġclot hes
Ġappend ix
Ġsche dule
Ġprosp ective
T reatment
Ġcorticoster oids
Ġaneurys m
Ġtrad ition
ros cler
Ġdom ains
rench ym
Ġp all
Ġo t
Ġarch itect
Ġb ud
ĠM edical
Ġfore arm
Ġhyd rogen
Ġdevelopment al
Ġbind s
ĠCal ifornia
Ġta x
kin s
ing ly
l bs
Ġ13 0
Ġconsequ ences
Ġbl ur
Ġ5 9
Ġpro ved
Ġbel ong
Ġbit es
ĠAss ociation
e ffect
Ġrun ny
it a
Ġ6 7
Ġcyt os
l av
le ast
ĠDi abetes
Ġh ung
Ġre ar
Ġsubs ided
E x
Ġst ability
Ġcomp an
Ġimpro ves
ill ation
Ġpart ially
Ġag ing
velop ment
Ġmaintain ing
Ġf ried
t r
ĠO cc
Ġval id
Ġmitochond rial
8 7
Ġident ification
ve olar
Ġcomp osition
Ġ199 1
ĠM HC
Ġk er
8 4
ad ing
ĠR em
Ġpl astic
ĠG old
Ġinstruction s
Ġst aining
oc arcin
Ġphosph ate
os omes
C hat
Ġbr ushing
Ġoper ations
Ġeff ort
Ġst airs
Ġsh aring
Ġwall s
Ġrad ical
Ġanc ient
OU LD
ĠR est
ĠDoctor s
uter ine
Ġelect ric
ĠSp anish
Ġhyper plasia
Ġfat al
Ġbo ard
Ġton ight
Ġw id
ist ing
Ġt el
ĠC OPD
ra ve
Ġam p
ĠR o
Ġinc ub
ĠPe ople
Ġop i
Ġann ual
ĠM ass
Ġus a
ĠPres ident
Ġb esides
ody n
ab ase
uc id
Ġ6 6
Ġatt itude
Ġkill er
ĠSovi et
hat ic
Ġclean ed
ĠSun day
Ġmorph ology
v in
ez e
ĠR oy
Ġhard ly
Ġmuc osal
k er
Ġor ient
Ġarm y
Ġrel iable
Ġis land
Ġstop s
Ġex haust
Ġun ivers
Ġper ic
Ġing uinal
ĠR ever
Ġide al
Ġc ivil
Ġinit iated
Ġt ro
Ġbe ar
Ġscan ning
Ġe u
is in
ad a
Ġli b
rain d
Ġact in
av y
RE S
Ġcontinu ing
Ġair craft
R OM
on ucle
op ian
âĢ ¢
Ġur inate
Ġr ail
Ġprophyl axis
Ġg rav
Ġde vices
head ed
Ġref ers
Ġeff usion
Ġplace ment
Ġlay ers
ologist s
Ġery the
it ory
Ġop ened
Ġnarrow ing
Ġelectroly te
Ġcircumst ances
ĠDes pite
B ased
qu in
ĠM aintain
Ġmod ification
R O
Ġrecommend ations
f ield
Ġr ules
Ġank les
Ġbo oks
Ġcomplex es
Ġrect um
C an
Ġb arely
om iting
abap entin
u ble
re ly
ĠR ich
m ill
Ġl ys
Ġp il
Ġ199 3
Ġacad emic
h ir
Ġconcern ing
ĠSo on
p rodu
Ġsurg ically
ĠCom mun
ĠPa ul
Ġureth ra
Ġre ass
art s
Ġnod ules
Ġtr ade
Ġphysician s
an ol
and a
Ġch olecyst
pl ing
urs day
il ized
Ġmore over
anc ial
Ġdocument ed
Ġdin ner
w ood
ĠEar th
Ġev ident
ĠHe ad
Ġ10 2
Ġ. *
i res
oe a
Ġp t
ĠE gypt
Ġpl ants
Ġnut ri
Ġery th
Ġcalc ulus
Ġstab bing
Ġant ic
ĠDear We
ĠWh ich
Ġinsert ion
ĠJ ames
Ġper i
Ġimmun oglob
Ġ196 0
Ġindust ry
Ġpractition er
Ġorgan ization
Ġdig ital
Ġbil iary
!! !
7 3
ĠS em
Ġdiff er
Ġrest rict
rox y
Ġp ed
Ġv asc
Ġch ains
Ġexist ing
Ġs ociety
fl u
a el
inc luding
Ġbreak fast
Ġprefer red
ĠSer um
Ġstrate gy
Ġs ad
am ycin
Ġult imately
radi ol
5 4
ut ch
I P
ge red
Ġfom entation
Ġtum my
rob ial
ic ks
Ġpl ain
yal gia
Ġscler osis
Ġs ized
al d
S h
Ġd m
if ies
p read
ĠC ontinue
Ġback ground
Ġpo ol
Ġv ill
Ġplac enta
ĠB ell
Ġse a
Ġcomp r
Ġpres ident
esare an
_ _
g in
Ġp uss
an us
Ġdis k
Ġcoh ort
ge l
ens ions
Ġint act
Ġcare er
ĠV en
Ġeff orts
ĠPC R
Ġax is
ĠSch ool
ĠL H
Ġinc omplete
ĠKal ach
ĠCurrent ly
Ġ6 1
Ġlast ing
Ġstrateg ies
l ig
Ġpar alysis
Ġ\ "
d ef
Ġ16 0
Ġed ge
Ġconcent rate
resh old
Ġrub bing
Ġmon t
Ġwhat s
Ġconf lic
Ġdemonst rate
Ġsurve y
Ġintrac ranial
ĠKalach ikai
ĠOr gan
ĠIl ir
Ġdi ast
Ġcl im
Ġent ering
hys i
Ġejac ulated
Ġdys p
f all
ad am
Ġdu od
Ġantidepress ant
ĠAd dition
rins ic
ch o
Ġstre pt
t ics
Ġj o
ree f
ĠF ib
Ġconst ruct
Ġdiaph rag
b bing
row th
Ġanti oxid
Ġgest ational
ĠC NS
Ġterm ed
ĠGo vern
ĠCardi ologist
Ġp air
us p
Ġincreasing ly
ĠHy d
ĠPart y
d octor
Ġthe ore
Ġweek end
P ulmonary
Ġdefin ition
ĠCoun cil
Ġconst ruction
Ġsuic idal
Ġequival ent
adequ ate
ĠB ack
Ġsatisf ied
fl ow
ĠPC OS
oconst riction
k et
ĠS am
ĠRob ert
n on
ension al
Ġaff ord
+ +
Ġm L
et te
ess ion
Ġun n
Ġphot ograph
urg ical
och rom
Ġfr ame
ĠCON S
Ġh ives
Ġcertain ly
uk ast
Ġw estern
Ġv iv
Ġint oler
it ated
ĠB razil
Ġstren uous
Am erican
Ġw ild
Ġprocess ing
Ġcult ural
mi as
5 6
Ġpre term
Ġpr on
Ġinterv als
ĠG all
Ġskill s
F E
le v
Ġang ina
Ġentire ly
ĠA lp
ĠB rain
TI C
S M
Ġj ump
Ġfist ula
Ġeffective ly
Ġmm ol
Ġflu ores
ides pread
Ġcirc ulating
ĠSha reef
Ġa vail
Ġc ities
Ġplay ers
re p
Ġcost s
Ġqual ified
B r
red itary
Ġlay ing
W ith
Ġh z
ant i
Ġreg ulatory
Ġnew born
ion ed
ĠF ever
ĠG ynecologist
Ġstrong er
A t
Ġrupt ured
5 1
il is
Ġwar f
ĠTh ree
Ġcl om
Ġch air
Ġsust ained
7 9
Ġal coholic
Ġbab ies
Ġhospital s
Ġschiz ophrenia
as ure
Ġup d
Ġi od
Ġcol itis
the tic
Ġcaffe ine
Ġj ournal
Ġoccur rence
op ram
Ġl y
op rol
Ġthat s
Ġinf usion
Ġsuccess fully
Ġpresent ing
Ġhip s
Ġvit ro
u ate
Ġbl ocks
" )
Ġb ub
ĠP ulmonary
ĠCath olic
Ġn orm
ĠO K
Ġpar alle
Ġkill ed
pos itive
in fection
Ġer upt
Ġre vers
Ġre tic
ĠM ild
Ġle aves
Ġv ap
Ġ12 5
Ġspecial ized
Ġrequire ment
ĠS ex
bo hyd
rosc opy
op ril
Ġadjust ed
Ġth ous
Ġun w
Ġinfluen ced
ĠB ill
Ġcol lect
ĠQ U
Ġrecord s
Ġlead ers
ĠConsult ant
ott on
ĠAS T
ĠSm ith
Ġsol utions
m as
Ġrec ip
Ġs ided
Ġpart ners
Ġdec ades
ĠAT P
L C
Ġstand s
r ast
arr ing
Ã ³
Ġst ing
ĠL ou
Ġrese ar
Ġnod ule
Ġhyd ration
Ġdis ability
Ġspecific ity
Ġcommerc ial
i ro
o a
Ġind eed
Ġinform ative
Ġd end
Ġclass es
TH ER
ĠHy per
ific ial
S O
Ġre vert
raz y
Ġm aster
ist ed
Ġmonit ored
Ġcom orb
ues day
Ġneu ros
e en
ĠT ylenol
Ġtom ography
um in
Ġwh atever
Ġplace bo
U N
os ity
ĠU K
Ġc ro
Ġleg al
Ġbur st
ĠLym ph
Ġass ume
Ġgr am
ĠGeor ge
Ġst ation
ĠU p
Ġsupport ing
P H
id d
Ġac celer
ĠOther wise
ĠCal c
ex pl
Ġburn s
aryn x
Ġa ching
Ġher bal
ict ed
ĠGr oup
Ġstatist ically
Ġconclud ed
Ġb uff
ive red
ĠD egree
rom a
Ġdo ct
Ġdep artment
Ġappro x
Ġ198 9
Ġpept ides
a ult
n ut
us hed
Ġrel apse
Ġend oscopic
Ġtum our
Ġonc ologist
Ġprednis one
Ġapopt osis
is is
ĠS kin
G en
Ġwas hing
Ġtr ache
j a
Ġm ent
Ġat least
ĠJ an
Ġnew ly
Ġconsum ing
ĠMa jor
Ġcigaret te
Ġcheck up
opor osis
a edic
c ope
it ating
ĠL ife
ĠO k
Ġright s
Ġer r
ell itus
Ġreg ulate
ĠD et
Ġinj ected
apt ic
Ġunt reated
Ġst orage
ĠK idney
Ġc ranial
. *
Ġ1 10
Ġpen icillin
t ype
in v
IS T
Ġprefer ably
d ependent
ĠH as
Ġacet aminophen
ĠAntib iotics
ĠP oly
Ġtri ple
Ġro b
Ġt b
Ġth ym
Ġexam ples
ĠInd rav
ĠRuss ian
P A
Ġp inc
ĠH all
Ġinst ance
Ġdro pped
i ative
ab ad
ĠIndrav adan
se cut
Ġsch olar
Ġr ul
Ġlo op
Ġflu or
Ġfr ust
yurved ic
Ġumb il
Ġam en
the less
com p
Ġec zema
Ġaccept ed
y er
ĠS ing
ĠB ay
Ġallerg ens
7 1
od iazep
ĠN ever
Ġ vel
Ġus age
Ġdet erior
Ġg ent
ĠR h
ĠE con
Ġcont raind
Ġpl ane
om nia
Ġmicrosc opy
us ually
Ġmit ral
Ġmagn etic
ĠFran k
Ġexperim ents
st im
Ġco ast
Ġp m
Ġv ig
ri e
Ġsp ent
M G
l an
ĠP ath
Ġmot ions
Ġventric le
Ġconsequ ence
neg ative
re hens
Ġdis l
ĠT AB
Ġwas hed
ĠF ore
Ġagg reg
c ial
ĠFe el
Ġw est
ĠM G
Ġseg ments
ĠD ist
Ġvari ant
Ġalbum in
Ġt or
Ġsystem atic
Ġw idespread
ch lor
Ġrang ing
Ġp H
Ġmod e
Ġ10 1
Ġmod ifications
V T
Ġde aling
ert y
ars h
Ġc opy
Ġsub cutaneous
stit ial
Ġnipp le
le ft
Ġcon d
Ġres on
ĠK h
Ġcl on
Ġpa renchym
p a
ip ated
Ġcrit ic
Ġsepar ated
Ġsy stolic
actor y
Ġf aint
Ġr t
Ġmet ronidazole
ĠSG OT
C R
ĠM A
ĠG O
Ġr aw
Ġche eks
Ġopt ic
L e
ig m
ine mia
Ġle th
Ġhypert ensive
Ġwin ter
Ġth reshold
Ġves icles
Ġ6 00
Ġur inating
Ġcom a
ie ve
orect al
ĠRever t
ĠT M
Ġspec ially
Ġmult ip
Ġprec urs
Ġadop ted
C l
us ing
ĠM B
Ġneed les
Ġant ico
Ġlymph aden
os ome
Ġer ror
id em
Ġro of
ON E
Ġnor thern
Ġbill ion
A PT
Ġ20 20
Ġbas ically
ab alin
Ġent ry
ĠAN Y
Ġtriglycer ides
a uc
c alled
Ġsing er
und red
Ġc razy
ĠTh yroid
Ġblock ers
Ġwas te
Ġreg ression
Ġdef iciencies
a ign
Ġne bul
opl astic
Ġinher ited
Ġof fered
ĠP P
at ically
Ġsymp athetic
at re
Ġb mi
ĠS ter
ĠP T
Ġocc lusion
medi ated
Ġinterv iew
Ġinterv entions
Ġrequ iring
Ġh iv
] ,
ph rine
Ġconn ect
Ġbarri er
Ġsection s
Ġdel ivered
i ently
Ġw ood
Ġp lex
ĠN ote
Ġtired ness
Ġid i
ron t
Ġfoc used
Ġl ac
ĠS ag
ĠE X
Ġaccum ulate
{ \
Ġinter mediate
urb ation
ĠPre gnancy
Ġliqu ids
Ġsp aces
cell ular
ot or
Ġrem ission
Ġathe roscler
os sible
Ġch apter
ps ia
The se
Ġexperim ent
Ġmet a
the y
od es
os ac
Ġclin ician
Ġcont ents
R S
T o
Ġche wing
Ġover l
Ġun bear
Ġinf ective
v as
act ers
uls ive
ĠDiagn osis
Ġc ust
ĠC yst
ĠD u
sc reen
G E
\ "
ong est
Ġint ensive
Ġer a
Ġcateg ories
Ġw t
ro st
ĠT op
Ġsh aking
k h
Ġkill ing
Ġfor ced
Ġbrid ge
Ġm er
ĠF SH
ĠHEL P
Ġp uff
ĠP ract
Ġno ise
Ġfl ut
Ġmuc ous
p oly
Ġex clusive
Ġem ail
Ġstim ulate
Ġtons ils
in yl
Ġpe a
Ġp ale
Ġanx i
Ġf oss
ar th
Ġtrig gered
Ġdistingu ish
c ation
ĠF in
Ġstreng then
Ġâ Ĩ
Ġrepresent ed
Ġpinc hed
iz z
Ġdisc s
Ġsleep y
Ġopt imal
ĠApp le
Ġbehavi our
Ġdiver tic
Ġdil ated
ĠH uman
ati le
I U
Ġlum en
Ġ9 8
gh an
Ġmed ull
Ġsens ations
O B
av or
Ġsub set
Ġwa ist
Ġtun nel
t reating
un der
Ġl ith
ĠM ark
ant ib
Ġactiv ate
Ġswe ats
Ġgest ation
otyp es
APT ER
ĠH ome
ĠCro ati
D R
Ġf o
Ġbott le
Ġt ric
ĠThe ir
ĠA h
ut ive
fl oxacin
ĠC ost
Ġang er
U s
Ġb ag
ĠE r
ocy tic
Ġpoor ly
at ch
EL L
Ġhold ing
ĠT aking
ĠSe a
rosc opic
Ġt urning
act ivity
AN K
ĠHel p
Ġcar p
Ġsaliv ary
est s
Ġco agulation
man n
M S
am en
Ġch arge
ĠIn s
Ġhospital ized
ĠSm all
Ġsha ft
Ġdi al
Ġcl imate
erm a
Ġrang es
b urg
Ġe ast
Ġfurther more
ĠDermat ologist
et ry
Ġcont ained
ĠO ut
ep hal
Ġprev ents
Ġexperien ces
A pp
is ol
Ġadd ing
ID S
Ġf ain
em ale
ĠL eg
Ġunbear able
Ġle an
Ġsex ologist
ĠPar kinson
Ġupt ake
d is
Ġc ow
Ġad mission
Ġfin ancial
ĠReg ular
ĠJapan ese
Ġf iance
ĠH PV
Ġsuscept ible
ĠIt alian
Ġster n
otrop ic
Ġrins es
ĠD AY
Ġha m
ĠH AD
Ġprov en
ĠInstit ute
fe eding
Ġtou ched
Ġconsider ation
Ġp un
ĠObstet ric
imic robial
Ġcarri er
Ġser ved
s ince
ad ryl
Ġres ume
Ġreg ulated
w riter
Ġcoll ar
ĠBul gar
ĠM useum
ĠP ur
ĠO ff
Ġeth nic
Ġâ ī
Ġtrans ition
Ġatt end
ste ad
ĠBrit ain
Ġab ut
Ġcomp ens
Ġindic ative
Ġgarg le
Ġpla que
ot onin
ĠK e
ish op
ju vant
Ġa ctor
Ġr na
ird s
ĠLe ft
Ġtrans f
Ġopt im
A d
el ukast
Ġex ists
ĠSc ott
Ġpig mentation
Ġrheumat oid
ok en
c her
al ities
ous ly
Ġpres um
Ä ģ
ĠM el
Ġdo x
Ġfew er
Ġschool s
Ġc up
Ġst ead
Ġclass ic
Ġre versible
ĠT V
Ġc otton
Ġgluc ocortic
i j
w in
Ġli ves
Ġtub al
Ġsur pr
um or
ative ly
Ġind ia
Ġinit iation
Ġrecogn ize
Ġserious ly
Ġpal sy
Ġthro bbing
Ġ #
Ġs g
Ġb ot
ĠC ur
Ġso le
Ġsugar s
Ġbl ister
Ġur ticaria
Ġmet formin
ox in
Ġins ight
ocarcin oma
Ġcat aly
Ġsqu amous
ĠMa hesh
um ab
Ġpath ological
Ġexcret ion
w orm
Ġinc ontin
ĠAl f
Ġherni ation
Ġg raph
ed d
ĠT R
Ġabsorb ed
ĠE s
Ġtou ching
Ġtransfer red
Ġexert ion
Ġd ense
Ġprodu cer
Ġclar ified
Ġsupple mentation
Ġcover ing
Ġsubstant ial
K indly
ĠD IS
Ġcap able
e ven
Ġto ol
Ġorthop ed
od ipine
Ġli es
Ġbl ade
li hood
Ġf iss
im ent
Ġsecret ions
Ġreg en
uss ion
Ġpoly morph
Ġsubs ides
m t
ou red
Ġeff ector
Ġconsider able
Ġtit le
H ave
R eg
Ġfound ed
Ġpolic y
Ġs outhern
Ġ198 6
Ġspe aking
Ġguid ed
Ġarri ve
m etic
ĠC L
Ġwor ries
Ġimp ossible
Ġmeant ime
on itis
Ġin ability
Ġir re
P P
Ġper itoneal
ris k
Ġm ellitus
ĠM ex
Ġph osphat
Ġlet ter
Ġturn s
Ġduct s
Ġanest hetic
Ġsimultaneous ly
Ġmother s
Ġpredominant ly
ĠChic ago
Ġt rop
RE AT
om uscular
Ġrec omb
Ġproper ty
Ġtip s
Ġm ag
ĠV ar
Ġsurv ive
Ġscen ario
w ar
ĠT ri
Ġmar ch
Ġcur able
Ġneon atal
ent ially
Ġse mi
oun g
ĠL FT
ud a
Ġclear ance
Ġworld wide
Ġspontaneous ly
Ġi b
ĠH aving
Ġintern et
Ġmicrosc opic
Ġcreat ing
Ġsum m
Ġuncle ar
Ġa ce
ist ent
ĠB ronch
Ġh o
ot ics
ĠR et
u ing
Ġsc ars
Ġchar acters
Ġleth arg
ital opram
Ġel ucid
th le
itt en
Ġcut aneous
Ġder iv
D ear
Ġmetab ol
Ġpost ed
drom e
Ġ198 8
Ġlim iting
Ġthick ening
Ġi li
Ġinst ances
Ġpre operative
Ġrelationship s
Ġd iclofenac
ĠT re
ment ioned
Ġgr adi
u ro
Ġmob ile
Ġbase ball
Ġunn ecess
Ġw ise
Ġv est
ip hene
oph ils
eng ue
Ġconj ug
igh ter
Ġdrain ed
Ġagree ment
K ind
om ical
Ġlike lihood
ne ath
Ġantidepress ants
Ġtrim ester
ĠGastro enter
ĠA dd
ien ces
ĠIs lands
rac y
Ġendomet rium
Ġupt o
u a
ĠT ub
Ġcon version
Ġang ry
r ative
Ġcol ored
Ġrh initis
Ġim ag
di agn
Ġidi opathic
ĠP et
id ents
Ġdel iver
Ġepid ural
Ġophthal m
Ġcompan ies
Ġview s
ens ed
Ġrep lication
ĠV ery
Ġcar bohyd
ĠSt ress
ĠF il
Ġj er
Ġknow ing
abil itation
Ġexhib it
be at
Ġab und
ĠG ET
Ġdes ire
Ġrelax ants
Ġmanufact ure
w ater
est ic
oc r
ult s
Ġpict ures
id ers
Ġfem oral
Ġt ur
Ġw it
ĠF at
te bral
ĠSe vere
Ġc ourt
ay er
ar ach
av al
Ġgener ate
Ġol ig
p ill
ĠAny way
Ġexcept ion
N eu
Ġth ru
Ġconsult ations
omet ric
Ġ7 8
Ġhist opath
Ġg p
ĠSc an
T P
he x
ER E
Ġf ro
ĠS A
Ġro ad
u ps
ol ve
ĠF inally
Ġconver ted
Ġa yurveda
ĠM at
Ġt ru
ĠM ED
oc ated
K E
Ġc esarean
Ġn g
ĠMan agement
S enior
ic ine
Ġg ross
ĠH ol
ĠAn xiety
Ġreve als
il i
' ll
Ġcou p
ĠIg G
Ġalph a
c ast
ĠO ld
Ġsw ab
Ġsupp ose
Ġph one
20 12
Ġcompl ains
Ġparalle l
Ġdec ongest
II I
Ġc red
Ġst ored
Ġterrit ory
Ġdors al
ch ang
ult ural
Ġcancer ous
Ġfor t
Ġswim ming
Ġh undred
ru gs
Ġtre mor
Ġgon ad
Ġwa king
aps ed
c hest
Ġret inal
A nt
Ġdifferent iate
Ġprepar ations
ion e
Ġper ine
Ġn ative
IC S
Ġdire ctor
Ġsh orter
ec es
Ġunder neath
Ġemb olism
b u
it ant
Ġst aff
ol ol
entric ular
Ġt ib
Ġwork ers
Ġpath ogenesis
Ġmagn itude
Ġdepos its
h ma
Ġd l
ĠK ind
Ġhypog lycemia
. ---
Ġr ace
Ġheav ily
Ġw aves
Ġ201 9
Ġless er
Ġattempt s
ĠM ast
ĠM oh
du ction
Ġreg urg
Ġ198 7
el ess
ĠF orm
Ġg un
Ġz ero
Ġpre m
Ġout bre
Ġpsych os
Ġneut ral
s er
Ġad he
Ġcomp rehens
Ġhypert rophy
Ġin adequate
ĠBet ter
ia p
In fectious
Ġg ar
Ġcl osure
abs orption
Ġdiscol oration
ĠW omen
Ġmagn esium
Ġn as
am i
Ġapp lications
Ġirrit ated
leg m
Ġson ography
Ġvertebra e
Ġs li
ĠAm ong
Ġattempt ed
at osis
ent eric
ro se
am eth
ĠM en
Ġun iform
com b
Ġhypot hesis
Ġmoist ur
.--- >
Ġw arr
ĠI BS
eg in
Ġpath ologic
Ġoste oporosis
z he
Ġbl ind
y our
Ġc um
an na
cept or
Ġanxi olytic
P atil
am ing
all ergic
Ġpoly ps
Ġconsist ing
form s
Ġimp lic
Ġchemical s
ĠHar ry
Ġdef ense
Ġlig aments
Ġpc r
Ġrep et
â ĪĴ
ĠA bs
per idone
Ġmanifest ation
cl in
ĠAf ghan
Ġreson ance
Ġm ine
Ġar ising
Ġret in
Ġmot iv
Ġcorrel ated
Ġsess ion
Ġm t
ir s
Ġpl at
ĠD en
ĠApp ro
ĠRoy al
isin opril
D P
Ġmon o
Ġatt achment
Ġph ag
B l
Ġcol i
le m
Ġim per
re me
ĠP ot
li ament
Ġvari ants
Ġlog ic
ĠSat urday
N F
can cer
Ġincontin ence
h r
il a
Ġse lect
ĠDr ink
Ġic lin
v ast
G H
U B
oc rine
Ġstimul i
Ġo sm
Ġident ical
Ġmeet ing
b rid
f a
Ġr ating
ym b
Ġform al
Ġmig ration
Ġvary ing
Ġcru cial
0 6
M eanwhile
Ġat ypical
ĠL y
Ġvari ations
M ENT
Ġevery one
Ġsecret ed
ze ch
Ġdiast olic
Ġac etyl
Ġlow est
Ġatt ending
20 11
Ġclot ting
Ġmur m
Ġclus ter
O H
c r
h oea
Ġab st
Ġent ered
Ġ198 5
Ġhe reditary
Ġab lation
Ġcomp uted
Ġant iv
c ar
ab dominal
Ġfluct u
d y
Ġt ask
ĠP ediatrician
ĠL DL
Ġann ounced
Ġemph as
f ib
ĠT er
Ġhor iz
sens itivity
x ia
Ġsun screen
Ġcamp aign
secut ive
C s
Ġac qu
ĠAmeric ans
ĠC oll
we ek
Ġaccur acy
Ġblo ated
Ġpur ch
w s
ign ment
Ġrepe ating
ĠLou is
ed nes
Ġres ources
ĠO m
Ġnecess arily
Ġimmunoglob ulin
i ar
w arm
Ġrese arc
A g
Ġb ac
ph ast
omy el
Ġgreat est
phosph ate
Ġ6 9
Ġf arm
Ġal arm
Ġtrans lation
Ġendoc rine
ĠV er
Ġtr unk
amm ed
Ġcateg or
Ġcerebell ar
b et
Ġthromb ocyt
Ġspl it
ĠJew ish
Ġp d
Ġsub m
Ġsqu are
en n
ell y
ĠY EAR
Ġgl ans
Ġadhes ion
reet ings
Ġb iot
av age
Ġart ificial
Ġadequ ately
oid osis
Ġ7 4
Ġmelan oma
Ġspec imen
Ġobs erve
Ġpredict ed
Y P
Ġr ats
ic ul
as y
ax ia
Ġbo ost
Ġprofess ion
ovir us
b ound
ĠM u
Ġany time
Ġconce iving
Ġp or
Ġmenstru ation
Ġvirt ual
ĠTh omas
Ġvert ical
ĠColumb ia
Ġv i
ace ment
Ġheav iness
Ġpract ices
Ġb ug
Ġb und
ĠC at
ce l
Ġwh it
Ġli ved
Ġbi om
amm a
ER G
Ġperfect ly
O ther
ĠT otal
ip ment
Ġneurop ath
Ġa il
Ġ7 3
Ġpe ace
Ġintra uterine
Ġdiaphrag m
Ġse ptic
ĠG reen
ĠRe ad
ĠCont rol
Ġreach ing
Ġtarget ed
Ġmess age
0 4
ir t
Ġbed time
Ġcorrect ly
Ġvac cin
W hen
el a
Ġread ily
Ġast ron
Ġcarry ing
ak ed
ord s
erc ise
Ġspell s
ednes day
Ġd ye
ĠHen ry
Ġb itten
cy cline
Ġbi o
ico cele
Ġbl ot
ĠAl tern
OR M
Ġfootball er
ĠPrim ary
in ates
Ġany way
ĠAg ain
Ġpul p
Ġpat ent
om pl
Ġsur geons
com plete
Ġexpect ancy
ĠMid dle
Ġsh ing
Ġfight ing
Ġmineral s
Ġdegrad ation
Ġal leg
ine phrine
ĠL aw
Ġpath ogen
Ġhyp oth
ĠSci ence
Ġlymp hatic
H g
Ġcon secutive
Ġ198 4
Ġo s
form ations
Ġsc ript
Ġdiss olved
Ġhistor ical
un ting
Ġmild ly
ĠCom plete
Ġor ange
Ġlaw s
Ġinfluen za
c ents
Ġph legm
Ġrandom ly
c ons
Ġperiod ontal
Ġestim ation
en cing
Ġ7 6
Ġinstrum ents
Ġw ounds
Ġbl ow
Ġro les
Ġvent ilation
Ġvel oc
Ġc ran
Ġdig estion
Ġfield s
r ary
as ks
ad el
Ġun certain
Ġp ylori
Ġsh ared
Ġch or
our ce
Ġrough ly
Ġrecon struction
Ġobserv ations
on ly
at ation
ol ip
ĠR ay
Ġman ip
u ct
Ġapparent ly
Ġr ab
Ġassum ed
. ?
Ġtarg ets
ig estion
Ġsc aling
ĠUn fortunately
ĠAt t
Ġsure ly
ĠH AS
ĠP SA
Ġk m
Ġ10 3
Ġpill ow
Ġbr aces
ĠP H
Ġsh r
Ġpsych otic
Ġeat en
Ġgirl s
Ġneutroph ils
Ġfibrom yalgia
hypert ensive
b p
per or
I m
rote ins
Ġfift h
Ġp acks
Ġn ation
Ġant imicrobial
Ġaut onomic
in ite
Ġspec imens
Ġap nea
oxid il
U E
ment in
yp es
Ġinhibit ory
Ġt ick
j an
Ġg ynec
h is
Ġta p
ĠSS RI
pl ay
Ġcontraction s
Ġbehavi ors
ĠF ROM
ap ine
Ġcomorb id
Ġi le
st ate
ĠFor ce
LE ASE
Ġb or
Ġhyp ox
ĠPl s
Ġprinc iple
Ġun controlled
Ġintrodu ction
Ġbutt ocks
Ġinterfe re
Ġreh abilitation
h av
l aw
Ġ7 1
Ġmob ility
en z
Ġcat ch
Ġdescrib ing
Ġemploy ed
em aker
Ġ19 50
Ġcere b
Ġjo ined
Ġne oplasm
iv itis
Ġnause ous
Ġp olar
od ic
ĠIs land
T R
Ġa ld
ĠI M
AT E
ĠD utch
Ġqu arter
ob ia
Ġsuscept ibility
Ġ| |
ab out
Ġinhib its
Ġcram p
Ġrecur ring
Ġkind a
ĠC zech
00 00
Ġpe ptic
ĠGen erally
af il
per m
CT OR
Ġing red
Ġintest ines
Ġsuic ide
Ġan omal
Ġins omnia
Ġpull ing
ill i
Ġv ib
Ġab ort
Ġur ban
Ġing estion
AC K
Ġdop amine
Ġto w
Ġcan n
Ġne arest
ĠB ig
oc omp
aus es
Ġperic ard
Ġg rew
ĠP ul
Ġey el
Ġper ce
ph ilis
Ġneur omuscular
d ue
i ating
Ġint ended
erv ical
Ġcor p
b ur
anc reat
ĠVis it
C M
Ġh ang
Ġgen u
part um
b ert
Ġag es
Ġinj ect
l ived
id ase
h ar
n atal
ater nal
d es
ver ages
ec lam
Ġser otonin
Ġradi ates
sh ould
en a
ĠC E
Ġcop per
Ġdefic its
Ġl uke
Ġmat ch
m od
on ide
Ġc oc
ay a
ĠP rop
Ġpal ate
Ġshing les
ĠD ent
Ġcom ments
Ġprincip al
L et
u gg
Ġb c
Ġin active
ost atic
Ġcomp are
ir a
op hys
Ġs ut
ĠC ourt
Ġlight headed
EN S
Ġh ous
Ġnew s
Ġdisch arged
b inding
in et
ĠM O
Ġalle vi
ĠAcad emy
Ġbe ating
Ġsimilar ly
Ġrelie ving
it ual
ĠM ill
Ġhyd rated
Ġmasturb ating
Ġstre p
Ġecon omy
Ġalter ations
ĠMich ael
ing e
Ġte en
Ġchol est
Ġgarg ling
Ġfibr illation
Ġre in
ĠD a
ĠR enal
Ġsupp ression
Ġcir cle
it ar
ĠP L
Ġrese mb
Ġlapar oscopy
oar thritis
Ġplex us
re ase
ot rex
ri le
Ġnotice able
ĠH a
Ġcomp artment
âĢ ľ
Ġ198 3
rogen ic
il ib
Ġde form
Ġtem ple
Ġaw ake
3 00
am ber
Ġinf o
Ġelim inate
Ġshort ly
Ġlig and
h ad
ost omy
Ġcomp ress
Ġcl oser
av oid
amp ions
Ġc ephal
Ġg al
od g
am ics
Ġexp ensive
Ġvis cer
Ġpub ic
Ġtab s
Ġdend ritic
O n
d on
h as
u ated
Ġ9 6
Ġagg ression
pe pt
---- ----
Ġp ins
ĠC and
ĠL uck
ud e
l oxacin
s ection
Ġan ast
id ym
ÂłÂłÂłÂł ÂłÂłÂłÂł
Ġr ank
oll y
Ġimpact ed
i y
Ġback ache
ub e
Ġlun ch
Ġnut rit
Ġexist ence
ell ed
Ġcomp aring
Ġm ission
il ed
Ġsp an
Ġquestion na
abet ic
Ġartic le
Ġs in
Ġf ash
der abad
ĠE at
Ġvis iting
for ce
Ġconce ived
st s
Ġcaus ative
Ġhand le
ist ant
ĠDe ep
ĠHS V
Ġmonth ly
Ġsetting s
Ġg ait
b ar
ac her
Ġsp ort
Ġmass es
a iting
ĠAl cohol
f irst
ĠHealthcare Magic
C C
Ġc as
el vic
Ġfall opian
w al
ul ator
Ġlymph oid
ĠSud hir
or ia
Ġread ings
Ġglass es
ĠNSAID s
Ġat m
Ġkind s
ĠEx p
Ġdiarr hoea
ĠT IM
ĠH ER
ĠR ule
i pped
Ġi ii
20 13
Ġepid erm
Ġechocardi ography
g est
Ġs d
Ġn t
Ġrem ark
Ġfacil itate
Ġmenop ause
ke l
Ġtrans verse
Ġvis its
st r
ĠW al
Ġexamin ations
unt ary
, âĢĿ
om ers
mon d
ob acter
Ġindu ces
os ine
Ġpl ans
Ġvalu able
Ġ8 8
Ġalgorith m
Ġg out
Ġfollow up
Ġtrem ors
ĠConst ant
Ġ ï¬Ĥ
ran ged
Ġmot ile
ĠInc reased
Ġinterpret ation
' d
Ġp up
ĠC enter
ĠM eth
Ġappro xim
AN D
Ġrespond ing
ĠSu per
gm ail
Ġin activ
Ġant acid
ĠĠĠĠ ĠĠ
rosp ective
Ġto ols
Ġcyt otoxic
ens in
Ġartic les
r ition
op es
emb rane
Ġviv o
re m
Ġvar ic
ĠChe ck
Ġposs ess
ĠM ount
ĠP E
Ġcompl ained
ĠAD HD
v omiting
Ġis lands
ĠT ype
ĠB ru
Ġam mon
Ġmarg in
A b
ĠB ron
ym met
Ġequ ipment
ĠO CD
Ġap ical
omat ous
Ġthrow ing
n f
op a
Ġdist ributed
Ġillness es
Ġgenu ine
Ġb ank
ol ate
am el
ĠTh ursday
OL OG
Ġdefic it
w est
ĠM iss
ĠL ocal
ĠMahesh wari
am ental
Ġsy mm
Ġafter wards
Ġar range
Ġjud ge
Ġfung us
Ġ @
Ġper fusion
Ġatt ach
Ġpower ful
Ġbenz odiazep
Ġca ught
ĠE astern
alam us
ĠG ree
ĠIt aly
Ġsepar ation
Ġantip sych
ĠC ivil
ĠIn ternal
ac ids
cl ovir
ou st
Ġm ap
ĠC orn
Ġacc ounts
empor ary
ĠBat man
ĠIs ra
20 10
ĠQ ue
ve ll
Ġpr ick
Ġsatisf action
Ġs an
um ents
ĠTable t
g i
re land
ec ia
ĠAs k
Ġret ained
Ġsubst rate
d im
ĠL abor
Ġ7 7
Ġpub erty
Ġfrag ments
Ġheter ogene
R ep
in se
ĠNeu rol
Ġunw anted
ĠC OM
ĠP ac
Ġfamil ial
Ġcould nt
Ġob jective
Ġlower ing
ĠÎ ¼
Ġwat ching
ĠN ormally
ran ce
Ġpar an
Ġacid osis
C O
l ink
ĠM ON
ĠK an
ĠDe velopment
Ġju ices
ĠW all
ĠU N
Ġexerc ising
Ġsg pt
pl s
pl ate
Ġneigh bor
otrex ate
it ched
ic an
Ġmat hemat
Ġexcessive ly
Ġa thle
ĠS ign
Ġdi ag
ĠWH AT
Ġgradi ent
eclam psia
om on
ĠC e
Ġmedi ast
Ġpe eling
Ġplac ental
oz yg
oli osis
Ġextrem ities
Ġn ap
ĠR am
Ġdist ant
Ġindic ations
Ġsum mar
g a
v aginal
Ġn om
ĠT reat
ĠD iclofenac
t age
Ġst ain
ĠP ant
ĠA mb
st able
Ġar ises
ap ar
eg en
Ġaggrav ate
Br unicardi
Ġb d
ĠD iv
Ġfa ith
Ġtrigg ers
u er
Ġborder line
Ġinfilt ration
ĠS upp
ĠL i
Ġur ge
Ġvacc ines
os per
Ġdig estive
Ġtrain ed
Ġepid em
Ġendoc rin
Ġnutri ents
ĠS M
il iary
h n
Ġl ady
Ġcont ag
Ġcont amin
expl ained
Ġimp ression
Ġtons il
Ġcomprehens ive
b ital
as se
id i
ĠF ed
Ġtrans mit
ov en
Ġsyn thetic
Ġdifferent iated
AL L
Ġband age
ĠFor um
ĠÃ Ĺ
ĠHi Thanks
Ġdec ade
Ġstand ards
oneph ritis
Ġb at
Ġser ves
l ate
ĠP eter
ĠW ent
Ġeas ier
Ġs omatic
Ġh ol
Ġis nt
Ġst ore
Ġret ain
ĠAc et
Ġod or
ĠTay al
Ġpsychos ocial
u ce
Ġover night
fe rent
Ġacc ompl
Ġinto x
Ġal veolar
ĠN OW
ĠSh ort
zhe imer
M ost
ĠI ron
Ġdil igence
Ġrec ording
Ġgastroenter itis
ĠB ra
ĠRich ard
Ġint ell
ĠWith in
ĠOR S
Ġimm ob
Ġadoles cents
l ipid
Ġit ches
Ġtreat able
Ġaut osomal
Ġtub ular
ĠPort ug
thyroid ism
Ġc ul
ĠT uesday
ĠJ er
Ġdang er
. âĢĿ
ind amycin
Ġinter stitial
Ġcytok ine
n oid
in ction
ac ute
gen cy
Ġhospital ization
h igh
t i
Ġst ring
12 0
Ġtri p
Ġirrit able
ĠPsych iatrist
ĠS OME
Ġatt ribut
Ġbi ochemical
ES S
Ġestim ate
Ġstern um
or ial
Ġha z
Ġgr ay
Ġnurs ing
n as
o j
ĠE D
we eks
Ġcho ose
Ġphot os
rocy tes
Ġsciatic a
Ġantiv iral
it ment
ĠG ur
Ġperiod ic
Ġben e
Ġaff inity
Ġneph rologist
Ġpi eces
Ġr iver
Ġmet all
Ġloc ations
Ġbreast feeding
Ġrequire ments
Ġneur onal
rim azole
Ġchall eng
Ġprincip les
ĠTAK E
Ġm old
ĠC it
Ġcor por
Ġclar ify
Ġsick ness
Ġdescrib es
ĠF our
requ ent
app y
e at
Ġcomple tion
ĠGr and
Ġsynthes ized
ĠD E
Ġreg ist
Ġcent uries
ĠWas hing
Ġgangl ion
Ġ ions
Ġd ots
an ia
Ġst ars
20 14
psy ch
, "
v ar
Ġ20 21
Ġblock er
Ġ198 1
Un der
he red
Ġhe el
Ġun re
Ġch osen
Ġco eff
ĠRes earch
Ġclaim s
Ġinstrum ent
Ġintoler ance
an alysis
Ġheart beat
ju ana
Ġle mon
Ġox ide
ĠMin ister
Ġse ar
Ġdi verse
Ġco verage
Ġpal m
Ġpersist ing
Ġc ef
Ġs and
Ġc er
ent h
Ġdiure tics
Ġno v
Ġappear ing
Ġ198 2
phast on
ir ty
uc onazole
Ġtear s
end s
ĠB u
Ġdi vers
ĠE ffect
Ġbr ace
Ġcalc ification
Ġgastro esophageal
Ġfash ion
t ical
y es
Ġs ought
Ġh v
ym p
Ġchallen ge
st one
ce phal
ĠUn t
ĠWell come
Ġcit iz
Ġd rawn
ĠA ch
Ġencephal opathy
Ġp age
ĠP o
Ġun related
ĠJohn son
ill ance
Ġche w
arg es
ades h
Ġnutrit ious
ver tebral
ĠHI Thank
Ġde ple
Ġcor ner
Ġ17 0
Ġchromos omes
exp osure
op al
ĠWilli ams
Ġresearc hers
Ġa ward
inal ysis
Ġbr and
Regards Dr
avor able
ĠP red
Ġ8 2
ipp ing
Ġk gs
Ġdiagn oses
cript ions
et ime
Ġsyn cope
Ġstress ful
Ġpurp oses
Ġanast om
op ecia
Ġinterest ed
Ġangi oplasty
Ġe g
ĠB LO
ĠF ort
Ġve ctor
e per
ch rom
g ood
Ġcardi omy
oph osph
ĠStud ies
ĠJew s
ĠSimilar ly
an es
ĠI B
Ġ8 4
Ġsuff ers
ĠSw ed
Ġign ore
Ġsuc ceed
Ġavoid ance
Ġr acing
Ġfib rin
Ġmic rot
ĠWH O
Ġanat omy
ul u
oft he
Ġret ract
Ġnons pecific
Ġveh icle
ĠTh or
Ġregard less
Ġencou rage
Ġd engue
Ġblood y
Ġbi ops
Ġdem and
Ġclaim ed
ĠEm erg
ĠDisorder s
Ġp uncture
Ġat axia
ound ing
Ġumbil ical
L R
hip s
Ġ( )
Ġass igned
Ġrep lic
Ġ8 00
S E
Ġc uff
ĠD om
Ġdisturb ed
Ġrot ation
b rain
g u
Ġhyper sensitivity
Ġexc ited
Ġphosphory lation
Ġregurg itation
m ax
os ide
ĠD ou
Ġm ask
art an
ren e
Ġexp anded
Ġarter i
Ġindust rial
ĠBer lin
Ġann oy
Ġworm s
Ġcontro vers
T E
Ġf amous
ĠA K
r ous
st age
Ġvac u
ot o
ĠS Y
ĠD N
ost on
ĠHe y
Ġoxid ative
oth or
Ġhy brid
Ġprevent ed
Ġconsist ently
Ġfibr ous
Ġext ending
Ġconv in
Ġwarf arin
N E
es pecially
Ġst itches
ĠSp ain
Ġinhal ers
ĠIU D
Ġwhe at
Ġp airs
ĠC amp
ĠM ah
ab ilities
Ġadd ressed
Ġce leb
Ġd ressing
op ausal
Ġvent il
ĠI reland
Ġfor got
ĠC yp
Ġsp r
Ġextend s
Ġnucle otide
wor ks
ĠBM I
m iss
Ġheart burn
ov es
ĠCol on
Ġcomm and
ĠĠĠĠĠĠĠĠĠĠĠĠĠĠĠĠ ĠĠĠĠĠĠĠĠ
j ury
Ġher self
15 0
Ġfert ilization
ĠMus lim
Ġpolymer ase
% ),
on ym
ore a
Ġqu ote
Ġcre ation
Ġer ad
Ġm ail
Ġsh aped
Ġstay s
Ġsuspic ion
ĠT a
Ġst ents
Ġv ast
Ġdef ine
Ġorgan ized
Ġmm Hg
uls ion
Ġneuros urgeon
Neu rology
Ġdes ired
pir ation
o i
d ish
pl z
FT ER
G G
le vel
zym e
Ġdistingu ished
Ġ ??
Ġh olid
ĠM ax
ip ital
Ġgrow s
Ġsupport s
Ġcommun ities
hy p
Ġencoun tered
c ap
Ġh p
Ġfl ap
Ġpo le
Ġunf avorable
th reat
Ġtim ing
Ġbas ket
Ġeat s
Ġcort isol
ĠÂ ģ
Ġleak age
ĠOrthop edic
s ometimes
Ġstim ulated
Ġdyn amic
Ġatm osp
is her
Ġre aches
ĠB ro
ost asis
AN T
Ġlev ocet
eli ac
Ġeas tern
ĠRev olution
h our
Ġb ra
ure us
Ġtrans cript
m us
ĠHC V
ocon ut
Ġswell ed
Ġpac emaker
cob al
Ġd ot
ĠS erv
ĠIn stead
ĠAr men
Ġfail s
Ġbur den
ĠHy pert
Ġlat est
ĠArab ic
ce mic
Ġpro ve
ĠB os
Ġtox ins
Ġg m
ĠB ase
bo ok
s ac
Ġsh oes
ĠL anc
Ġmicro g
lam yd
h d
iot ensin
ĠSh ah
ad ed
.. ,
ĠO h
Ġsign ed
rox ine
ĠC et
ab olic
Ġun fortunately
ĠE ve
ĠO per
ĠEn ter
ĠTAB LE
he ast
Ġc ab
ĠC ard
Ġpress ures
cl ofenac
Ġopportun ity
he alth
up uncture
iet al
cod one
ĠN ov
Ġtr am
al amic
ĠI ll
ĠM ur
ĠW here
.... ...
Ġreason able
ĠDO CTOR
Ġopp osed
ĠMult iple
ĠWashing ton
4 00
et ically
eg a
li er
Ġperman ently
Ġpap ill
Ġelectron s
Ġindepend ence
Ġbl ocking
ĠY oung
omy cin
ĠHC G
s f
Ġl ens
Ġbe aring
Ġli br
Ġper ception
Ġyellow ish
Ġcytoplasm ic
osac ral
ic it
ĠR ail
Ġer os
Ġtoler ate
Ġili ac
Ġmurm ur
Ġstimul us
ĠRuss ia
Ġdat abase
Ġ9 7
ĠN F
Ġnew er
bo ard
Ġphen otype
Ġtechn ical
Ġther m
Ġanomal ies
c at
erm an
Ġtell s
ĠNor thern
ww w
Ġfavor able
ĠMED IC
l astic
ild en
Ġpat ency
Ġengine ering
Ġamen orrhea
threat ening
l ength
Ġlip ids
Ġmos quit
Ġcoup led
ĠB ow
ĠP D
Ġdi pl
iv a
Ġcap illary
Ġphysi ologic
Ġf its
Ġcr isis
Ġspl en
Ġavail ability
r ide
Ġex cer
ĠB or
aps es
uk ary
Ġdil ation
Ġaccomp any
Ġanc est
st and
ati f
ĠB ank
Ġhouse hold
d isc
ĠH LA
ĠA ward
Ġinc ome
Ġhep arin
Ġneur on
ĠC ontin
Ġch art
Ġch ief
Ġbal d
Ġtrou bles
i h
Ġb t
Ġco al
ox yl
ĠIm p
Ġasth matic
Ġprogn ostic
Ġinn ate
Ġt orn
ex as
Ġ7 9
Ġherni ated
Ġhop ing
Ġagon ist
Ġd rank
Ġfract ured
Ġland ed
B P
p hy
Ġcell ulitis
Ġro d
Ġeff icient
Ġaccept able
. ]
Ġt ag
st ud
ĠV ict
Ġstress or
Ġobvious ly
ĠMart in
Ġcl av
Ġind igestion
Ġfasc ia
C L
u i
al t
et ies
Ġel astic
ĠAc id
ĠAst hma
inf ected
Ġdevi ation
Ġhung ry
r ace
Ġh c
op her
ĠF ood
Ġag ric
ĠS LE
Ġfin ish
Ġequ ally
Ġsam pling
Ġresear ches
Ġan ter
lud e
Ġ8 3
12 5
aren ess
al a
ĠUn less
Ġgu y
ol us
Ġr ain
Ġv on
ĠW ILL
Ġdec isions
eng er
Ġsle pt
ĠCroati a
adel ph
ĠN ext
Ġint rinsic
TI VE
Ġtemper atures
Ġhalluc inations
b es
ĠP ET
Ġlong itud
Ġax illary
Ġphotograph s
Ġo vere
Ġ197 9
Ġminim ize
p y
ĠB ern
ru ff
Ġpo x
Ġlead er
Ġdeep ly
Ġcut ting
Ġstre am
Ġrepeated ly
W h
l it
ol ine
ĠN ic
Ġrec all
Ġdisc overy
Ġluke warm
m ad
Ġint ram
Ġpl ates
Ġelect ed
Ġalkal ine
Ġseas onal
F R
ĠT ime
per itoneal
ĠAm l
Ġcar ries
Ġpoly cystic
Ġoccas ions
osper mia
Ġnot able
ill ing
Ġde let
Ġbronch i
Ġst ained
itt al
Ġquant itative
k ed
Ġopt ed
Ġag reed
hem atic
Ġstate ment
ID E
Ġb out
ce an
Ġreg imens
Ġacid ic
ĠPhysi otherapist
ĠDent ist
Ġh cm
ĠO P
Ġla un
Ġimp l
0 8
Ġl oud
ĠW OR
Ġtr ace
Ġpar a
Ġmat uration
Ġroutine ly
ĠPar is
Ġharm less
n ar
Ġa ureus
an z
ic in
ĠS um
Ġatt ract
Ġref used
ands on
hep atic
Ġarchitect ure
Ġt rend
Ġpus hing
ĠAL SO
Ġsh ut
ag ia
ĠCh lor
Ġoc ular
Ġst atic
ob acco
J ay
Ġm imic
id o
ĠA NA
Ġcon formation
am ate
Ġgu itar
Ġgrad ual
K D
Ġe lic
ĠS en
rit in
Ġsee king
Ġpus hed
Ġidentify ing
Ġat oms
Ġam n
ĠN ap
Ġvol atile
Ġray s
l oss
p resent
Ġnot ably
ĠOn col
acks on
Ġcompar able
Ġt asks
Ġa ph
Ġm IU
el lect
ĠCount y
Ġspondyl osis
Ġbe aut
Ġprogressive ly
Ġdimin ished
odyn amic
adelph ia
Ġs ons
Ġte ams
Ġend ogenous
vast atin
l on
in ous
ĠR ef
ĠV iral
ĠSc ot
Ġcoll apse
bre vi
Ġpreg abalin
Ġencou rag
ĠSt reet
Ġconc ieve
ilib rium
Ġd ut
ĠC atal
Ġcall ing
Ġbronch ial
ĠMod ern
Ġcontag ious
b oth
Ġun explained
Ġmed iat
Ġfind s
Ġbirth s
Ġcomm ittee
........ ........
Ġf ly
Ġper oxide
Ġtw enty
ros ine
Ġrecover ing
aryng itis
ĠBre ast
Ġveloc ity
om ed
Ġar row
qui re
ĠAnd rew
ĠHI Well
Ġprec a
Ġelim ination
Ġg abapentin
Ġtrans por
Ġfac ility
Ġpur s
ĠUnder standing
Ġst aging
Ġhigh light
Ġevery time
Ġide ation
im us
ĠF ert
ip h
Ġtrans m
Ġris ing
Ġrecommend ation
Ġcirc ular
ĠA FTER
ĠV it
Ġchem istry
Ġthor ax
Ġdiscontin ued
v iew
ĠH ot
Ġbel t
ĠDi et
Ġgent le
Ġhe als
ĠD A
Ġsyn aptic
Ġoper ate
Ġmid line
Ġstay ed
Ġaden ocarcinoma
ĠCR P
Ġpost partum
ER ATION
US E
Ġerr ors
Ġn arc
ĠA yurveda
ĠCar l
Ġnit rogen
ĠPR OB
Ġanat omic
ĠIr ish
re a
Ġsim pl
Ġarrhyth mias
ag y
hy se
Ġstimul ates
ours es
0 9
Ġf oul
ĠHB V
Ġtro ops
oprol ol
b ecause
ou ps
Ġ197 5
v ille
ĠAl i
Ġlet ters
oz o
ge bra
ĠB ob
ĠBl ue
on ed
ĠE du
Ġsa ve
Ġ8 1
Ġcardi o
Ġreal ized
d am
Ġm d
Ġm n
Ġsh unt
Ġinst ability
ur ated
Ġbre aks
ruct ure
ĠUs ing
f at
y c
an al
ĠC el
Ġfe eds
Ġtw in
Ġsw ings
urop athy
Ġsmok ed
Ġmorph ine
b ic
ĠT en
og lyc
rof ib
Ġsub d
Ġwork up
ari ate
Ġparas ites
Ġse at
Ġkne w
Ġcit rate
ĠJos eph
vir al
Ġball oon
Ġlabel ed
ĠMast urbation
Ġthrombocyt openia
R Y
Ġc our
Ġm ole
ĠV ERY
ĠPract ice
an ine
od ef
th rough
Ġbre aking
verse ly
Ġbru ises
Ġconsist ency
Ġpreca ution
op ia
ine a
Ġcur ious
Ġperfor ation
B e
Ġconf ig
Ġlymph n
Ġg aining
Ġex ce
ĠSt ep
Ġpar ietal
Ġster ile
Ġtoler ated
Ġencoun ter
ail ed
Ġem pir
Ġdeterm ining
ĠFran c
ĠGl uc
ĠSyn drome
ĠS TI
ĠC old
UL T
ĠH ung
Ġse ed
Ġshould n
arm ac
isc us
Ġreal ize
Ġdil atation
Ġhor se
Ġdestroy ed
A p
Ã ¨
Ġb ands
Ġb atter
ment al
ĠB arb
ĠIn fectious
Ġbother ing
Ġscholar s
us al
et he
Ġent ers
Ġpass ive
Ġhydro ly
Ġassemb ly
Ġiod ine
0 7
Ġdis rupt
but erol
Ġcomb inations
Ġbu y
ĠHy derabad
or ina
ĠM o
Ġbond s
IF IC
ĠT y
Ġaddition ally
utic asone
G o
Ġfor te
ĠM ale
if en
Ġconsult ant
ĠLe w
Ġcandid ate
Ġtriglycer ide
Ġbuff er
P L
Ġd ried
Ġl ands
Ġsc ab
Ġ9 4
rox yl
Ġoste oarthritis
Ġinstit utions
ocl onal
ĠM agn
ĠP olit
ĠJ es
iat ry
Ġfiss ure
Ġl ub
Ġend ocard
in ence
ĠM ary
Ġbeg un
D I
l ated
ĠAr th
arc oma
Ġand rogen
Ġh s
Ġbe verages
ep it
Ġman ager
Ġparticip ate
ct s
ab ard
Ġv ocal
rop athy
Ġdef icient
Ġhem isp
Ġcre w
ĠPro f
ĠWith out
Ġneur otrans
Ġconsider ably
Ġa yurvedic
Ġhe l
ĠT w
ĠF oot
Ġstay ing
Ġket amine
Ġsuspic ious
ĠH orm
ĠS l
Ġco inc
ĠChrist mas
Ġnic ot
Ġeu ph
Ġadapt ive
link ed
Ġbene ath
Ġpen ile
Ġmand atory
Ġp ollen
Ġam in
ep ile
Ġsc arring
ĠCh ile
Ġ197 6
Ġnut s
ĠChatDoctor I
Ġconflic t
o qu
Ġn ost
ĠF re
Ġatt en
Ġindu cing
Ġfoss a
Ġs od
ly cemic
Ġun stable
Ġinc lusion
ĠOv ulation
it able
ĠB BC
ĠP ublic
ĠK en
unic ip
Ġear th
ou ch
Ġr if
Ġun ilateral
Ġaut omat
OS T
Ġstead y
er a
act ing
yp ically
Ġdiff usion
Ġed ition
Ġthin ning
Ġsecret ory
Ġd ates
ĠD rug
Ġpop ped
Ġchlor ide
ipro floxacin
m ph
ĠS il
Ġactiv ates
Ġ197 8
Ġfer mentation
Ġexhaust ed
ĠM it
Ġsome where
Ġpres crib
Ġcry pt
Ġadjust ment
Ġangi ogram
Ġpig ment
ĠSH E
S D
g rowth
Ġcon qu
Ġreport ing
Ġswe et
ĠAlex and
Ġphilos ophy
ĠGur abard
ĠGurabard hi
Ġw ine
osc ope
Ġlif etime
Ġcondom s
Ġimplic ated
Ġsy philis
ĠG ra
ang le
Ġacc ord
ĠAd minist
ĠDep ending
v ation
Ġret rospective
Ġresol ves
Ġ ros
ir ation
Ġ10 4
Ġhyper p
Ġcomb at
ĠCardi ac
j un
ct omy
Ġper m
Ġfl are
Ġauthor ity
ati ble
ĠM er
of ib
Chat Doctor
Ġcol ic
Ġpar athyroid
Ġfiance e
h ol
Ġsp orad
ĠAp art
Ġlimit ations
se y
omet er
Ġ8 6
Ġap pt
ĠPhysi otherapy
Ġprotr usion
ĠUnt il
c ould
Ġfl o
Ġbrain stem
ropri ate
ĠInt ra
ft en
Ġmitochond ria
Ġl amina
Ġse ll
Ġab rupt
ant a
ĠL ee
Ġtw itching
Ġem esis
Ġtra vell
Ġregard ed
Ġconc ussion
App ly
comb ination
ĠL ip
Ġwrit ers
Ġkn ock
Ġexclusive ly
Ġsp ong
ĠCol omb
rog ens
ĠAcet aminophen
Ġis ot
Ġnot icing
ĠK ar
Ġrel i
ial is
Ġcol orectal
ĠWe ight
K eep
W W
Ġf ur
ru ci
Ġanti hypertensive
Ġtox in
ilden afil
b ably
Ġf t
Ġperson ally
Ġreturn s
Ġtempor arily
S G
} {
Ġs en
ĠC B
Ġret ina
Ġvig orous
Ġh iat
Ġe ukary
Ġov um
Ġpenet ration
ĠInit ially
ocr atic
ĠS orry
Ġgo als
ok in
OU T
ask ar
Ġcop ies
he res
ĠH allow
ĠIg M
ospor in
Ġsett led
Ġth rew
ĠS on
Ġwe b
ur able
Ġwe ap
Ġshe ath
Ġgr andson
aw a
Ġ.. ...
Ġchi rop
is a
Ġta per
Ġvar ied
Ġvari ability
ĠWhe never
ĠGovern ment
ri p
oplasm ic
ĠAfghan istan
Ġcardiomy opathy
p ulmonary
im p
ĠM uscle
Ġsol uble
Ġdark er
Ġju ly
Ġpuls es
Ġre jection
Ġcar ies
Ġmod alities
ucle ar
!! !!
Ġmes enteric
Ġsurve illance
Ġtet anus
Ġsumm ary
an cer
il st
ĠRev iew
Ġnm r
Ġimpl ants
c ks
ati es
ĠS ol
ĠL ab
Ġve g
CV TS
ĠBLO OD
C on
Ġfor amen
ĠS L
ĠChild ren
ip ed
ĠNot es
Ġdysp nea
Ġvest ibular
b irth
he art
Ġl am
ĠB all
ĠP rol
Ġcl ue
Ġ196 9
bo oks
reed om
s u
Ġcon com
Ġad opt
Ġar ray
Ġtest es
ĠU pper
Ġclear s
on ts
ak y
occ ur
poly cystic
e es
Ġm ad
ang al
Ġpract ical
ĠUS A
ĠRep ort
Ġs ight
Ġw akes
Ġb ought
ĠR ome
ĠL ower
Ġpress ing
ĠH al
Ġsh ip
iver ing
Ġfix ation
ractor y
ĠI am
th an
and ruff
Ġpre eclampsia
Ġshe ll
ĠInd ividual
itud es
Ġbut ter
ĠL V
ĠO tt
Ġcomplex ity
Ġreflect s
Ġj une
Ġcl othing
Ġobs er
urg ery
ĠLI KE
Ġintox ication
et c
ĠA IDS
Ġapp le
ĠCONS ID
Ġsli pped
k ar
ĠA le
ĠâĢ Ķ
Ġmean while
Ġmut ant
Ġaccur ately
ĠChar l
ĠComm ittee
ĠBel g
Ġlub ric
ul ators
im et
Ġal opecia
Ġant acids
olog ous
Ġinter fer
Ġwork out
Ġpartic le
Ġval ves
neum onia
Ġencod ing
Ġcontrovers ial
ĠG yn
ron s
Ġgl auc
Ġfever s
Ġa while
re ting
om ial
ve y
ĠH ill
ĠA SA
ĠB esides
Ġwind ow
Ġhoriz ontal
l as
v ol
Ġ197 4
Ġantagon ist
Ġinv est
Ġ8 7
Ġleg is
Ġpant oprazole
Ġdegen erate
Ġbus y
ĠDep artment
Ġatheroscler osis
Ġan ch
Ġm cg
Ġt ylenol
Ġres erv
Ġpl ot
Ġ197 2
ĠComp any
ur nal
ur ches
Ġdisc ontinue
Ġopi oid
Ġc ous
Ġco ach
Ġt il
ĠG a
Ġem ission
Ġimpro per
Ġsun light
,, ,
Ġcontribut es
Ġvasc ulitis
Ġc v
Ġp ati
Ġf riction
ot hy
ĠT im
ĠB oston
se min
odont ist
Ġpron ounced
omyel itis
c or
it ors
Ġreg ain
M RI
k t
ĠL es
ial ysis
ĠSt and
Ġexamin ing
Ġhyper thyroidism
ĠAb er
cont aining
Ġequ ation
Ġparas ite
om orph
cell s
ĠImmun ol
c arb
Ġm h
Ġh b
ag g
Ġprevent ive
Ġprop ort
ĠHist or
Ġcorrel ate
Ġsurround ed
Ġstrict ly
ruci ating
Ġpain ing
Ġknow s
ĠJ ackson
Ġadhes ions
ameth asone
ĠW ednesday
ĠIsra el
ĠT ENS
pt ives
ff ic
Ġpe pper
Ġdisapp eared
Ġrepet itive
Ġmicrot ub
Ġsy mt
Ġerythe mat
o is
In ternal
Ġpop ping
Ġelse where
ĠBet a
Ġasc ending
Ġinsuff icient
Ġreflex es
Ġom eprazole
Ġsp end
men opausal
Ġsulf ate
is er
Ġy o
Ġor bital
olec ular
Ġcort isone
angal ore
h and
ĠS outhern
Ġthere after
Ġgran ules
sec ond
en ced
Ġpa id
Ġsed ation
ĠPhil adelphia
Ġduod en
iz ers
Ġfund amental
Ġsquee ze
or us
ad ow
ĠP ap
Ġsp ring
ĠALL ERG
diagn osed
ĠO TC
ĠAn al
Ġcreat es
Ġhar der
h t
s ub
ud es
Ġconcept s
Ġestim ates
G T
ĠT exas
ĠP LEASE
Ġhist amine
Ġmil es
Ġmigrain es
Ġprecurs or
or ie
Ġb iting
Ġl ute
ĠB L
let on
Ġthr ush
ĠEst radiol
Ġantioxid ant
p hen
Ġc ert
ĠC rit
Ġap ril
Ġaw areness
Ġvap ors
Ġquestionna ire
is ons
Ġmy th
ĠAn ge
Ġtrans formation
Ġbr isk
Ġexc ite
Ġinn erv
ĠNeu ros
Ġassum ing
Ġcontribut ing
Ġfed eral
ĠCamb ridge
Ġantico agul
v ular
Ġc oconut
an ing
ope pt
Ġpl asm
Ġ197 7
Ġpredict ive
ĠTe le
Ġfibro bl
ĠCalc ium
ĠM ad
Ġfe cal
ĠR a
Ġpers p
Ġcal amine
ĠMB BS
ed ema
Ġfamil iar
Ġquad rant
ter al
ĠG i
IN D
Ġdos ing
U se
w ill
Ġp ra
an ax
Ġdi oxide
Ġet i
otrop in
Ġfrag ment
Ġconj unct
Ġche ese
ĠClin ic
Ġlear ned
Ġdesc ending
Ġsubun its
Ġdecomp ression
ĠEcon omy
othor ax
ult y
ĠAs ian
amm ad
ococ ci
Ġsept um
b egin
ent ed
ĠW ater
b est
Ġbreath s
my el
Ġc ad
Ġsne eze
ex isting
ens or
ause a
Ġcompl iance
ator ies
Ġvul ner
Ġpall iative
Ġperce ived
m eric
ĠB R
ru b
Ġwould n
Ġtub erc
ĠT em
Ġr inse
Ġstudy ing
Ġhusband s
Ġport ions
ĠC ough
res istant
Ġble eds
Ġcet irizine
s ur
ĠF er
Ġspec ified
Ġindepend ently
P D
Ġc is
Ġr at
ĠP ed
art ments
Ġdry ness
Ġbronchodil ator
ĠRadi o
ĠH um
ol ving
vel and
Ġstat istics
Ġur inalysis
ĠAl zheimer
ĠAm oxicillin
Ġprog resses
Ġphosphat ase
Ġs ul
Ġsp oken
Ġinterest ing
S ome
Ġr ural
Ġhy ster
Ġemb arr
Ġmalign ancies
Ġmicrosc ope
ĠPROB LE
ĠCONSID ERATION
Ġ row
it ol
ar atus
Ġco vers
Ġred dish
Ġcong estive
H E
R ead
arg in
Ġdepend ence
Ġhemat ologist
erb ai
z er
Ġas ymmet
ĠB le
oc rin
ĠBi opsy
Ġpla ques
ellect ual
Ġbe er
Ġbi ology
Ġmoder ately
Ġview ed
Ġlack ing
ĠAct ually
Ġscrat ching
raum a
Ġautomat ically
b our
c ient
ul as
op ically
ĠB ah
Ġmar i
Ġhyper g
ĠMD MA
ĠBE EN
ĠB one
ĠO B
Ġ19 30
ak istan
int ed
Ġunivers al
Ġirre versible
S av
al o
Ġg iant
li ver
Ġmult if
Ġbur ping
Ġsequ encing
Ġnarrow s
f amily
s ymb
Ë ľ
ĠM M
Ġwas nt
Ġ9 2
ĠUn like
Ġret urning
Ġexc ruciating
Ġfro zen
Ġi e
Ġact ress
ly mp
et hyl
ĠC ertain
ĠS it
Ġsh ips
Ġret ard
Ġfall en
wh ite
Ġinstit ute
Ġmarg ins
ĠTherap ist
is ine
em inal
med icine
Ġfatig ued
Ġvaccin ated
og ether
ĠR isk
Ġ197 3
Ġrad ial
ia e
Ġsc oliosis
d ered
it in
Ġch amber
iz umab
Ġar ranged
gg ulu
Ġresid ents
Ġresid ues
Ġsc ope
Ġinh ab
Ġpsych osis
Ġvol tage
n am
Ġar ous
US T
Ġbuild ings
Ġsil ver
ĠHS G
w an
ut ation
ĠM em
Ġbo ys
Ġpa ren
gr oup
ĠPre vention
ĠS el
Ġnot es
Ġcom fort
Ġhas nt
ĠCong ress
Ġneurotrans mit
op os
Ġor bit
ĠD C
iss ue
Ġser ial
od ds
form ing
ĠPer iod
j e
Ġread just
orad o
ĠAppro ximately
Ġs uture
ati v
ĠL im
Ġcont ributed
Ġsw itched
Ġent ity
min imal
Ġloss es
ĠTur k
1 10
ĠO ften
Ġfl ora
sy n
ĠIN F
Ġoxid ation
ĠMR SA
u z
Ġm ol
com I
Ġcos metic
ĠIF N
Ġclus ters
ĠH ERD
Ġdist inction
Ġx rays
Ġorgan izations
Ġstro kes
en ess
Ġm RNA
Ġcontrace ptives
umb er
Ġconst ipated
ush an
CH APTER
Ġarg ued
ĠTe chn
N P
Ġad juvant
ĠL os
ĠO l
tes y
Ġphot o
t imes
om ach
ĠĠĠĠ ĠĠĠ
Ġvict im
effect ive
Ġcitiz ens
Ġc ourses
Ġb ases
ĠP TH
Ġunder t
ĠJ r
Ġelect ronic
ĠCub a
ĠResp ected
RIN G
Ġcholecyst ectomy
Ġhyp o
Ġpreval ent
Ġnost ril
d iff
Ġb es
Ġme mor
oun ting
Ġdo or
Ġper me
ĠJ ul
ick ed
Ġvar icocele
Ġvirt ually
Ġantagon ists
Ġis o
Ġ10 5
Ġ9 3
Ġoff ers
Ġenhance ment
Ġmicrob ial
F A
M E
t obacco
Ġfor th
ĠB ACK
Ġinit iate
Ġelim inated
Ġin qu
Ġbre ad
ĠT REAT
Ġi ps
ĠE t
Ġhist ologic
Ġrest ored
ĠMex ico
ĠPac ific
ch ron
ĠYEAR S
Ġbasket ball
ir ium
ĠSt op
Ġfac ilities
Ġ197 1
I ts
S ee
Ġantib acterial
Ġmult ic
Ġchromos omal
dim ensional
u ity
Ġwill ing
Ġcomprom ised
Sav askar
ĠT ram
Ġup s
av a
int on
clin ical
ot he
ĠTh rough
Ġpar ad
Ġimmun odef
Ġty rosine
Ġasc ites
Ġboil ed
Ġpick ed
Ġfain ting
Ġâī ¥
d ing
Ġprocess ed
Ġess entially
Ġmes h
Ġdecl ared
Ġencephal itis
ĠS eries
Ġassist ed
Ġer u
rox en
ĠAz erbai
Ġmr na
ĠTherap y
n at
Ġs om
ĠT EST
ĠH g
Ġch ron
Ġper t
lect omy
ĠSh ark
Ġfac et
Ġcapt ure
ĠVir gin
Ġm as
ĠB on
Ġgangl ia
Ġadip ose
ORM AL
os h
ul ose
Ġas certain
ĠL apar
Ġmon onucle
Ġte aching
Ġconsist ed
Ġple asure
Ġrelig ion
Ġunc ons
Ġsubun it
Ġrul ing
st on
Ġpart ly
Ġwrit er
Ġepid idym
ib er
ĠL isinopril
ok er
Ġph ases
Ġfer ritin
P ain
Ġd ual
Ġd edic
Ġj e
olit es
Ġin app
ad ays
alu ation
ĠPr inc
ĠDise ases
Ġextrem ity
Ġmari juana
ĠC ast
th ird
il ty
ĠAb normal
t w
Ġt ables
Ġpre natal
ran ch
Ġfav our
Ġabund ant
Ġail ments
ĠEmerg ency
et ts
ĠM uc
Ġexp ressing
Ġimmun ocomp
Ġten nis
Ġpoll ution
Ġviscer al
Ġannoy ing
= =
P ro
ĠP ediatric
Ġle ague
ib l
Ġassoci ations
Ġconf ined
Ġcall s
Ġisol ation
chol ine
ĠEth inyl
al c
ĠF ree
Ġprov ider
Ġincorpor ated
ĠAlf red
pept ide
Ġw ks
Ġb in
ĠD rugs
Ġcons ensus
Ġpres erved
ĠX ray
ĠCom b
Ġrefer ral
ĠCle veland
Ġdram atic
Ġk h
Ġass ays
Ġpost ures
Ġflex ion
Ġmat ters
Ġbrief ly
Ġembarr ass
il ia
Ġpro jection
ĠTh ose
Ġadv ances
Ġfold s
Ġdox y
Ġe jection
Ġman eu
ĠAn at
E K
Ġth i
Ġde eper
Ġbl unt
ĠIg E
y stem
et a
Ġch arged
Ġcl ock
ĠAb dominal
Ġsac ral
ĠAddition ally
f ood
ol am
Ġeng aged
rosp iren
rospiren one
he w
ĠS ar
Ġex clusion
ĠG lob
cept ors
Ġprob e
Ġp ocket
ĠS aint
ill aries
reat inine
ĠL C
In du
ĠPl us
Ġbelie f
Ġthous ands
Under standing
ĠS qu
Ġun e
Ġun ion
Ġj og
Ġmin i
reg ulation
Ġlact ose
Ġpromot es
Ġendocrin ologist
Ġglauc oma
Ġpati ence
ĠShark a
ĠA rist
ĠL M
ĠN eg
ĠCh ol
Ġequ ilibrium
Ġammon ia
c onsult
e ch
os yn
Ġevalu ating
Ġcirc les
ĠDe ath
Ġ196 8
Ġabscess es
ĠMON TH
Ġlongitud inal
U C
Ġfl oss
ber ry
Ġsurv iv
Ġdri p
ĠObstetric ians
Ġcontamin ated
at oma
Ġh oles
ĠT or
ex ual
ĠL ung
ĠL ately
Ġrel atives
ĠDi ffe
Ġrespond ed
Ġparan oid
Ġe f
ĠD ig
ĠB an
Ġimprove ments
Ġeff iciency
Ġla ugh
c d
ĠH DL
Ġpain ting
IC E
sh aped
EC IFIC
Ġeduc ational
S e
g astro
Ġyour s
t ub
ĠC hen
ĠS R
Ġad m
Ġfl ank
Ġassess ing
sem ination
ĠOrthop aedic
ad ian
ric a
Ġappropri ately
Ġcomprom ise
Ġexcite ment
Ġc am
Ġconc urrent
Ġmarked ly
ĠHb A
ĠGynecologist s
ill us
ĠCol orado
ĠTrans port
Ġthreat ening
Ġtram adol
Ġb id
ur ic
ati al
Ġ2 25
Ġobs essive
Ġglomer ular
an ic
ĠS ocial
Ġreg ime
pl astic
man y
ĠEx amples
ĠHospital s
ĠHyd ro
Ġs oc
Ġconnection s
Ġh arb
ĠP S
Ġev ac
Ġ19 40
Ġro se
Ġdrain ing
Ġcop d
Ġdog s
Ġiclin q
stud ies
ĠCONSIDERATION SP
Ġeru ption
he rent
Ġab er
ph one
ral ine
vious ly
Ġglucocortic oids
f oot
or ient
Ġc amer
Ġb ent
Ġm um
ĠP y
Ġ19 20
Ġgen omic
ild ing
ER S
Ġhemorrh agic
Ġisol ates
cort isone
ĠCONSIDERATIONSP ART
ĠF etal
ne al
Ġen erg
Ġappro val
ĠRec ent
ĠNeu ro
Ġlob es
] {
Ġd ex
Ġres usc
Ġrest ore
cl av
Ġdys ph
Ġhyd r
Ġmist aking
Ġparenchym al
Ġallevi ate
on om
ĠS and
Ġocc ult
ams b
angl adesh
Ġarri ved
Ġeuph oric
b el
Ġg ently
Ġar c
osp asm
ĠCon n
het ics
ĠBh ushan
f ish
od ox
op ing
Ġr s
Ġpast e
Ġtail bone
ĠPos sibility
ĠOrgan ization
re ams
Ġl t
Ġgen otype
Ġcy an
Ġpe el
Ġbr ach
ret in
was ys
ers on
Ġev olved
up g
Ġchrom at
f onts
Ġpro gen
Ġch ocol
Ġcr ust
ĠGu ggulu
ĠStud y
Ġs izes
ĠB il
rs fs
Ġfac ed
ams math
ams symb
ams fonts
math rsfs
idem argin
odds idemargin
amsb sy
wasys ym
upg reek
Ġw ax
Ġapp aratus
IT Y
Ġcandid ates
document class
Ġrheumat ologist
Ġagon ists
Ġendocard itis
oc in
ĠMc G
Ġl ing
ĠEx ercise
Ġh orn
ĠC irc
ĠE F
if ier
Ġpo et
Ġrest oration
The y
Ġmax imal
Ġic ing
Ġweigh s
S S
Ġw arts
ĠE sc
Ġov ulating
ĠPro per
Ġorder s
Ġspread s
Ġblur red
Ġmont elukast
Ġre ality
20 15
set length
Ġpri v
}{ -
m other
Ġst ories
ĠP RE
ep ing
ak h
ram s
Ġneu rofib
Ġactive ly
Ġball s
itone um
ĠEvery thing
% ).
ĠD VT
Ġpres ently
heum atic
ĠC ry
ĠO D
Ġdesign ated
ect in
Ġ8 9
Sh ould
Ġcl oth
cy cl
Ġocc ipital
Ġ12 8
Ġsmok ers
Ġtransl ated
Ġpalp itation
sem inal
l ong
ĠL ove
Ġassoci ates
AM P
ĠNever theless
] .
Ġt an
Ġn arr
Ġcon vers
ĠN avy
ĠJ on
Ġsec rete
M D
os itis
ay al
Ġpr ime
Ġsyn ov
resp ons
ĠGree ce
Ġb act
ot ing
Ġg ang
ĠGastroenter ologist
R H
Ġb is
ĠP it
Ġaccident ally
Ġscient ifically
P R
Ġex ceed
ess ation
Ġmon oclonal
Ġfl ag
Ġhome opathy
Ġvol umes
ĠHE AL
Ġtons ill
Ġlymphaden opathy
ĠDN B
ĠI de
Ġconc rete
ĠOp in
ar ial
Ġ( âĢľ
Ġref ractory
Ġprov ince
Ġprof ound
Ġheavy weight
Ġlumb osacral
ĠWhe ther
Ġbund le
Ġovere x
Ġmediat ors
Ġqu iet
ĠL ess
Ġres erve
Ġpart ies
20 16
bl ock
Ġhypox ia
e y
ĠD ys
Ġt ors
ĠB us
ak ers
Ġdes cent
Ġpar ac
Ġson ogram
ĠPro v
ocon azole
ĠLib rary
ĠScott ish
ĠI d
Ġfil aments
Ġplant ar
Ġl id
and ibular
ĠTh an
Ġcare Dr
Ġcut s
ĠFl u
Ġs ke
ĠA j
ĠC ross
ill es
Ġfe as
Ġcl itor
Ġold est
AL LY
chn ar
vas oconstriction
Ġingred ients
u zz
Ġpro jects
ĠD rospirenone
Ġliter ally
ĠEve care
l ers
ig mentation
ab led
ĠK han
Ġbr ady
Ġbi ke
Ġanat omical
re active
Ġpain t
ak a
ob s
Ġend emic
Ġexpl ore
h g
ĠB ag
ĠP ub
ĠV an
Ġmeth otrexate
Ġrepresent ing
Ġut il
ĠASA P
Ġs ending
ĠC V
ĠIn flamm
Ġtre ad
Ġdeb ris
Ġunderw ear
ĠKan chnar
Ġmosquit o
t hesis
et t
Ġdisc rim
Ġhead s
uris y
ag land
Ġrem ote
Ġconf ident
ĠEnd ocrin
Ġign ored
hex idine
el ve
Ġse ctor
Ġemerg ed
F e
b b
l ower
p in
Ġ _
ol ipid
ĠB eng
ĠL ord
cy t
Ġprophyl actic
Ġadv iced
Ġneural gia
Ġaer obic
lamyd ia
Ġconcom itant
Ġlo osing
ĠOx ford
epit helial
O nce
ĠE c
ec ond
Ġsust ain
ar ant
Ġg olf
Ġvis c
ĠAr ora
ĠEx cess
Ġdemonst rates
ĠSu ggest
l ined
Ġw il
Ġrec essive
ĠSec ret
Ġc eliac
Ġper it
ĠN AS
Ġout patient
ĠCom pl
Ġdys plasia
eal and
Ġupd ate
B I
Ġimmun otherapy
Ġâ ĪĴ
Ġcapt ured
Ġorient ation
ĠLanc et
T A
Ġv oid
Ġres ident
ĠON E
- (
k indly
Ġs i
Ġs ar
Ġb att
ot ides
ol ateral
ĠC ervical
Ġu bi
Ġexc ised
Ġpal ms
Ġhold s
Ġorg asm
Ġbutt ock
Ġcarri ers
rom al
Ġment ally
ot ri
ĠS UR
Ġal gebra
Ġsh ivering
Ġimp lications
ĠTH ANK
Ġinflu ences
Ġsarc oma
Ġsymm et
Ġsyn th
Ġlymph ocyte
Ġaut om
Ġgu ard
Ġad ren
ign ant
ĠAl most
Ġart ists
Ġophthalm ologist
Ġsporad ic
ur ine
ph i
fer ase
ĠBe en
Ġodd s
b ility
ok ines
ĠOr ig
ĠChristian ity
nut rition
Ġd ying
ĠH R
Ġst ores
ĠS leep
ĠD S
Ġtrans p
Ġte ach
Ġsupp lies
ik a
ĠDep ression
ĠUr inary
ymp athetic
g ment
Î ³
Ġc row
Ġr ush
angu age
H ere
r ants
ĠD ub
Ġser t
Ġdri ven
ĠNeu rology
Ġax ons
Ġdispl acement
ĠTre aties
Y N
on ian
ĠA ud
ork ers
Ġcolon y
Ġcod es
en ch
Ġover w
rodu ced
ĠPl ate
Ġelectro cardi
bum in
Ġleuk ocytes
N ote
b ec
Ġinter face
ĠTH ERE
stru al
azep ine
Ġconvin ced
Ġc p
Ġg rey
im b
Ġinf est
ie val
Ġimple mented
Ġlaun ched
un ning
Ġcont racted
Ġsmell s
ĠComp uter
Ġalle le
Ġureth ral
ĠTIM E
Ġpath ogenic
Ġaggrav ated
Ġnail s
) ?
Ġrem od
Ġhem olytic
Ġmal formation
Ġdom estic
' .
ĠC r
ĠP V
ren ds
ĠY ear
Ġ) ,
Ġpost ural
Ġsens or
ĠCl aud
Ġeng age
pir in
Ġvas odil
Ġconstruct ed
Us ually
Ġw art
Ġat om
Ġle aking
Ġcav ities
ĠRep rod
cephal us
D i
Ġt l
ail s
Ġthin ner
Ġrespond s
Ġsold iers
T ER
Ġm i
ĠT om
arm a
com mon
requ ency
Ġrepresent ative
ĠMe chan
asse mia
Ġf riday
Ġhe ating
ul pt
im a
ch ain
ĠF olic
Ġrep aired
Ġactiv ating
ĠAN TI
Ġinteg r
Reg arding
Ġdivers ity
Ġtra pped
Ġdiure tic
Ġan emic
ĠCon stit
Ġadapt ation
Ġoutbre ak
re pt
Ġb outs
ĠA x
ĠE L
Ġlab s
inflamm ation
Ġemot ions
Ġcarbohyd rate
ĠJes us
Ġcont emporary
Ġant is
ĠJ ud
Ġel abor
Ġirrit ating
het amine
Ġprogramm ing
ĠNE ED
B V
D NA
Ġan throp
ib ly
ne w
Ġpa ediatrician
Ġana er
Ġp g
ad d
Ġrem emb
Ġbow els
Ġaz ithromycin
ĠAtlant ic
rave en
Ġuncons cious
h rs
y les
ft al
ĠH or
Ġv ote
ĠP O
Ġso il
). ,
ĠU l
Ġsal ts
Ġmal formations
Ġcon cer
Ġk il
ry s
te en
Ġvers ions
Ġoccup ational
' ,
w all
Ġw ww
Ġg li
ĠC ond
Ġdis ruption
Ġj apan
Ġdetect ing
Ġpc os
ĠMus ic
Ġdisplay ed
u ction
Ġte acher
Ġpill ows
wh o
Ġmetab olites
ĠCy cl
Ġunnecess ary
Ġh ate
et hing
ĠF ried
if ul
Ġmon day
app ing
Ġsatisf actory
Ġbiops ies
at ology
Ġc essation
Ġb if
Ġcl ick
Ġirrit ability
Ġrepresent ation
Ġsed im
Ġinstit ution
w he
ĠF DA
Ġbi as
Ġcur ves
Ġaneurys ms
Ġsucceed ed
m es
am ox
ĠM ain
Ġad ul
ĠBudd ha
Ġregen eration
on so
Ġne p
ĠF ound
Ġ19 45
ang es
Ġaut ism
Ġnod al
Ġang iotensin
Ġcap illaries
ĠTub erculosis
Ġthe res
Ġl amin
ĠL in
Ġmorning s
Ġir rig
ĠAdv il
Ġfibroid s
Ġy og
op roteins
umb ar
ccess ful
Ġadapt ed
ĠOcc asionally
O K
is ition
est ival
ĠP op
Ġhypot hes
Ġwors ened
Ġorthoped ician
Ġman ual
omet asone
Ġtre es
IC H
p res
ĠM r
Ġadv ent
Ġsat uration
Ġla id
Ġinteg rated
Ġd s
Ġg rap
ul ence
ut ing
ore xia
Ġad j
ĠR ock
ĠN eph
ĠO UT
av ail
Ġend ing
opl asia
Ġmir ror
ĠCell s
Ġlith ium
Ġmetall ic
Ġduoden um
G ive
P E
Ġa qu
Ġc ogn
um ors
ĠF lor
Ġbl ast
ĠL arge
Ġnew sp
onal d
Ġdeterm ination
ĠPC P
Ġwors ens
Ġb inary
om otor
rodu ction
Ġce ment
Ġthe ories
ct urnal
th ood
ĠD an
TI S
Ġappoint ed
Ġaud itory
aed ician
ĠQU ERY
h us
u pper
os us
Ġinc omp
Ġcy to
Ġindic ator
Ġprof iles
Ġneutroph il
Ġm unicip
ĠA k
Ġ( >
Ġcomp oser
Ġtw ins
Ġdes per
Ġpress ed
Ġwar ning
n ormally
Ġthe cal
Ġd oppler
Ġv ic
ĠN ut
ĠO bs
Ġstim ulating
Ġecon om
Ġaug ust
Ġexcret ed
ĠInv estig
T ill
Ġtub ule
Ġname ly
Ġ196 6
Ġcollect ing
ĠEdu cation
at tered
ĠS up
Ġta ught
ĠF emale
Ġsec urity
Ġhem angi
Ġbur s
Ġquant ities
Ġeth ics
Ġdep ress
Ġhi pp
Ġincub ated
Ġst ere
ĠD CH
ĠV as
Ġep ig
Ġarg ument
$ $
ĠC ape
ĠB Y
ast hen
ĠJ ac
Ġdep o
Ġwant ing
Ġdaughter s
ĠAnt on
Ġhum id
" ),
O ne
r one
Ġpro of
ĠAn cient
Ġprotein uria
Ġpromot ing
ĠIC U
Ġclom id
Ġcontraind icated
Ġab and
Ġdr s
Ġimmun ization
Ġreview s
ĠPro blem
Ġproduct ive
Ġana est
ĠMu h
Ġd andruff
ot a
ĠF A
ĠN ob
OR T
Ġperson nel
Ġste el
Ġcu isine
Ġrear range
Ġleaders hip
ĠU P
Ġur g
li x
Ġchrom atin
ĠCar ol
Ġfeature d
Ġimm ig
Ġaim ed
Ġnipp les
P ar
b ling
m o
n ac
o cele
ĠP s
ĠAb d
Ġsepar ately
Ġcompet ition
ĠBulgar ia
Ġg f
op eration
ĠC OU
ĠF all
ĠO lymp
ĠAm az
Ġblock ade
ĠIN R
EC TION
s ong
Ġg amma
ay ani
ĠP raveen
Ġterm ination
Ġstick y
A cc
P aed
he ck
er ated
od ia
ĠE ur
ĠN ight
Ġcomp ressed
oph aryngeal
Ġhit ting
Ġprofession als
th y
ort ed
Ġinter rupt
Ġimportant ly
Ġ13 5
iren a
Ġneuropath ic
Ġintell igence
m ot
um s
ĠM P
Ġac upuncture
act s
Ġsm elling
ĠAng lic
rocy te
Ġmultivitamin s
it ance
ĠH om
Ġare n
ĠN et
ĠFor ces
ĠArth ur
C ER
h p
all erg
Ġmed ically
Ġprob iotics
Ġphysi o
Ġanaly ze
ĠSem en
ĠH and
ost al
Ġop ine
ĠPar liament
Ġ196 4
cal c
Ġtarget ing
itz er
I g
t wo
ore g
so f
ĠR om
Ġpre f
Ġsc abies
Ġform at
ĠAt ari
Ġnet works
inv asive
Ġshr ink
ophys iology
ĠE N
Ġdeterior ation
B A
f lex
s im
oc ular
Ġgen etically
pl an
ĠAr m
Ġviol ent
Ġmount ain
Ġatmosp here
Ġh oc
Ġj elly
Ġtransport ed
ĠC auses
Ġat omic
Ġar s
Ġfl uticasone
Ġov ulate
Ġel ong
ĠBC E
Ġmaster b
Ġinterfer on
id den
ĠP resent
Ġcont ribution
ob lastic
Ġexam s
Ġlab our
ograph ical
a id
in ol
ell ar
ra h
ear ly
Ġpoint ed
Ġ196 7
ĠColomb ia
c oun
on ad
er ts
ab el
der ing
25 0
ĠAug mentin
Ġfeb rile
ĠIlir i
s pec
ĠC ere
ĠO t
Ġvisual ized
ĠIntern et
ĠLo oking
alth ough
Ġris es
13 0
Ġimple mentation
Ġrecip ient
Ġabst inence
ant ic
ĠO ste
ific ant
ĠFirst ly
Ġdeform ity
epile ptic
Ġo oz
Ġint ellectual
Ġfl av
Ġprog ressed
Ġmicro organ
Ġsurpr ising
P F
ĠF riend
per ayani
Ġdist rict
romb in
ĠMost ly
Ġuns u
Ġcomput ers
it ure
ĠL ake
Ġspecial ists
Ġtend ons
rane an
lipid emia
in atal
Ġg ard
ul ent
ig ma
op res
Ġch urches
ĠR ab
amin al
Ġ9 1
Ġov a
200 9
Ġneph ropathy
Ġcard inal
oneph rosis
in king
ol ization
Ġsh ake
Ġcle ans
Ġdel irium
Ġpred ic
Ġfit ness
Ġscrot al
Ġincub ation
Ġcarp al
Ġmanufacture r
w a
Ġca ution
Ġdo ll
ĠN ations
Ġref lected
Ġtra ction
ĠIm port
Ġsusp ension
Ġopp osition
Ġmax illary
Ġconstit u
U I
Ã §
ĠR ad
ran olol
sib ly
Ġther mal
ĠColumb us
ol is
Ġesc ape
ĠC ulture
Ġal ert
ĠM I
Ġch ond
act am
Ġstabil ize
Ġw ire
ĠF O
AT H
Ġaw ful
h u
s ure
ĠB ody
ann ed
Ġimmunosupp ressive
ĠG al
ans as
ician s
Ġ14 5
Ġmen iscus
ĠFE EL
P l
ch i
ons et
10 1
rogen ase
ĠBr unicardi
ĠComm ission
Ġtooth ache
ĠAr k
ĠZ ealand
ĠDi ff
ĠMor ning
aphyl ococcus
Ġw bc
am ond
ĠB ible
ĠTh ird
Ġdu pl
sequ ently
ĠCM V
Ġsong s
Ġdefe ated
raum atic
ĠG ran
Ġmov ie
Ġnurs es
S p
y t
Ġw ra
Ġvent ral
Ġ196 5
A CH
Ġsc rap
ĠNew s
Ġconstit ute
Ġsymb ol
ou x
et erm
Ġr am
ment ing
Ġde ploy
Ġhyd roph
OL L
Ġpredict ion
ĠHEAL TH
Ġw anna
Ġcolon ies
ophil ia
ĠCy t
Ġfung i
ĠIndividual s
an ian
ĠM ag
Ġper ipher
ĠG reetings
Ġcal orie
Ġstrain ing
Ġbroad cast
Ġut i
Ġelucid ate
ĠDiv ision
Ġb oot
Ġe urop
ĠB ol
Ġeosin ophils
Ġhar mon
rain e
Ġfluores cence
Ġaccompl ished
ĠE cho
Ġtechn ologies
Ġadvant ages
Ġmedull a
Ġchalleng ing
Ġm erc
us cript
ter y
Ġdis semin
Ġper mit
ĠL u
Ġbo ils
Ġpub lication
TH ING
Ġmus ical
ĠS ildenafil
ĠO LD
ak i
Ġser ving
ardi k
iter ranean
Ġdram atically
ĠC re
ĠC amer
ĠR ap
ĠK ai
Ġfl ashes
Ġpar kinson
Ġradi us
Ġeth anol
end azole
Ġcont amination
Ġtr is
Ġcor neal
Ġshift ed
Ġfun ny
l ar
n itus
Ġs ag
it ates
Ġh dl
ĠM L
ĠP ass
ian g
Ġpromot er
activ ation
Ġhe x
od erm
Ġal ignment
ap y
Ġsens it
Ġcomm ission
Ġauthor ities
Ġattribut able
Ġimmunodef iciency
Ġquant um
Ġdistinct ive
Ġdelet ion
d ec
in stein
ct ic
Ġcomp osite
Ġdef ective
app ear
ophil ic
Ġtravel ing
ĠBet ween
Ġstr and
ĠTank Infectious
ĠC ort
ĠS ection
ĠG iven
Ġover load
Ġanalges ia
Ġm erg
ar on
ĠH aw
Ġsp oon
Ġper cutaneous
Ġexp ector
Ġatt ended
ĠCom ing
Ġbreak down
Ġstre et
press ure
Ġemot ion
ĠMil itary
Ġholid ay
Ġb ull
Ġf itted
ĠS k
ĠP rotein
Ġpr ison
Ġmod est
Ġsubstant ially
Ġantipsych otic
Ġurg ently
N OW
Ġcon ven
oc amp
Ġir radi
ĠHealth y
bor ne
N othing
S C
v est
Ġover t
Ġlocal ization
Ġrefer ring
Ġrecomb inant
ĠG DP
Ġj an
ĠSt at
ĠNe ur
Ġmyel oma
rows iness
ĠOtt oman
ĠGyn aec
Ġdedic ated
? )
Ġf les
Ġcon vert
ist ance
ĠM IL
Ġsh op
ĠL and
na i
Ġbub ble
h ouse
ing er
ĠS perm
Ġdi aper
ip ar
ĠSt age
ON G
Ġdemonst rating
ĠMoh ammed
Ġre ly
ut her
Ġ. -
Ġsc ulpt
ps on
Ġcor n
ores is
Ġsix th
ĠAD D
Ġf uel
Ġd ream
Ġl anding
ri k
ĠF actor
Ġday time
Ġshe s
Ġpow ers
OU ND
ĠHA V
Ġspondyl itis
Ġc ub
ur us
Ġst ap
Ġal buterol
ĠBen adryl
Ġth irst
Ġpro xim
ues e
IC AL
Ġcyc lic
semb ly
Ġerythe ma
Ġlibr ary
Ġsymt oms
e books
Ġa ids
Ġca ut
mon ds
Ġlip oprotein
Ġcarcin omas
Ġrati os
Ġclinician s
ebooks medicine
H A
Ġf ab
ĠT on
Ġclear ing
Ġmot if
ochem istry
Ġdoxy cycline
Ã ¤
ĠT NF
op les
ĠJ A
ail ure
Ġpur ified
Ġmill ions
Ġamyl oid
v itamin
Ġr ide
ĠB ak
Ġbl ades
ĠN K
Ġiss ued
Ġcult ured
ĠMet formin
ĠPr ime
Ġepile ptic
Ġcryst all
arbon ate
Ġcytos ol
Ġc ath
ĠL ittle
Ġcl oud
Ġbr ings
Ġbrown ish
isp asm
Ġdem ographic
Ġrecip ients
o emb
Ġd ance
OU S
Ġstr atif
Ġvict ory
Ġconfig uration
Ġcous in
Ġoverw hel
un c
av en
Ġmet als
Ġdig est
Ġtext ure
Ġtrigg ering
Ġdecongest ants
Ġtread mill
ĠS enior
Ġv iable
oc ent
ĠL A
Ġtru ly
p ost
w er
ĠG n
Ġmin oxidil
Ġexper ts
avir us
Ġjournal ist
Ġcorp us
ĠTram adol
le u
Ġn ore
ĠT W
Ġapp lic
Ġimp uls
Ġval vular
Ġ196 2
ĠEd ward
odg kin
ĠDiffe rent
Ġth al
ul ative
Ġviol ence
ĠDisc uss
A c
ĠR od
Ġocc asion
Ġsupp lied
Ġmention ing
Ġhemat uria
Ġchallen ges
atre mia
Ġintegr ity
R e
ad er
20 17
Ġlaw yer
Ġspl enic
Ġpol ice
Ġplat form
y an
ol gi
ĠB angladesh
ox ys
Ġdent ure
Ġcirc uit
ĠWH EN
ĠMc C
Ġhistor ian
Ġpalp able
Ġhon est
ĠLew is
Ġpersp ective
en ia
Ġf ile
ul ature
Ġen able
ps in
igen ous
Ġletharg ic
ĠScot land
ĠA al
out heast
ĠY ears
Ġbreath less
met hyl
Ġparas itic
li que
Ġret rie
ĠAct iv
Ġinterpret ed
. ).
e lect
in ance
Ġb irds
ĠN erve
omm od
Ġpartic ipation
Ġhydro chlor
Ġscient ists
ĠAtlant a
" ).
h ard
ĠS ame
Ġle ct
ĠN A
ĠHi Welcome
Ġorthop aedician
Ġdehyd rogenase
Ġsust aining
l amic
oc rit
ak ia
Ġdisc over
Ġinst ruct
Ġdeple tion
ar se
ar ry
ig an
ĠD er
Ġmod ality
opl ast
Ġsequ el
Ġveget arian
ĠHypert ension
o ir
w ish
ul se
ĠB road
Ġdecl ined
Ġsubt ypes
Ġtradition ally
O r
Ġt at
Ġbe e
ĠP ope
Ġar rows
uc l
Ġcle ft
ere mia
Ġce iling
Ġendot helium
Ġuni verse
Ġcod ing
ĠWE EK
ĠWil son
ĠFore ign
h s
ĠI ran
Ġab ol
ĠE le
lic k
Ġconstit ution
Ġging ival
Ġker atin
a ise
Ġn av
Ġal k
Ġun exp
ĠCh ampions
ĠPh armac
vent h
ĠCare Dr
Ġbiom ark
ozyg ous
Ġb m
ut aneous
Ġsp ite
Ġcomple ting
com mun
of acial
be an
Ġopt ical
ĠEx amination
da ughter
Ġthous and
i q
Ġhe ro
ĠG OT
Ġsimple x
Ġminor ity
Ġcerebell um
ĠAut o
Ġsummar ized
ill y
Ġad vert
Ġcol lective
Ġsim ulation
Ġcalc uli
opath ies
Ġlist en
Ġsed ative
Ġtext s
Ġol ive
SP ECIFIC
Ġstrugg le
Ġo w
Ġre jected
ĠW at
ĠR uth
ĠG H
Ġsperm at
Ġdisturb ing
Ġdetect able
Ġoverl ap
L U
it o
ay e
ver ted
Ġby e
ĠR arely
Ġbl ank
ĠHi T
Ġshe d
Ġconfirm ing
ĠZ inc
Ġextensive ly
Ġconj unction
am ation
Ġexpl ains
ĠLym e
C a
I ON
u its
Ġan om
Ġam erican
hy per
Ġass ault
AT ED
Ġple urisy
Ġs now
Ġc asp
Ġd ens
ĠD ani
ĠG R
du ct
Ġpr ice
Ġlim itation
Ġweigh ing
Ġfrust rated
ĠFat ty
Ġneoplasm s
Ġm c
pt in
Ġphenomen a
Ġcryst al
Ġacqu isition
Ġundert aken
Ġres c
ater ally
ach us
Ġsub tle
Ġcoun cil
ĠBe ing
Ġhemorrh oids
Ġprofess or
Ġprotocol s
ĠBle eding
ĠP le
Ġun ited
ag ger
arg ing
ras ion
Ġmult id
Ġap ex
200 8
Ġ| -
ĠTr ig
Acc ording
2 000
m id
z ant
Ġt ran
Ġmy c
ch y
ĠGen etic
que ous
Ġveh icles
Ġgar lic
r ish
ĠI ce
ig a
Ġob lig
opt ysis
Ġcigaret tes
ĠNat ural
pan ic
Ġt ert
Ġwhe el
ĠIn te
NA L
Ġ11 5
Ġkn uck
ĠSH OULD
f ather
ĠA ida
ad ium
Ġal ive
ĠD own
ĠB irth
der ived
Ġrel ate
bo o
Ġcommun icate
ĠPol ish
N e
ĠA v
Ġsp it
ĠDel hi
ĠDAY S
Ġas ap
Ġperiod ically
Ġfat s
ĠAust ria
Ġeth ical
Ġdim ensions
Do ct
Ġstent ing
gf r
Ġg els
Ġst ains
ub ation
Ġfil t
Ġacet ate
ĠPri or
Ġexec utive
Bl ood
Ġass ured
Ġhome opathic
ĠAt hens
Ġconclud e
Ġgrav ity
m ble
r t
ay ed
ĠS I
ĠM other
Ġsw itching
Ġresusc itation
M an
T ry
Ġc c
ĠS IN
Ġsub jective
Ġneg lect
Ġarch ae
Ġeros ion
Ap ollo
4 50
v ac
Ġw ipe
Ġo ils
Ġh osp
ĠB iol
U lt
j o
r ati
Ġ1 12
Ġcur v
Ġantihist amin
ĠPr ince
Ġt nf
ig uous
Ġper f
ĠE P
uc as
Ġloc us
Ġprog est
Ġtra ffic
gl uc
Ġperine al
Ġtors ion
k gs
Ġc asc
Ġresol ving
arach noid
Ġepidem i
ĠC ant
ĠN ORMAL
pl ace
Ġco il
ix ed
ĠSp e
Ġbil ious
ann el
ĠCyp rus
t est
ell es
Ġsh adow
ĠR IGHT
Ġsome how
Ġmon ocytes
Ġov al
ĠWH ICH
Ġstrugg ling
Ar un
ar us
ĠT el
ĠH am
rom ised
com as
Ġcalc ified
Ġing ested
Ġdisapp oint
ĠSag ar
Ġwh ilst
ab a
ĠR ES
ĠE V
ĠPl z
Ġn k
ĠH T
ol n
Ġdisc rete
Ġhem ogram
Ġfrequ encies
Ġoint ments
Ġexhib ited
Ġminim ally
ĠPri ze
Ġechocardi ogram
Ġinsp ired
Ġsedim entation
f en
i qu
ig er
ĠC ir
ian a
Ġdisc l
Ġoccup ied
odont ic
Ġbiot in
Ġadul thood
ĠSt ar
Ġplac ing
Ġb omb
Ġn ations
Ġacc ommod
Ġinhib iting
Ġconstit utional
Ġves icle
Ġflut tering
Ġvaric ose
Ġl ighter
ĠC ef
ost ics
gn ant
Ġrest less
Ġret ired
Ġcycl ing
Ġrevers ed
ot rophic
ol o
ex ofen
Ġsp atial
ĠL OW
Ġsc ene
ĠÎ ³
ĠTHE Y
Ġax ial
Ġann ually
Ġdirection s
b ase
ĠA BC
Ġsu cc
ĠG ram
ĠV iet
ĠSp ir
Ġbring ing
Ġvomit ting
Ġgranul oma
sens itive
chang ed
ĠAlexand ria
U G
Ġl or
ain ts
ĠR aj
Ġthor ac
Ġdem ands
Ġpurch ased
Ġinapp ropriate
ur on
Ġrem n
ras h
Ġed ges
Ġclot rimazole
Ġinn ov
Ġleuk ocyte
ĠCro hn
ĠBase ball
W H
Ġf reedom
st ring
el le
ĠB apt
Ġsp astic
Ġj anuary
Ġgen eric
ug ar
Ġulcer ation
uls ions
Ġexacerb ation
ancreat ic
ĠMill er
ĠTa her
D E
Ġaff erent
usp id
ĠAzerbai jan
Ġ !!
Ġp ipe
ĠAny thing
Ġcolon ic
cont rol
igm oid
t in
Ġw k
Ġg h
out ine
Ġinter vertebral
Ġsupplement ary
sm all
Ġban ana
Ġtheore m
w elcome
Ġb rom
Ġp unct
Ġl ingu
ac le
ol oft
ĠP akistan
ĠE M
ĠY oga
Ġint ens
16 0
Ġprost agland
Ġthick ened
Ġlig ands
Ġduod enal
Ġcow orkers
song writer
Ġd ur
ar ters
Ġn ond
ra x
Ġun well
ĠR heumat
ĠE C
Ġen amel
ĠAC E
Ġglyc ogen
Ġengine er
Ġsubstit ute
antib odies
in th
en ital
un te
ĠJ M
Ġorig ins
Ġrese mble
Ġtrig eminal
Ġpy el
Chat Doct
T hen
Ġn il
ot erol
Ġit em
Ġst ock
op ress
int he
ĠAb u
200 7
Ġverte b
ĠIg A
Ġterrit ories
Ġframe work
edd ed
sac char
Ġinfest ation
j amin
Ġbi ologic
C ont
Ġre absorption
ĠE MG
Ġbig gest
Ġple ura
AM E
ĠQu estion
Ġsquee zed
om ast
ĠM oon
em at
Ġcl indamycin
oh ist
Ġprov ision
Dr Arun
oin ts
200 6
ochond ritis
Ġhyperg lycemia
Ġs r
Ġh ank
Ġde cember
Ġcomp act
Ġman uscript
Ġnever theless
ĠBos nia
r ase
oft en
ect able
Ġat rium
Ġte ething
Ġdu phaston
Ġremain der
Ġsil ent
Ġdyn asty
Ġpseud o
hyse ma
ĠPROBLE M
c hen
ĠC YP
Ġdi p
Ġu v
ĠJ ean
ric s
Ġco oking
ĠV erma
ott am
Ġra ising
Ġdisapp ears
ĠChem ical
ĠAdminist ration
c old
i est
Ġst up
ut ical
il k
ĠM es
ĠE ch
âĢ ¦
Ġ25 5
Ġvom its
Ġver a
Ġsoci o
H S
in um
ist ically
ch a
ĠM ut
ĠP RES
Ġcont usion
ĠOr der
Ġbul k
Ġord inary
Ġmolar s
athyroid ism
__ __
ĠF ather
Ġcalc ulate
Ġrele asing
ĠMedic ines
ĠEnd omet
Ġpil ot
Ġaward ed
oi etic
F ollow
ic us
Ġg i
Ġon wards
ĠB ed
ĠL oss
ud ing
Ġelect roph
Ġsoon er
Ġpin ch
Ġarrange ment
exofen adine
ro ke
op ed
ĠB ac
oc ort
ĠO s
Ġmod ify
but amol
Ġax on
Ġletharg y
s ided
itis m
ok es
Ġinstit utional
Ġoffic ially
ĠPur ush
Ġhypoth alamus
on ce
Ġint ention
ull ary
ven ue
Ġlight ly
!! ~
Ġorth ostatic
Ġ196 1
Ġstri p
ĠD ar
Ġde myel
Ġcomp atible
Ġpe oples
Ġprov iders
the se
Ġlip ase
lim ited
Ġvac ation
Ġrecru itment
Ġan orexia
al gia
Ġal umin
ult an
oun der
der all
Ġsp ik
Ġper p
ok al
Ġfull ness
Ġcoeff icient
Ġvacu um
ic iently
ĠS OS
ch ild
ĠL am
Ġdef ec
AM A
ĠMon te
b ury
Ġw ore
Ġf ulf
an gh
ve t
ur red
Ġst ations
Ġpr in
Ġcontact s
inc oln
Ġ196 3
Ġcompar isons
Ġhydro cephalus
Ġelbow s
ĠCons ider
Ġparenchym a
ĠAnglic an
y y
ĠI v
ĠA ld
ab ling
Ġman aging
ĠJ ones
Ġte asp
Ġorth o
PC OS
Ġchirop ractor
m uscle
op rost
ĠC KD
ĠAl ask
ĠAr ound
Ġprom ising
Ġfil ter
icular ly
Ġsut ures
ĠPurush ottam
b t
ic ol
os arcoma
ĠB uff
Ġdep ri
Ġph aryngitis
com ing
ĠBr un
lev ated
? .
o ons
ic c
Ġre ign
et ary
Ġdiff ers
Ġhard ware
Ġinhib ited
Ġtin nitus
Ġillust rated
coun ter
b us
y line
Ġl ar
ĠC och
Ġmon arch
ĠAs pirin
requ ently
Ġcontinu ity
weight ed
ĠGe ography
ĠAir port
Ġprecise ly
Ġt ough
Ġa queous
Ġp iles
ish ment
Ġmat ched
Ġut ility
Ġelection s
Ġtrop ical
Ġhipp ocamp
Ġs ip
ĠW ood
ĠR os
Ġdiagn osing
ĠV i
Ġdeb ate
Ġsem inal
ĠPortug uese
Ġcamer a
B y
z o
os yl
Ġsp ider
ĠR EC
Ġemerg ing
Ġprop ag
Ġsurv ived
OS IS
lin ing
ris ome
Ġexpect ing
Ġdehyd rated
Ġgrand mother
Ġalle les
Ġamyl ase
ĠConf ed
Ġace clofenac
Ġf oci
Ġse eds
Ġwor n
Ġar bit
Ġgl ute
RE CT
Ġpotential s
Ġlax ity
ĠH on
Ġimp inge
Ġadv oc
Ġgr ass
ĠEm peror
Ġking dom
g ic
Ġs omat
ĠC ialis
ĠG uid
Ġinter f
olar ization
Ġtrust ing
Ġclim bing
e em
ch ronic
ĠP seud
Ġwhe eze
ran g
Ġsupp ressed
Ġhand ling
Ġhome ostasis
Ġadd ict
Ġdri ver
ĠMet ab
Ġglut en
a ved
re ceptor
Ġg ases
od erma
ast ing
ĠTh romb
Ġprob iotic
Ġaltern atives
Ġorthop aedic
Ġlymphn ode
R ec
ĠH o
Ġimp lies
Ġcav al
ĠSy rup
Ġantioxid ants
Ġsting ing
Ġubi quit
Ġa unt
Ġl as
Ġrout es
Ġwat ers
Ġrequ ested
Ġprednis olone
S econd
Ġd reams
Ġhe y
ĠS W
Ġr ings
Ġad mit
Ġ19 48
Ġfem ur
ĠBy zant
egen erative
ĠD ata
Ġv ow
ĠK a
Ġwor risome
Ġac know
Ġtr uth
Ġradi ologist
ĠR og
Ġac y
Ġfl uconazole
Ġexp and
Ġcle avage
Ġlocal izing
Ġswallow ed
Ġprep are
Ġrecru ited
gastro esophageal
Ġh d
ĠP hen
Ġcons olid
iss ions
Ġmor al
Ġcough s
Ġwalk ed
ĠMay be
Ġpin ching
ĠInfection s
Ġcomplement ary
chrom e
Ġh ub
ĠT al
Ġst romal
ĠM aternal
ĠK u
Ġpow dered
Ġil leg
ĠCount ry
Ġtor so
ĠDIS E
Ġsod a
ro le
Ġwe alth
mon ella
ise ase
ĠJ o
Ġresp iration
Ġdep icted
ĠIm pro
ĠLib eral
Ġcryst als
6 00
Ġt ied
at ine
Ġant ispasm
Ġslow er
Ġaccum ulated
Ġiv f
ĠAB OUT
Ġana emia
Ġencourag ed
Ġaccord ance
R ay
h ire
p inephrine
y ah
Ġd rowsiness
ĠT ra
ol t
el ong
ĠX XX
lish ing
ĠPh ilos
Ġach y
cob acter
ĠĠĠĠĠĠĠĠĠĠĠĠĠĠĠĠĠĠĠĠĠĠĠĠĠĠĠĠĠĠĠĠ ĠĠĠĠĠĠĠĠĠĠĠĠĠĠĠĠĠĠĠĠĠĠĠĠĠĠĠĠĠĠĠĠ
ĠAltern atively
L L
P re
ĠG FR
Ġtri es
be fore
Ġconsequ ently
ĠCor por
Ġmamm alian
ĠCard inal
G B
ati bility
Ġbl ed
Ġdifferent ly
Ġcal ories
of loxacin
Ġpneumonia e
Ġflex ible
f ungal
ĠF I
Ġyear ly
Ġeffect ed
Ġco z
Ġdraw ing
Ġmicrog raph
Ġp od
Ġth o
Ġmy ocl
Ġsa ved
ĠDi rect
Ġpap illary
ĠAntib iotic
Ġsquee zing
Ġhistopath ological
S ub
t reatment
Ġst ating
ĠB a
oc a
Ġim mature
ĠN it
ĠG GT
com ycin
icy lic
b as
g al
r m
Ġc ope
ĠM AY
ĠL upus
Ġob lique
Ġconst ell
Ġattempt ing
Ġspir itual
Ġcl osing
Ġproblem atic
Ġown ers
Ġbelie fs
CH O
Ġsatisf y
Ġhang ing
re al
Ġl dl
Ġpro ce
ogen etic
OS E
ĠBen jamin
Ġdecay ed
ĠQue en
Ġheterogene ous
as ant
art ed
ĠW arm
Ġ6 25
ĠOn c
Ġnegative ly
Ġexpl oration
Ġlab ia
Ġsche me
Ġmal nutrition
aps ing
ĠSw elling
Ġprescrib ing
a ic
l ut
Ġb ron
Ġe kg
Ġg er
Ġst aph
ol uble
il in
ĠB oe
ĠL incoln
Ġabdom in
ram ine
hyd roxy
Ġdiv isions
Ġart ist
Ġ194 4
Ġrestrict ions
Ġburs itis
Ġacy clovir
j ug
ĠC arbon
Ġta pe
ĠG il
Ġeye b
upt a
Ġadoles cence
Ġabut ment
Ġgonad otropin
Ġbenzodiazep ines
e very
s upp
on se
ĠF ield
Ġbl and
ffect ed
Ġhyper cal
Ġra ises
Ġcommun ic
Ġresid ue
ĠNeurologist Apollo
Ġdiscontin uation
Ġradiograph s
Ġcoc cy
Ġjog ging
Ġanom aly
Ġfor aminal
ĠM V
ĠN ature
Ġsc ary
Ġvar iance
Ġattack ed
Ġburn ed
Ġrespons ive
Ġvulner able
ĠPrinc ip
oxys mal
in os
Ġp eg
le ar
In c
ĠAc ne
Ġwid th
ĠAddition al
Ġhaz ard
il ic
ĠD uke
ĠP ras
Ġdi agon
rap ment
Ġwal ks
ĠPhil ipp
Ġsubm uc
Ġhc v
Ġunexp ected
l ie
Ġp ants
ĠC C
Ġr u
ĠM ang
ĠD am
ret ion
ĠEn vironment
Ġenh ancing
Ġdesc end
Ġremod eling
M aintain
Ġt amp
Ġs enior
Ġwin ning
Ġjunction s
Ġemph asis
on us
al us
ig ible
ĠS ens
ir able
ĠF ive
Ġro yal
Ġscrat ched
Ġcategor ized
Ġbes ide
m edical
at um
ab ul
ace ae
AL T
200 5
ethe less
ĠStand ard
l ines
ĠF ull
Ġgr amm
Ġsub jected
Ġform ulation
ĠAt hen
Ġdil uted
ĠAC TH
Ġcholecyst itis
al is
ac ia
Ġsu g
Ġpar k
Ġbu zz
Ġembry os
Ġretic ulum
Ġwhit ish
it ants
et ron
Ġso y
ph ase
Ġocc l
Ġfree ly
resp ective
Ġimplant ed
Ġparen teral
S u
n an
Ġt urb
en in
Ġpain full
Ġsp ind
ĠL ine
cy cle
Ġlow ered
Ġamb ulatory
ĠFrank lin
ĠFil m
k o
ĠAl ways
Ġsarc oidosis
Ġdisl ocation
health y
Ġb ishop
Ġam ph
ĠE ll
Ġgr ace
Ġgr anted
ĠIs lamic
Ġcrit ically
Ġtight ly
otyp ic
ĠCost a
al i
ĠR CT
ace utical
Ġtr ich
ester ase
AR D
Ġtravel s
Ġgraft s
Ġmethyl cobal
izz iness
Ġpresum ably
Ġmag azine
Ġmoistur izer
D M
Ġn ont
Ġsc ap
ĠJ im
Ġur gency
gen ic
reg ulated
Ġfore st
Ġparamet er
T hat
V EL
it age
ĠCo ast
Ġcrack ed
ĠOp en
Ġmotiv ation
T ab
ĠB A
Ġsp ac
ĠF ar
ĠL ight
rol imus
umb ai
upt ake
Ġscre ened
ĠGynec o
Ġdivertic ulitis
Ġfibrobl asts
Ġt rap
Ġs got
ĠK et
Ġhem olysis
ĠPro bably
Ġ195 8
Ġneut rop
g ov
Ġpro s
ive ly
Ġdis in
ĠF a
AR Y
hyd ration
SI ON
Ġpreced ing
Ġeukary otic
Ġp ace
Ġin effective
Ġhe lic
st ress
op oietic
ĠS ide
Ġta ct
if iable
Ġprote ase
Ġrev ision
ĠCons idering
ĠFoot ball
Ġmh z
he lp
Ġc ited
Ġinc on
Ġgen etics
ob ile
hed ral
Ġradi ographic
Ġelev ate
sc ale
ĠAss ociated
c ognitive
m el
un s
Ġk iss
ious ly
Ġhair line
Ġfluores cent
Ġremark able
Ġnicot ine
C are
L o
Ġt roph
Ġst ood
op ulmonary
ĠJ ack
ocy st
Ġcolon ial
ĠLabor atory
Ġtonsill itis
achus etts
p ox
er red
ĠA ccess
od ialysis
men strual
Ġmm hg
Ġstrain ed
Ġmax im
mar ried
Ġfilt ration
i osis
Ġth read
ĠS ix
ĠW ales
ĠL ith
ĠAd rian
ĠChar acter
Ġabut ting
ĠBronch itis
+ ,
P h
f actor
or f
Ġl c
am azepine
ĠS oft
ĠN ether
Ġ12 6
Ġrev olution
Ġmarg inal
Ġmamm ogram
ares is
idd iness
Ġc sf
al ine
Ġg au
Ġr heumatic
fe el
Ġend ovascular
ix ime
Ġbow l
Ġrele ases
Ġpopular ity
Ġgerm any
Ġmicrob es
Ġindirect ly
Ġcust om
Ġfo am
ĠA I
Ġcol ors
Ġben adryl
Ġsitu ated
Ġprior ity
Ġbatter y
c ure
Ġpre lim
arach i
Ġadhe rence
ĠServ ice
Ġanticoagul ant
Ġelectrocardi ogram
Ġcurv ature
C ol
Ġcon clusive
Ġsy ring
ne ed
ric ts
Ġgen omes
Ġperiod ont
Ġpass ages
Ġrespon sibility
Ġweak er
Ġstat ins
AS IC
ush boo
Ġsubst rates
Ġuns ure
Ġmist ake
riter ion
ĠClass ical
t op
ĠH ard
Ġso othing
rot oxic
ĠHI T
ots w
Ġcur ative
Ġemb edded
Ġstri king
Ġtrache a
Ġhundred s
e ine
ad ren
Ġ19 47
ful ness
Ġsleep s
Ġexc it
isc o
Ġstandard ized
ster dam
Ġfr m
Ġdispl aced
Ġmand ibular
Ġpolic ies
udes onide
s kin
Ġp orn
Ġp hyl
Ġp ounding
ĠC ase
ĠG ard
ĠAl g
az e
na e
Ġvol unte
Ġul nar
ĠAD V
Ġfle et
hav ior
Ġretard ation
Ġfeas ible
ro z
Ġpresent ations
els on
Ġlact ate
Ġket oconazole
Ġtransf usions
Ġreli ability
H er
t ry
Ġc ensus
Ġf olk
an ium
Ġv ice
Ġres erved
Ġco x
ĠAr n
Ġpoly peptide
ĠMed iterranean
Ġestablish ing
omon as
and ial
Ġneed ful
ral ateral
be ing
ĠTop ical
Ġanastom osis
Ġdissemin ated
er able
ol ut
Ġ( <
Ġab ilities
Ġang les
Ġventric les
m ers
n ex
o quin
Ġmy opathy
ĠS inus
ial s
usc ult
Ġdown stream
Ġalter ation
Ġload ing
Ġencod ed
Ġfluctu ations
ĠNob el
Ġan aphyl
Ġm useum
Ġf used
om ine
ĠR EM
ĠL ate
ap l
ĠV e
Ġbar ium
Ġcomorbid ities
ĠF ind
ĠR omm
ĠN one
ĠTo ok
ĠProt est
ĠFert il
on ent
Ġre ferences
ĠG ar
Ġtooth p
Ġindic ators
Ġtra it
Ġnod ular
ĠHI S
Ġorigin ate
Ġ195 9
ĠOx y
Ġnewborn s
Ġderiv ative
, .
M R
u v
Ġc rick
ĠT own
ut s
Ġj our
Ġgu arant
ĠAlask a
us hes
ĠT imes
Ġsh allow
ĠR EP
ep id
Ġpost p
Ġcar s
old er
Ġimbal ances
Ġinteg ration
Ġmediast inal
Ġne o
Ġno cturnal
Ġcong ested
Ġdim ensional
p ath
Ġc iprofloxacin
ĠS erb
ĠD at
Ġne oplastic
Ġam l
Ġsp rays
Ġ5 000
ĠAll ergic
Ġadminist rative
oblast s
dep ress
ĠArist ot
p ur
Ġb er
Ġam put
Ġacc idents
Ġobs ession
Ġsick le
how ever
Ġrecon struct
ĠProg esterone
Ġmanip ulation
ĠPred nis
Ġmicroorgan isms
Ġt i
ĠM ig
Ġshe et
ĠAn emia
ĠAs sy
Ġpar ap
old s
ĠCl om
ĠRep eat
Ġhost s
ĠTr ad
ĠInit ial
Ġupd ated
Ġaph asia
w rit
z es
ĠM i
ib li
Ġsc attered
Ġover dose
fe ver
Ġevery where
ins on
Ġpe aks
Ġpositive ly
Ġfollic ulitis
Ġinher itance
Ġampl itude
Ġs s
Ġas h
ĠN AD
Ġdet ox
Ġmic ros
ĠCon c
Ġdyst rophy
Ġvill age
Ġexcer c
s ky
Ġa rom
ce re
ang ed
to in
Ġmaintain s
sc an
Ġscre w
Ġborder s
ĠAng i
Ġregist ered
G I
Ġn aval
Ġg y
st ill
Ġ16 5
ĠRec urrent
ĠMic ro
Ġrig id
ĠArmen ia
ĠH an
ĠC as
Ġr ounds
ĠW ay
per g
ĠHi I
Ġsub arachnoid
oci ate
ĠAs sembly
Ġput s
Ġcat ar
hyd e
Ġintra vascular
omat osis
Ġsil ic
AG E
rosp inal
Ġf ra
Ġn yst
Ġcl os
Ġsc aly
Ġnucle otides
Ġthromb oemb
Ġpump ing
ĠOrth odox
ativ ity
* *
Ġt onic
ver sy
ĠO THER
Ġpersist ed
Ġ195 6
Ġestablish ment
ĠSter il
Ġtib ia
C o
J ust
Ġf ren
ĠL AST
Ġant it
Ġsc ales
Ġcount y
ĠCom put
sp e
ĠPsych iatry
Ġmoist ure
ab dom
og ue
ĠE ss
ĠSo x
Ġconfirm atory
Ġphysi ology
head s
atin ib
Ġscre ws
bear ing
Ġemp hysema
rast ructure
p ot
Ġh g
od ge
Ġsc oring
Ġco val
Ġsuff iciently
ĠAm perayani
Ġes p
Ġsurv iving
Ġsun day
Ġla unch
ĠBulgar ian
Ġtravell ing
amox ifen
Ġooz ing
Ġunsu ccessful
ĠH air
ĠM ir
ĠCh annel
ĠSt ay
Ġtop ic
ĠST ART
ĠRes ults
Ġesoph ag
Ġgrand daughter
Ġmach ines
Ġstrict ure
Ġcoord ination
Ġth irty
un a
sy l
Ġmeas les
ĠAd am
Ġsk ip
ĠAlp ha
ĠÎ¼ g
onym ous
Ġempir ical
Ġnep hew
in ent
Ġd c
ra q
our tesy
ĠK NOW
Ġinc ons
Ġsc iences
Ġdim ension
ĠPress ure
ĠVol ume
Ġtheore tical
ĠIns ulin
ĠTurk ish
Ġprelim inary
A ml
Ġf us
ĠT rauma
Ġmed iate
uss ed
Ġstret ched
Ġmyel in
ĠNether lands
) /
ĠT ypically
ĠC ause
Ġcan als
Ġcomp ressing
Ġcons erved
Ġdist ribut
Ġhyd roxy
cont roll
ster oidal
ĠTM T
ĠâĨ Ĵ
icul opathy
ĠEffect s
P ost
d ed
Ġt ense
Ġp ore
igh th
Ġme ets
ĠY et
Ġirrit ate
Ġging er
Ġimmunosupp ression
Ġeyel id
f our
Ġs ap
Ġcom ic
Ġper inatal
Ġen cl
Ġhem odynamic
Ġrece ives
ĠPl ay
aster ide
Ġachie ving
Ġut ilized
Ġchlor hexidine
oblast oma
Ġunnecess arily
Ġdecongest ant
Ġintram uscular
Ġn f
ĠAm sterdam
Ġver bal
Ġcreat ine
IL Y
ĠEar lier
ĠLev ocet
ĠSUR G
ĠC op
ĠS ab
ole mia
10 3
Ġsal es
Ġcho orn
Ġregards Dr
leu kin
t im
Ġab road
Ġ10 6
Ġdiet s
Ġent rapment
Ġneg ot
Ġpneum othorax
ĠChrist ians
Ġsept al
Ġrail way
Ġrevers al
ĠProf ess
v o
end ocrine
Ġun con
Ġup ward
ram idal
Ġintra operative
Ġlig ation
Ġcorrespond s
Ġspir ometry
ĠHyp ot
iap ical
Ġrest aur
Ġorigin ates
Ġbase ment
Ġmedull ary
n it
Ġo wing
Ġbe am
ol ith
ell o
ens is
com pass
Ġradi ological
Ġtra its
ĠCal vin
Ġcate chol
Ġclom iphene
Gen l
Ġclon azepam
e a
Ġp ent
ĠD ick
ell ite
ĠL yn
Ġconst rain
bl ack
Ġting ly
Ġpoin ting
Ġkin ases
w ani
Ġh t
Ġse es
Ġdis pers
Ġout flow
Ġup right
Ġreg ulates
Ġind ul
Ġrisk y
Ġic u
hal f
ĠHB s
Ġlib ido
ĠHol ter
Ġbeaut iful
Ġinqu iry
Ġhydr onephrosis
p ression
t ra
Ġp hy
ĠC F
ĠL act
ĠAn sw
Ġover lying
Ġacc ounting
ma king
ĠEx per
olit an
Ġorigin ating
Ġcross ed
Ġmenop ausal
Ġclitor is
er ting
Ġc yp
Ġdis ag
ec onomic
ĠCom par
oz a
Ġfocus ing
Ġpharm acy
Ġalph abet
Ġhous es
olly wood
ĠTREAT MENT
Ġchocol ate
asthen ia
Ġtert iary
B B
g reen
Ġre form
Ġnow adays
Ġen rolled
Ġinv ari
10 2
apt ers
Ġlun ar
Ġcompet itive
ĠSud den
Ġglomer ul
ĠAber de
o en
s ized
Ġreg ulating
ang er
ĠCh rys
az i
Ġvag ue
Ġinterest ingly
flu or
C om
f emale
ĠS K
ĠG h
âĢ ²
Ġadv il
Ġdiabet ics
Ġexpl icit
ĠAust in
ĠAust rian
Ġaden oma
Ġartic ular
ĠOv arian
ĠIn jury
Ġexp ed
ĠChem otherapy
Ġdefe at
Ġconnect ing
Ġacetyl choline
in ic
ĠP ID
ob e
ĠCl ub
Ġmac ular
AC E
ĠAct ive
ĠSpec ific
ĠKal arch
ĠMass achusetts
Ġrank ed
ĠRomm stein
m ale
Ġha pl
ĠD ont
ĠB rian
ĠN orm
ĠK night
are r
ĠSt an
az z
Ġexpl o
Ġpa ired
Ġdrink er
Ġcarbohyd rates
ore an
ib bean
ĠG abapentin
Ġcommon est
Ġmar ry
ogen es
EN D
ĠSp inal
ĠPro ject
Ġdiss olve
Ġmig rate
UL AR
Ġhon or
ĠUp on
ĠVar ious
Ġperme ability
Ġmaneu ver
Ġanaer obic
P LE
Y S
a pers
t able
at ologist
ly mph
ĠT i
ĠT LR
Ġde le
ry th
vel ope
pl en
Ġent ities
Ġval idity
Ġfore ver
otoxic ity
produ cing
Ġcour ts
Ġimmunocomp romised
Ġcaval ry
Ġchoorn am
Ġa ver
ĠI b
ab is
Ġwas ting
Ġpos it
pl icated
ĠV I
Ġinit iating
bl ast
Ġconjug ated
Ġtib ial
Ġproport ional
ĠGn RH
on atremia
ĠL ind
cl usions
ĠDe v
ĠHer pes
Ġpredict or
ĠCH APTER
Ġprompt ly
Ġprecurs ors
ench ym
Ġt ensed
Ġp f
Ġn ig
ad one
ĠCl on
Ġdeb il
Ġtransm embrane
Ġcyto chrome
es ia
ill ery
ni k
ĠSU GG
Ġincident al
f ine
he e
Ġc ra
ll i
Ġcon ve
il igo
Ġsp ur
if erative
Ġpos ter
velop ed
ole t
Ġz ones
pers onal
Ġlib eral
Ġglucocortic oid
Ġimpinge ment
A V
ĠA ph
est ions
ĠN ano
Ġev id
uc ed
Ġdist ended
ĠSp ace
ĠLe vel
Ġirrit ant
ĠÂ °
Ġretro grade
b ronch
m ol
p o
st ay
Ġhem optysis
Ġest radiol
ON T
