{"<|endoftext|>":0,"<|padding|>":1,"<|unknown|>":2,"<|mask|>":3,"!":4,"\"":5,"#":6,"$":7,"%":8,"&":9,"'":10,"(":11,")":12,"*":13,"+":14,",":15,"-":16,".":17,"/":18,"0":19,"1":20,"2":21,"3":22,"4":23,"5":24,"6":25,"7":26,"8":27,"9":28,":":29,";":30,"<":31,"=":32,">":33,"?":34,"@":35,"A":36,"B":37,"C":38,"D":39,"E":40,"F":41,"G":42,"H":43,"I":44,"J":45,"K":46,"L":47,"M":48,"N":49,"O":50,"P":51,"Q":52,"R":53,"S":54,"T":55,"U":56,"V":57,"W":58,"X":59,"Y":60,"Z":61,"[":62,"\\":63,"]":64,"^":65,"_":66,"`":67,"a":68,"b":69,"c":70,"d":71,"e":72,"f":73,"g":74,"h":75,"i":76,"j":77,"k":78,"l":79,"m":80,"n":81,"o":82,"p":83,"q":84,"r":85,"s":86,"t":87,"u":88,"v":89,"w":90,"x":91,"y":92,"z":93,"{":94,"|":95,"}":96,"~":97,"¡":98,"¢":99,"£":100,"¤":101,"¥":102,"¦":103,"§":104,"¨":105,"©":106,"ª":107,"«":108,"¬":109,"®":110,"¯":111,"°":112,"±":113,"²":114,"³":115,"´":116,"µ":117,"¶":118,"·":119,"¸":120,"¹":121,"º":122,"»":123,"¼":124,"½":125,"¾":126,"¿":127,"À":128,"Á":129,"Â":130,"Ã":131,"Ä":132,"Å":133,"Æ":134,"Ç":135,"È":136,"É":137,"Ê":138,"Ë":139,"Ì":140,"Í":141,"Î":142,"Ï":143,"Ð":144,"Ñ":145,"Ò":146,"Ó":147,"Ô":148,"Õ":149,"Ö":150,"×":151,"Ø":152,"Ù":153,"Ú":154,"Û":155,"Ü":156,"Ý":157,"Þ":158,"ß":159,"à":160,"á":161,"â":162,"ã":163,"ä":164,"å":165,"æ":166,"ç":167,"è":168,"é":169,"ê":170,"ë":171,"ì":172,"í":173,"î":174,"ï":175,"ð":176,"ñ":177,"ò":178,"ó":179,"ô":180,"õ":181,"ö":182,"÷":183,"ø":184,"ù":185,"ú":186,"û":187,"ü":188,"ý":189,"þ":190,"ÿ":191,"Ā":192,"ā":193,"Ă":194,"ă":195,"Ą":196,"ą":197,"Ć":198,"ć":199,"Ĉ":200,"ĉ":201,"Ċ":202,"ċ":203,"Č":204,"č":205,"Ď":206,"ď":207,"Đ":208,"đ":209,"Ē":210,"ē":211,"Ĕ":212,"ĕ":213,"Ė":214,"ė":215,"Ę":216,"ę":217,"Ě":218,"ě":219,"Ĝ":220,"ĝ":221,"Ğ":222,"ğ":223,"Ġ":224,"ġ":225,"Ģ":226,"ģ":227,"Ĥ":228,"ĥ":229,"Ħ":230,"ħ":231,"Ĩ":232,"ĩ":233,"Ī":234,"ī":235,"Ĭ":236,"ĭ":237,"Į":238,"į":239,"İ":240,"ı":241,"Ĳ":242,"ĳ":243,"Ĵ":244,"ĵ":245,"Ķ":246,"ķ":247,"ĸ":248,"Ĺ":249,"ĺ":250,"Ļ":251,"ļ":252,"Ľ":253,"ľ":254,"Ŀ":255,"ŀ":256,"Ł":257,"ł":258,"Ń":259,"Ġt":260,"Ġa":261,"in":262,"he":263,"re":264,"on":265,"Ġs":266,"at":267,"er":268,"or":269,"en":270,"Ġc":271,"is":272,"Ġthe":273,"ou":274,"Ġan":275,"Ġw":276,"Ġb":277,"Ġm":278,"Ġp":279,"it":280,"ed":281,"al":282,"Ġf":283,"Ġd":284,"Ġo":285,"an":286,"es":287,"ic":288,"Ġand":289,"ing":290,"Ġh":291,"Ġin":292,"ion":293,"Ġto":294,"ar":295,"Ġof":296,"as":297,"ĠI":298,"le":299,"ct":300,"om":301,"Ġn":302,"ve":303,"ent":304,"Ġy":305,"Ġth":306,"ll":307,"Ġl":308,"Ġre":309,"Ġyou":310,"Ġis":311,"ot":312,"us":313,"Ġe":314,"Ġbe":315,"ly":316,"Ġg":317,"ro":318,"Ġha":319,"id":320,"et":321,"Ġfor":322,"os":323,"ow":324,"ation":325,"Ġhe":326,"ur":327,"ul":328,"ĠT":329,"Ġi":330,"ay":331,"ft":332,"ig":333,"ld":334,"ĠH":335,"Ġit":336,"ith":337,"Ġon":338,"ĠA":339,"end":340,"Ġst":341,"Ġwith":342,"Ġcon":343,"ac":344,"Ġhave":345,"ain":346,"ver":347,"ut":348,"od":349,"st":350,"ol":351,"est":352,"am":353,"op":354,"ctor":355,"Ġas":356,"ex":357,"Ġ(":358,"un":359,"Ġor":360,"im":361,"Ġmy":362,"ĠC":363,"octor":364,"Ġyour":365,"th":366,"ke":367,"ati":368,"ĠS":369,"ce":370,"Ġ1":371,"Ġthat":372,"Ġcan":373,"ext":374,"Ġr":375,"Ġare":376,"her":377,"oft":378,"qu":379,"ist":380,"ch":381,"endoft":382,"<|":383,"|>":384,"endoftext":385,"ge":386,"ad":387,"Ġ,":388,"um":389,"Ġwe":390,"ect":391,"ir":392,"Ġwh":393,"il":394,"Ġnot":395,"Ġsu":396,"ould":397,"res":398,"ill":399,"el":400,"Ġal":401,"atient":402,"ĠM":403,"Ġpro":404,"ĠD":405,"igh":406,"ab":407,"..":408,"Ġ2":409,"Ġex":410,"ical":411,"ment":412,"Ġne":413,"Ġthis":414,"Ġwas":415,"ĠB":416,"Ġse":417,"ell":418,"rom":419,"out":420,"Ġv":421,"pt":422,"ĠThe":423,"ine":424,"Ġ.":425,"Ġli":426,"ĠP":427,"Ġde":428,"ri":429,"ter":430,"orm":431,"Ġsh":432,"ate":433,"se":434,"pp":435,"ase":436,"Ġcom":437,"Ġdi":438,"Ġme":439,"ess":440,"ood":441,"oc":442,"ult":443,"ff":444,"ra":445,"ight":446,"Ġca":447,"ast":448,"ore":449,"og":450,"Ġab":451,"Ġat":452,"Ġle":453,"Doctor":454,"ure":455,"use":456,"ated":457,"ant":458,"Ġby":459,"ive":460,"Patient":461,"Ġfe":462,"Ġpain":463,"Ġqu":464,"ther":465,"ome":466,"and":467,"art":468,"Ġk":469,"Ġun":470,"ĠW":471,"Ġbut":472,"Ġfrom":473,"ĠĊ":474,"ag":475,"ib":476,"oun":477,"der":478,"one":479,"Ġam":480,"Ġch":481,"Ġsp":482,"ear":483,"Ġdo":484,"ks":485,"reat":486,"Ġinf":487,"ort":488,"Ġdis":489,"ity":490,"Ġta":491,"gh":492,"ĠF":493,"Ġhas":494,"ard":495,"so":496,"red":497,"Ġper":498,"now":499,"em":500,"Ġif":501,"Ġad":502,"ue":503,"Ġday":504,"ich":505,"Ġhad":506,"iv":507,"Ġsy":508,"Ġwill":509,"ĠR":510,"ide":511,"ally":512,"ost":513,"ough":514,"Ġbl":515,"ia":516,"ies":517,"lp":518,"per":519,"ress":520,"Ġget":521,"all":522,"ĠL":523,"Ġmay":524,"ĠTh":525,"Ġlike":526,"Ġany":527,"Ġhelp":528,"Ġwhich":529,"Ġ3":530,"ĠE":531,"ud":532,"ery":533,"Ġpre":534,"if":535,"Ġalso":536,"Ġus":537,"Ġwhe":538,"Ġcont":539,"our":540,"hy":541,"Ġim":542,"ack":543,"fter":544,"ction":545,"ĠN":546,"very":547,"ĠG":548,"ry":549,"ĠĠ":550,"Ġbeen":551,"Ġall":552,"Ġu":553,"Ġres":554,"ous":555,"ren":556,"ĠK":557,"Ġ-":558,"Ġwor":559,"ial":560,"Ġcomp":561,"ong":562,"cer":563,"00":564,"king":565,"ec":566,"ust":567,"Ġinc":568,"Ġthere":569,"Ġshould":570,"ĠHi":571,"Ġtim":572,"ound":573,"Ġyear":574,"ection":575,"Ġmed":576,"âĢ":577,"ru":578,"Ġj":579,"Ġac":580,"ary":581,"ĠIn":582,"iz":583,"ĠO":584,"Ġafter":585,"Ġcons":586,"Ġdoctor":587,"Ġtreat":588,"Ġneed":589,"able":590,"ep":591,"age":592,"Ġag":593,"ĠY":594,"ope":595,"Ġout":596,"Ġ)":597,"Ġar":598,"ens":599,"Ġcl":600,"Ġtest":601,"du":602,"Ġsome":603,"ap":604,"ble":605,"Ġso":606,"Ġant":607,"act":608,"ular":609,"vel":610,"ations":611,"ip":612,"ĠIt":613,"Ġunder":614,"ition":615,"olog":616,"Ġmon":617,"Ġwould":618,"Ġmore":619,"ers":620,"Ġint":621,"Ġrec":622,"Ġblood":623,"ice":624,"ran":625,"hat":626,"Ġpl":627,"Ġapp":628,"oll":629,"Ġ5":630,"ory":631,"Ġother":632,"ose":633,"ian":634,"Ġtake":635,"cy":636,"Ġno":637,"Ġgo":638,"Ġquery":639,"Ġthen":640,"ph":641,"Ġ4":642,"ne":643,"Ġtreatment":644,"gg":645,"Ġabout":646,"mpt":647,"form":648,"Ġher":649,").":650,"ĠHell":651,"Ġdays":652,"ie":653,"Ġknow":654,"we":655,"ĠHello":656,"alth":657,"Ġrel":658,"Ġup":659,"Ġsur":660,"Ġsc":661,"Ġwhen":662,"mptom":663,"Ġev":664,"Ġche":665,"ving":666,"ind":667,"Ġback":668,"Ġpatient":669,"blem":670,"Ġtime":671,"Ġproblem":672,"Ġwee":673,"Ġpos":674,"Ġtw":675,"ormal":676,"led":677,"Ġass":678,"Ġsymptom":679,"Ġrep":680,"urther":681,"Ġfeel":682,"anks":683,"Ġinfection":684,"oid":685,"ffect":686,"Ġnow":687,"Ġmonth":688,"Ġbec":689,"lease":690,"Ġwere":691,"Ġone":692,"Ġdue":693,"Ġreg":694,"Ġyears":695,"Ġmedic":696,"Ġfurther":697,"ggest":698,"Ġpr":699,"ĠIf":700,"oth":701,"Ġsuggest":702,"Ġshe":703,"Ġvery":704,"mon":705,"ish":706,"Ġ19":707,"ions":708,"ater":709,"ite":710,"Ġans":711,"ledge":712,"ake":713,"Ġimp":714,"Ġhis":715,"Ġwhat":716,"ign":717,"ise":718,"Ġbet":719,"ĠU":720,"edical":721,"ach":722,"Ġpres":723,"Ġhealth":724,"ame":725,"osis":726,"ence":727,"Ġsymptoms":728,"Ġman":729,"Ġcould":730,"ĠKnow":731,"ile":732,"In":733,"ĠKnowledge":734,"Medical":735,"yp":736,"ause":737,"erm":738,"ance":739,"gn":740,"Ġadv":741,"Ġthese":742,"ĠJ":743,"ass":744,"ts":745,"Ġcell":746,"ron":747,"Ġthey":748,"ved":749,"ĠDoctor":750,"ĠAn":751,"Ġcause":752,"Ġthan":753,"agn":754,"ace":755,"ĠMy":756,"Ġlow":757,"Ġdise":758,"Ġits":759,"ail":760,"ily":761,"les":762,"Ġen":763,"itis":764,"cc":765,"ree":766,"opic":767,"Ġover":768,"Ġconsult":769,"...":770,"Ġstart":771,"amin":772,"Ġnormal":773,"Ġold":774,"other":775,"'s":776,"cern":777,"Ġsm":778,"ub":779,"Ġconcern":780,"ĠYou":781,"ting":782,"te":783,"uc":784,"ative":785,"ric":786,"Ġonly":787,"Ġjust":788,"hys":789,"Ġ6":790,"omet":791,"Ġgen":792,"rough":793,"ĠHe":794,"Ġcaus":795,"Ġ20":796,"Ġquest":797,"inal":798,"erg":799,"Ġhaving":800,"ific":801,"Ġtwo":802,"ond":803,"sib":804,"Ġfoll":805,"âĢĵ":806,"Ġpregn":807,"formation":808,"dition":809,"Ġact":810,"Ġuse":811,"ild":812,"rent":813,"Ġcare":814,"eg":815,"irst":816,"hes":817,"ards":818,"Ġdiagn":819,"Ġright":820,"Ġdiff":821,"Ġeffect":822,"ious":823,"Ġgood":824,"ced":825,"Ġdone":826,"ove":827,"ful":828,"Ġmost":829,"Ġfl":830,"Ġthrough":831,"Information":832,"Topic":833,"rol":834,"Ġpatients":835,"Ġpart":836,"pl":837,"lud":838,"ness":839,"are":840,"ak":841,"ath":842,"ok":843,"Ġrem":844,"hing":845,"ang":846,"Ġlast":847,"ased":848,"iod":849,"Ġdisease":850,"cri":851,"ĠChat":852,"ince":853,"ics":854,"Ġside":855,"Ġmonths":856,"Ġsuch":857,"Ġinter":858,"av":859,"ons":860,"fore":861,"Ġincre":862,"ning":863,"ating":864,"rit":865,"ĠHope":866,"Ġind":867,"ĠThis":868,"ually":869,"Ġhigh":870,"uring":871,"ases":872,"ob":873,"ps":874,"fe":875,"Ġperiod":876,"ys":877,"Ġcy":878,"Ġlevel":879,"Ġfollow":880,"Ġbecause":881,"Ġresult":882,"row":883,"rans":884,"Ġpossib":885,"iss":886,"ink":887,"Ġgr":888,"rap":889,"ck":890,"Ġur":891,"ĠĠĠĠ":892,"Ġco":893,"Ġsa":894,"way":895,"Ġser":896,"Ġleft":897,"Ġfirst":898,"cess":899,"Ġet":900,"ple":901,"Ġdet":902,"Ġstud":903,"ual":904,"ym":905,"),":906,"Ġ10":907,"rain":908,"ces":909,"ĠThanks":910,"Ġphys":911,"ates":912,"ord":913,"Ġsw":914,"Ġpo":915,"Ġwell":916,"Ġinv":917,"Ġquestion":918,"Ġsurg":919,"ĠV":920,"Ġunderst":921,"dom":922,"ĠAl":923,"Ġshow":924,"Ġhy":925,"Ġused":926,"usc":927,"ody":928,"Ġsub":929,"Ġob":930,"Ġprot":931,"ancy":932,"ility":933,"int":934,"Ġ7":935,"umb":936,"sy":937,"iot":938,"Ġwho":939,"Ġinclud":940,"Ġdisc":941,"Ġmet":942,"Ġocc":943,"ologist":944,"Ġantib":945,"ever":946,"Ġear":947,"Ġspec":948,"kin":949,"Ġlong":950,"Ġweeks":951,"Ġform":952,"unction":953,"Ġda":954,"Ġresp":955,"Ġdoes":956,"Ġsign":957,"ont":958,"day":959,"Ġheart":960,"rop":961,"Ġtrans":962,"Ġdep":963,"Ġunderstand":964,"ors":965,"Ġte":966,"hen":967,"ract":968,"gs":969,"ert":970,"uch":971,"ank":972,"Ġacc":973,"oci":974,"Ġext":975,"ĠAs":976,"come":977,"Ġhow":978,"ĠSo":979,"Ġcomple":980,"Ġtaking":981,"ount":982,"Ġsomet":983,"void":984,"Ġstill":985,"Ġdid":986,"Ġansw":987,"ĠCh":988,"qui":989,"Ġhist":990,"Ġexp":991,"Ġcells":992,"li":993,"Ġcol":994,"Ġhapp":995,"Ġbefore":996,"'t":997,"Ġ\"":998,"Ġago":999,"Ġweek":1000,"lic":1001,"Ġdec":1002,"Ġsee":1003,"Ġduring":1004,"Ġmusc":1005,"ures":1006,"ĠFor":1007,"Ġreport":1008,"Ġlo":1009,"Ġinto":1010,"Ġatt":1011,"Ġhead":1012,"ital":1013,"Ġpregnancy":1014,"hed":1015,"velop":1016,"ents":1017,"Ġmin":1018,"Ġdes":1019,"Ġ&":1020,"Ġdef":1021,"ull":1022,"ism":1023,"Ġ200":1024,"Ġagain":1025,"Ġtyp":1026,"Ġfew":1027,"ected":1028,"ines":1029,"ently":1030,"Ġsince":1031,"Ġcondition":1032,"cept":1033,"Ġevery":1034,"Ġtr":1035,"Ġhim":1036,"Ġcase":1037,"Ġdru":1038,"erc":1039,"Ġ8":1040,"Ġpress":1041,"ros":1042,"amm":1043,"Ġgiv":1044,"Ġcommon":1045,"ings":1046,"Ġgot":1047,"Ġend":1048,"ulation":1049,"ox":1050,"Ġusing":1051,"Ġsec":1052,"mb":1053,"crib":1054,"Ġsupp":1055,"Ġ201":1056,"Ġtheir":1057,"Ġcancer":1058,"ried":1059,"Ġboth":1060,"Ġbody":1061,"Ġworry":1062,"Ġdevelop":1063,"ĠSt":1064,"Ġrequi":1065,"Ġchest":1066,"ale":1067,"Ġinj":1068,"Ġsmall":1069,"Ġseem":1070,"stem":1071,"Ġro":1072,"ien":1073,"egards":1074,"own":1075,"ween":1076,"Ġeven":1077,"Ġmuch":1078,"mun":1079,"ĠDr":1080,"ick":1081,"Ġins":1082,"ention":1083,"Ġdiffe":1084,"alu":1085,"Ġantibiot":1086,"itt":1087,"atory":1088,"ĠPlease":1089,"Th":1090,"ral":1091,"erv":1092,"Ġarea":1093,"ax":1094,"Ġlower":1095,"Ġbetween":1096,"Ġclin":1097,"ression":1098,"rect":1099,"Ġbetter":1100,"Ġgl":1101,"Ġmany":1102,"Ġredu":1103,"Ġprev":1104,"lect":1105,"....":1106,"wered":1107,"ium":1108,"Ġanswered":1109,"ins":1110,"Âł":1111,"Ġabdom":1112,"Ġage":1113,"ically":1114,"ans":1115,"Ġkid":1116,"Ġop":1117,"ole":1118,"Ġsuff":1119,"ized":1120,"Ġexamin":1121,"ump":1122,"Ġpressure":1123,"Ġtimes":1124,"Ġsurgery":1125,"arg":1126,"osed":1127,"Ġfever":1128,"Ġprodu":1129,"order":1130,"atic":1131,"ering":1132,"ied":1133,"Ġsame":1134,"vere":1135,"ety":1136,"Ġpossible":1137,"Ġoccur":1138,"Ġsystem":1139,"Ġsex":1140,"Ġchild":1141,"ade":1142,"Ġhistory":1143,"Ġpers":1144,"ute":1145,"Ġph":1146,"ov":1147,"Ġskin":1148,"ten":1149,"Ġtak":1150,"Ġinform":1151,"Ġfood":1152,"Ġpe":1153,"ardi":1154,"Ġ9":1155,"Ġmight":1156,"arge":1157,"Ġdown":1158,"Ġstarted":1159,"Ġfunction":1160,"Ġtry":1161,"Ġassoci":1162,"Ġwhere":1163,"Ġthem":1164,"Ġwork":1165,"Ġhour":1166,"ĠAm":1167,"Ġcontin":1168,"Ġcle":1169,"ule":1170,"Ġliver":1171,"ior":1172,"Ġnumb":1173,"Ġplease":1174,"Ġtherap":1175,"eral":1176,"acter":1177,"nal":1178,"ption":1179,"elf":1180,"ize":1181,"Ġinfl":1182,"ments":1183,"Ġpost":1184,"ĠBut":1185,"Ġfound":1186,"Ġwater":1187,"Ġmg":1188,"ician":1189,"Ġdiagnosis":1190,"itive":1191,"Ġvis":1192,"up":1193,"ram":1194,"Ġanswer":1195,"Ġloc":1196,"its":1197,"ix":1198,"Ġpresent":1199,"Ġve":1200,"Ġexper":1201,"Ġcar":1202,"Ġthree":1203,"Ġfind":1204,"Ġsevere":1205,"Ġthink":1206,"Ġfat":1207,"Ġoff":1208,"ĠHow":1209,"Ġactiv":1210,"Ġsim":1211,"ident":1212,"Ġwhile":1213,"ung":1214,"ĠIs":1215,"osp":1216,"Ġvar":1217,"Ġem":1218,"Ġconf":1219,"ities":1220,"Ġtests":1221,"Ġanti":1222,"Ġgive":1223,"Ġallerg":1224,"ave":1225,"Ġsl":1226,"Ġwant":1227,"Ġlead":1228,"Ġprote":1229,"Ġdist":1230,"Ġassist":1231,"ras":1232,"Ġanal":1233,"ĠWhat":1234,"Ġmar":1235,"leep":1236,"Ġcor":1237,"uss":1238,"Ġwent":1239,"yn":1240,"ester":1241,"Ġ12":1242,"arm":1243,"Ġdon":1244,"ited":1245,"Ġusually":1246,"Ġmod":1247,"Ġinformation":1248,"Ġtable":1249,"omm":1250,"imes":1251,"Ġfa":1252,"Ġ0":1253,"Ġsaid":1254,"ues":1255,"RI":1256,"Ġsyn":1257,"Ġris":1258,"Ġdisorder":1259,"Ġcauses":1260,"Ġ15":1261,"Ġrelated":1262,"ĠThere":1263,"sych":1264,"ange":1265,"Ġdifferent":1266,"oh":1267,"thing":1268,"ock":1269,"Ġproper":1270,"Ġlevels":1271,"Ġnight":1272,"Ġevalu":1273,"uid":1274,"gen":1275,"Ġ/":1276,"Ġaround":1277,"Ġweight":1278,"ĠShe":1279,"Ġsecond":1280,"ately":1281,"Ġgetting":1282,"elling":1283,"ĠLet":1284,"Ġvir":1285,"ury":1286,"Ġmor":1287,"Ġbreat":1288,"Ġke":1289,"ology":1290,"Ġep":1291,"als":1292,"ially":1293,"line":1294,"Ġdaily":1295,"cribed":1296,"Ġavoid":1297,"Ġpar":1298,"Ġstop":1299,"Ġassociated":1300,"Ġcontrol":1301,"ature":1302,"Ġhope":1303,"Ġstudy":1304,"ney":1305,"Ġsit":1306,"Ġcount":1307,"Ġsleep":1308,"ised":1309,"Ġsens":1310,"Ġgiven":1311,"Ġcal":1312,"cent":1313,"Ġpill":1314,"Ġthough":1315,"Ġclinical":1316,"oma":1317,"Ġsol":1318,"ĠTake":1319,"Ġproblems":1320,"ER":1321,"Ġstress":1322,"Ġbre":1323,"ray":1324,"adi":1325,"vers":1326,"Ġgoing":1327,"Ġexamination":1328,"Ġrest":1329,"Ġref":1330,"Ġtaken":1331,"Ġsever":1332,"med":1333,"iety":1334,"Ġexerc":1335,"Ġhyper":1336,"Ġlot":1337,"Ġov":1338,"Ġcomplete":1339,"Ġprov":1340,"Ġwithout":1341,"Ġ18":1342,"the":1343,"ution":1344,"iat":1345,"Ġtherapy":1346,"ma":1347,"Ġcough":1348,"Ġbeing":1349,"Ġbest":1350,"Ġgone":1351,"Ġcheck":1352,"eding":1353,"urn":1354,"Ġmain":1355,"ĠRegards":1356,"Ġrelie":1357,"oss":1358,"Ġtre":1359,"Ġma":1360,"Ġdiet":1361,"Ġdr":1362,"tic":1363,"Ġhelps":1364,"Ġimpro":1365,"Ġult":1366,"cl":1367,"Ġred":1368,"Ġmedicine":1369,"gan":1370,"Ġacid":1371,"Ġurine":1372,"com":1373,"Ġcall":1374,"ared":1375,"rot":1376,"Ġtiss":1377,"Ġhur":1378,"Ġmuscle":1379,"Ġgrou":1380,"ĠUn":1381,"Ġimport":1382,"ural":1383,"amily":1384,"erve":1385,"Ġhem":1386,"iew":1387,"eric":1388,"Ġcent":1389,"Ġeffects":1390,"Ġreally":1391,"ening":1392,"Ġadvise":1393,"Ġpast":1394,"omy":1395,"Ġtype":1396,"Ġbel":1397,"Ġrisk":1398,"ommend":1399,"ef":1400,"Ġless":1401,"Ġx":1402,"Ġhand":1403,"Ġetc":1404,"outh":1405,"Ġble":1406,"Ġsay":1407,"requ":1408,"ording":1409,"ourse":1410,"Ġresults":1411,"ency":1412,"elcome":1413,"ĠâĢĵ":1414,"Ġtoo":1415,"Ġanx":1416,"Ġchang":1417,"Ġbr":1418,"Ġret":1419,"Ġlife":1420,"Ġinh":1421,"yl":1422,"Ġnew":1423,"Ġlater":1424,"Ġrecommend":1425,"Ġbi":1426,"ittle":1427,"ret":1428,"Ġalong":1429,"ways":1430,"Ġpsych":1431,"Ġtum":1432,"read":1433,"urrent":1434,"ĠSh":1435,"Ġstom":1436,"Ġreas":1437,"agic":1438,"ool":1439,"Hope":1440,"Ġcre":1441,"Ġregular":1442,"Ġearly":1443,"Ġread":1444,"tern":1445,"rolog":1446,"Ġconst":1447,"10":1448,"roid":1449,"Ġfactor":1450,"Ġprog":1451,"rs":1452,"Ġway":1453,"Ġseems":1454,"The":1455,"Ġcardi":1456,"Ġneu":1457,"ĠHC":1458,"ĠThank":1459,"old":1460,"Ġask":1461,"Ġfeeling":1462,"Ġarm":1463,"eth":1464,"Ġadvice":1465,"oph":1466,"Ġaffect":1467,"ronic":1468,"ng":1469,"Ġlittle":1470,"Ġhours":1471,"Ġstomach":1472,"ones":1473,"ĠNe":1474,"Ġcases":1475,"Ġlym":1476,"Ġsomething":1477,"pec":1478,"Ġantibiotics":1479,"Ġlump":1480,"Ġtooth":1481,"Ġonce":1482,"ospital":1483,"action":1484,"IN":1485,"Ġnon":1486,"estig":1487,"pper":1488,"rist":1489,"aw":1490,"ration":1491,"ination":1492,"Ġdel":1493,"Ġcyst":1494,"abet":1495,"Ġkidney":1496,"Ġwithin":1497,"Ġmedication":1498,"Ġel":1499,"Ġscan":1500,"az":1501,"12":1502,"Ġmult":1503,"Ġoften":1504,"Ġrule":1505,"ĠWish":1506,"rasound":1507,"Ġimportant":1508,"iting":1509,"ants":1510,"Ġfrequ":1511,"Ġbab":1512,"otherap":1513,"ict":1514,"Ġaddition":1515,"Ġinflamm":1516,"Ġbrain":1517,"Ġgrow":1518,"ven":1519,"Ġes":1520,"Ġindic":1521,"Ġbad":1522,"ension":1523,"Ġdrugs":1524,"ysis":1525,"Ġsize":1526,"Ġinvestig":1527,"ash":1528,"tain":1529,"âĢĻ":1530,"Ġiss":1531,"19":1532,"ĠĠĠĠĠĠĠĠ":1533,"Ġimmun":1534,"ĠAr":1535,"Ġsignific":1536,"Ġnerve":1537,"cing":1538,"Ġswelling":1539,"ching":1540,"Ġpartic":1541,"Ġsuffering":1542,"ner":1543,"ves":1544,"Ġdetail":1545,"ĠDo":1546,"ĠCan":1547,"Ġpath":1548,"ruct":1549,"Ġincreased":1550,"Ġmorning":1551,"ĠAlso":1552,"20":1553,"Ġmove":1554,"Ġsal":1555,"asc":1556,"Ġseen":1557,"Ġlymph":1558,"Ġanxiety":1559,"Ġfollowing":1560,"Ġabs":1561,"Ġappear":1562,"ides":1563,"Ġanother":1564,".,":1565,"ty":1566,"Ġneck":1567,"Ġincrease":1568,"rong":1569,"Ġent":1570,"Ġperform":1571,"Ġleg":1572,"Ġpregnant":1573,"Dr":1574,"Ġabdomen":1575,"Ġ30":1576,"Ġir":1577,"Ġinvol":1578,"Ġtold":1579,"Ġwom":1580,"Ġles":1581,"Ġmake":1582,"ere":1583,"onal":1584,"ient":1585,"Ġhospital":1586,"not":1587,"Ġbaby":1588,"geon":1589,"Ġrate":1590,"Ġkeep":1591,"Ġhard":1592,"ugh":1593,"min":1594,"Ġinst":1595,"air":1596,"Ġhelpful":1597,"ational":1598,"ĠOn":1599,"ĠHCM":1600,"Ġloss":1601,"Ġphysical":1602,"Ġey":1603,"Ġhi":1604,"Ġson":1605,"Ġabove":1606,"Ġpen":1607,"Ġele":1608,"Ġtreated":1609,"Ġlim":1610,"ĠHowever":1611,"of":1612,"Ġsometimes":1613,"ably":1614,"Ġlarge":1615,"ĠAnd":1616,"Ġeach":1617,"ĠMRI":1618,"Ġupper":1619,"Ġsignificant":1620,"Ġhorm":1621,"olic":1622,"Ġoral":1623,"Ġ;":1624,"ances":1625,"Ġmedical":1626,"Ġcalled":1627,"Ġwal":1628,"Ġradi":1629,"though":1630,"itamin":1631,"but":1632,"Ġbleeding":1633,"Ġsure":1634,"Ġfib":1635,"Ġterm":1636,"Ġbone":1637,"Ġtook":1638,"Ġhappy":1639,"Ġneg":1640,"ization":1641,"Ġhere":1642,"Ġclear":1643,"Ġphysician":1644,"Ġdrug":1645,"oved":1646,"Ġincluding":1647,"oot":1648,"ains":1649,"Ġappro":1650,"Thanks":1651,"Ġseveral":1652,"ug":1653,"most":1654,"less":1655,"Ġdose":1656,"Ġspecial":1657,"ither":1658,"ision":1659,"Ġtra":1660,"Ġinclude":1661,"Ġaut":1662,"Ġultrasound":1663,"oking":1664,"Ġmedicines":1665,"Ġpass":1666,"Ġcontact":1667,"icult":1668,"ages":1669,"Ġpul":1670,"Ġnumber":1671,"Ġfluid":1672,"Ġcome":1673,"Ġthose":1674,"Ġfem":1675,"Ġmention":1676,"Ġben":1677,"usion":1678,"Ġopin":1679,"els":1680,"oint":1681,"urb":1682,"Ġtwice":1683,"jor":1684,"Ġprob":1685,"Ġdiagnosed":1686,"ocy":1687,"Ġanything":1688,"Ġtem":1689,"Ġbo":1690,"ogen":1691,"Ġdent":1692,"Ġexam":1693,"Ġbas":1694,"Ġfamily":1695,"band":1696,"Ġchronic":1697,"Ġhowever":1698,"ified":1699,"Ġhyp":1700,"Ġaccording":1701,"Ġrespon":1702,"Ġpop":1703,"Ġdou":1704,"Ġtub":1705,"Ġtissue":1706,"Ġnext":1707,"Ġdiabet":1708,"otherapy":1709,"Ġdirect":1710,"ople":1711,"coh":1712,"Ġ199":1713,"Ġest":1714,"Ġprotein":1715,"Ġcaused":1716,"ilar":1717,"ined":1718,"Ġmust":1719,"ire":1720,"Ġopinion":1721,"ured":1722,"Ġmeas":1723,"Ġident":1724,"Ġunt":1725,"Ġdifficult":1726,"Ġhome":1727,"Ġconfir":1728,"Ġshort":1729,"NA":1730,"ered":1731,"Ġ14":1732,"Ġput":1733,"tal":1734,"usband":1735,"Ġrev":1736,"Ġhair":1737,"Ġmouth":1738,"??":1739,"ective":1740,"Ġkne":1741,"Ġcold":1742,"Ġ:":1743,"TI":1744,"Ġinjury":1745,"Ġdecre":1746,"Ġmot":1747,"Ġdiscuss":1748,"Ġdepend":1749,"Ġgast":1750,"ists":1751,"vail":1752,"Ġfine":1753,"Ġplay":1754,"normal":1755,"Ġkind":1756,"cle":1757,"ime":1758,"Ġperiods":1759,"Ġhusband":1760,"ON":1761,"Ġlocal":1762,"Ġpan":1763,"Ġgroup":1764,"drom":1765,"Ġtoday":1766,"Ġmal":1767,"Ġcausing":1768,"Ġ[":1769,"Ġknown":1770,"man":1771,"Ġmanage":1772,"Ġchem":1773,"ache":1774,"Ġrecently":1775,"Ġaway":1776,"ĠâĢ":1777,"ane":1778,"Ġchanges":1779,"get":1780,"Ġnod":1781,"Ġgeneral":1782,"osc":1783,"Ġpat":1784,"ĠAt":1785,"ark":1786,"Ġset":1787,"cin":1788,"ĠThey":1789,"Ġour":1790,"Ġbreast":1791,"Ġfree":1792,"ĠAmeric":1793,"riend":1794,"Ġstand":1795,"rence":1796,"Ġnothing":1797,"Ġrequire":1798,"Ġprocess":1799,"Ġmajor":1800,"Ġreason":1801,"aining":1802,"Ġfour":1803,"Ġnear":1804,"Ġalways":1805,"Ġmemb":1806,"mg":1807,"Ġtell":1808,"Ġcourse":1809,"Ġfail":1810,"Ġ25":1811,"Ġnever":1812,"Ġrequired":1813,"Ġwrit":1814,"ĠAfter":1815,"mia":1816,"Ġcomb":1817,"Ġable":1818,"Ġimprove":1819,"ided":1820,"Ġprescribed":1821,"Ġteeth":1822,"idual":1823,"ĠWelcome":1824,"ĠThese":1825,"Ġnegative":1826,"Ġlikely":1827,"Ġ16":1828,"amp":1829,"uter":1830,"Ġprim":1831,"Ġneeded":1832,"ological":1833,"Ġcalc":1834,"nt":1835,"Ġcontr":1836,"ĠCl":1837,"Ġcir":1838,"Ġpot":1839,"Ġrelief":1840,"ĠWe":1841,"Ġexpl":1842,"idence":1843,"ina":1844,"ughter":1845,"me":1846,"cohol":1847,"Ġadd":1848,"Ġwa":1849,"ni":1850,"Ġelect":1851,"ĠX":1852,"ĠWhen":1853,"vailable":1854,"fl":1855,"Ġobs":1856,"If":1857,"Ġeither":1858,"bs":1859,"orn":1860,"Ġvom":1861,"ĠTH":1862,"Ġhig":1863,"Ġarter":1864,"Ġstudies":1865,"Ġtri":1866,"Ġed":1867,"Ġhal":1868,"Ġworried":1869,"ograp":1870,"Ġuntil":1871,"Ġgreat":1872,"Ġremoved":1873,"Ġmild":1874,"Ġpeople":1875,"yroid":1876,"eries":1877,"fort":1878,"Ġsyndrom":1879,"Ġexc":1880,"Ġprevent":1881,"Ġ11":1882,"Ġtend":1883,"Ġmic":1884,"Ġonline":1885,"Ġreco":1886,"RE":1887,"adder":1888,"Ġmeth":1889,"Ġneeds":1890,"Ġalmost":1891,"ata":1892,"Ġsperm":1893,"Ġbeh":1894,"Ġspecific":1895,"Ġ100":1896,"Ġbased":1897,"arr":1898,"ĠIm":1899,"Ġfeels":1900,"iced":1901,"Ġ17":1902,"Ġexercise":1903,"Ġchar":1904,"Ġquestions":1905,"Ġ13":1906,"cription":1907,"ee":1908,"Ġantibiotic":1909,"land":1910,"Ġwomen":1911,"Ġast":1912,"Ġval":1913,"Ġ=":1914,"Ġpainful":1915,"athy":1916,"Ġpositive":1917,"Ġmean":1918,"Ġinit":1919,"igure":1920,"ÂłÂł":1921,"Ġgener":1922,"Ġabdominal":1923,"Ġcou":1924,"ĠHI":1925,"ises":1926,"ired":1927,"Ġexperien":1928,"Ġhep":1929,"iple":1930,"Ġorgan":1931,"Ġrun":1932,"Ġoper":1933,"Ġsimilar":1934,"Ġfull":1935,"Ġmil":1936,"Ġdaughter":1937,"Ġbit":1938,"fer":1939,"ished":1940,"Ġabnormal":1941,"Ġmedications":1942,"Ġmanagement":1943,"You":1944,"ĠYour":1945,"Ġmid":1946,"Ġmade":1947,"Ġhealthy":1948,"ography":1949,"Ġdam":1950,"Ġsupport":1951,"uman":1952,"opy":1953,"Ġreduce":1954,"ling":1955,"Ġweak":1956,"Ġlab":1957,"ronch":1958,"Ġtop":1959,"Ġill":1960,"Ġmen":1961,"na":1962,"dd":1963,"Ġviral":1964,"Ġcame":1965,"medi":1966,"rologist":1967,"Ġreaction":1968,"ules":1969,"reg":1970,"Ġmat":1971,"Ġsing":1972,"etic":1973,"Ġbacter":1974,"Ġcontinu":1975,"ots":1976,"Ġ24":1977,"Ġbecome":1978,"ividual":1979,"Ġdoub":1980,"care":1981,"elt":1982,"any":1983,"wn":1984,"Ġcult":1985,"Ġcurrent":1986,"Ġalcohol":1987,"ĠHealth":1988,"ĠNow":1989,"Ġthro":1990,"Ġactivity":1991,"Ġster":1992,"Ġsoon":1993,"Ġbur":1994,"Ġface":1995,"Ġwhite":1996,"ects":1997,"asm":1998,"Ġdoing":1999,"ened":2000,"Ġgu":2001,"Ġevaluation":2002,"Ġmass":2003,"inc":2004,"itor":2005,"Ġfemale":2006,"ollen":2007,"self":2008,"ality":2009,"Ġlight":2010,"ability":2011,"iness":2012,"be":2013,"Ġconcerns":2014,"Ġlook":2015,"arch":2016,"Ġfall":2017,"rate":2018,"Ġreview":2019,"urg":2020,"Ġhalf":2021,"par":2022,"gar":2023,"ĠAb":2024,"Ġair":2025,"Ġ?":2026,"ained":2027,"icien":2028,"Ġcontinue":2029,"tes":2030,"ĠAll":2031,"ĠCom":2032,"ertain":2033,"Ġthing":2034,"Ġsyndrome":2035,"Ġbreath":2036,"Ġspine":2037,"Ġmentioned":2038,"und":2039,"Ġchange":2040,"Ġthanks":2041,"Ġeffective":2042,"Ġlung":2043,"ĠAvoid":2044,"Ġwel":2045,"Ġtumor":2046,"Ġactive":2047,"stru":2048,"Ġpred":2049,"Ġeat":2050,"Ġpa":2051,"Ġknee":2052,"As":2053,"Ġplan":2054,"Ġdiseases":2055,"Ġsore":2056,"terior":2057,"Ġ--":2058,"Ġrecept":2059,"pecially":2060,"Ġtech":2061,"Ġindividual":2062,"uck":2063,"ĠAN":2064,"ĠRe":2065,"Ġsurgeon":2066,"Ġap":2067,"ynec":2068,"Ġslight":2069,"Ġregard":2070,"Ġcream":2071,"Ġfactors":2072,"ife":2073,"ci":2074,"Ġproced":2075,"ross":2076,"ted":2077,"imal":2078,"ES":2079,"onsult":2080,"Ġstat":2081,"Ġwon":2082,"ential":2083,"Ġwhether":2084,"ucle":2085,"aling":2086,"aine":2087,"ges":2088,"Ġclass":2089,"Ġdont":2090,"men":2091,"ascular":2092,"Ġassess":2093,"Ġprof":2094,"Ġleast":2095,"ather":2096,"Ġemerg":2097,"EN":2098,"Ġresponse":2099,"Ġmother":2100,"Ġvitamin":2101,"Ġinfections":2102,"Ġlip":2103,"Ġang":2104,"ĠAny":2105,"Ġdoctors":2106,"Ġregion":2107,"ritis":2108,"Ġindu":2109,"Ġpoly":2110,"Ġvisit":2111,"Ġavailable":2112,"Ġparticular":2113,"Ġhigher":2114,"hem":2115,"ber":2116,"ĠDear":2117,"Ġnoticed":2118,"Ġ50":2119,"utes":2120,"Ġconditions":2121,"000":2122,"ĠAmerican":2123,"AS":2124,"ah":2125,"Ġcharacter":2126,"Ġacute":2127,"ward":2128,"Ġfoot":2129,"Ġcardiac":2130,"ĠNo":2131,"Ġstool":2132,"ird":2133,"Ġanalysis":2134,"Ġinhib":2135,"Ġide":2136,"Ġmethod":2137,"15":2138,"Ġopt":2139,"ĠCT":2140,"ĉĉ":2141,"my":2142,"ste":2143,"Ġconcerned":2144,"ider":2145,"Ġpenis":2146,"Ġfelt":2147,"Ġswollen":2148,"Ġstruct":2149,"Ġheav":2150,"por":2151,"Ġdys":2152,"Ġthings":2153,"Ġthroat":2154,"ĠBl":2155,"ermat":2156,"Regards":2157,"Ġprevious":2158,"Ġmm":2159,"Ġcomplic":2160,"ived":2161,"Ġserious":2162,"zz":2163,"Ġbronch":2164,"Ġqueries":2165,"Ġcertain":2166,"lex":2167,"go":2168,"Ġspecialist":2169,"Ġasp":2170,"wh":2171,"apt":2172,"ental":2173,"Ġpoint":2174,"chan":2175,"Ġpub":2176,"Ġthyroid":2177,"Ġwelcome":2178,"Ġshowed":2179,"Ġmale":2180,"ĠAd":2181,"Ġthin":2182,"Ġcannot":2183,"Ġinflammation":2184,"irth":2185,"inary":2186,"Ġfac":2187,"iciency":2188,"Ġinjection":2189,"Ġcirc":2190,"AT":2191,"OR":2192,"Ġworse":2193,"ĠGen":2194,"Ġdeveloped":2195,"Ġcompl":2196,"ott":2197,"ches":2198,"bl":2199,"olar":2200,"iatric":2201,"Ġhypert":2202,"edic":2203,"Ġhyd":2204,"Ġblock":2205,"Ġmultiple":2206,"Ġdos":2207,"to":2208,"Ġbed":2209,"ocaine":2210,"Ġrash":2211,"Ġgrowth":2212,"Ġ198":2213,"rel":2214,"Ġtrying":2215,"Ġbelow":2216,"Ġconcent":2217,"Ġver":2218,"Ġnecess":2219,"11":2220,"Ġeff":2221,"Ġsitu":2222,"Ġz":2223,"Ġdiabetes":2224,"Ġox":2225,"Ġespecially":2226,"ĠEx":2227,"Ġelev":2228,"AL":2229,"Ġsoft":2230,"raph":2231,"Ġreports":2232,"âĢĶ":2233,"Ġprop":2234,"Ġthought":2235,"Ġpow":2236,"emia":2237,"Ġtablet":2238,"Ġdevelopment":2239,"olec":2240,"oy":2241,"eng":2242,"Ġdata":2243,"Ġvag":2244,"It":2245,"ivity":2246,"Ġcycle":2247,"Ġgum":2248,"ler":2249,"ume":2250,"ĠSince":2251,"Ġline":2252,"ogn":2253,"Ġallergic":2254,"Ġchildren":2255,"Ġsingle":2256,"reen":2257,"monary":2258,"ify":2259,"Ġoccurs":2260,"Ġposition":2261,"Ġfriend":2262,"Ġextre":2263,"Ġ-->":2264,"Ġconfirm":2265,"vic":2266,"roll":2267,"YY":2268,"asing":2269,"Ġrepe":2270,"ĠSp":2271,"Ġcoun":2272,"zym":2273,"Ġcomes":2274,"opsy":2275,"Ġdetails":2276,"hip":2277,"Ġasth":2278,"ification":2279,"Ġvari":2280,"Ġdepression":2281,"Ġreported":2282,"Ġer":2283,"Ġdentist":2284,"Ġgall":2285,"Ġ40":2286,"Ġstate":2287,"Ġsurgical":2288,"Ġstage":2289,"idered":2290,"Ġplace":2291,"nd":2292,"Ġprom":2293,"AN":2294,"Ġpossibility":2295,"Ġmagic":2296,"Ġlegs":2297,"raction":2298,"inus":2299,"ĠLe":2300,"--":2301,"Ġname":2302,"Ġconsidered":2303,"Ġcouple":2304,"oks":2305,"isc":2306,"Ġmast":2307,"Ġprol":2308,"Ġdamage":2309,"Ġcompletely":2310,"Ġprobably":2311,"Ġapply":2312,"Ġdeterm":2313,"Ġdefin":2314,"Ġrelax":2315,"Ġsafe":2316,"Ġminutes":2317,"Ġtablets":2318,"Ġnerv":2319,"rict":2320,"ccess":2321,"att":2322,"Ġcerv":2323,"Ġorig":2324,"acc":2325,"opl":2326,"ator":2327,"que":2328,"by":2329,"ĠPhys":2330,"Ġalthough":2331,"jac":2332,"Ġwriting":2333,"Ġhot":2334,"side":2335,"Ġrout":2336,"ĠInd":2337,"Ġsuper":2338,"Ġagainst":2339,"Ġcap":2340,"ush":2341,"Ġrecovery":2342,"rodu":2343,"Ġmuscles":2344,"14":2345,"uff":2346,"Ġsus":2347,"Ġ]":2348,"Ġ\\":2349,"Ġinside":2350,"Ġserum":2351,"rated":2352,"app":2353,"Ġbreathing":2354,"Ġallow":2355,"ense":2356,"isod":2357,"amine":2358,"Ġtou":2359,"Ġwalk":2360,"Ġsubst":2361,"ring":2362,"Ġimmedi":2363,"Ġcomplex":2364,"Ġprimary":2365,"ĠOr":2366,"Ġyrs":2367,"Ġperson":2368,"25":2369,"Ġpal":2370,"Ġwhy":2371,"Ġsch":2372,"Ġcyt":2373,"ible":2374,"13":2375,"oly":2376,"OU":2377,"ience":2378,"oids":2379,"let":2380,"esterday":2381,"set":2382,"Ġgave":2383,"ival":2384,"Ġbirth":2385,"vice":2386,"Ġallergy":2387,"ready":2388,"TH":2389,"Ġsupple":2390,"Ġnose":2391,"Ġlet":2392,"Ġdermat":2393,"ission":2394,"Ġamong":2395,"Ġemergency":2396,"'m":2397,"Ġmuc":2398,"Ġissues":2399,"ĠDe":2400,"Ġinterv":2401,"Ġperformed":2402,"Ġsugar":2403,"Ġsite":2404,"Ġhurts":2405,"):":2406,"rac":2407,"IC":2408,"ressive":2409,"Ġpract":2410,"ĠSe":2411,"oke":2412,"Ġmechan":2413,"Ġfast":2414,"aled":2415,"Ġstopp":2416,"Ġeye":2417,"ĠZ":2418,"Ġepisod":2419,"Ġpains":2420,"Ġpri":2421,"Ġdelay":2422,"Ġmolec":2423,"Ġresol":2424,"ars":2425,"Ġalready":2426,"Ġtotal":2427,"Ġsurf":2428,"rin":2429,"Ġpills":2430,"like":2431,"Ġmark":2432,"Ġlesions":2433,"Ġadvised":2434,"Ġrenal":2435,"18":2436,"Ġvol":2437,"iratory":2438,"Ġstrong":2439,"Ġvomiting":2440,"Ġrece":2441,"Thank":2442,"AR":2443,"Ġfailure":2444,"ulated":2445,"ĠOther":2446,"Ġclar":2447,"asis":2448,"ield":2449,"Ġcat":2450,"osure":2451,"Ġfil":2452,"Take":2453,"rane":2454,"Ġbiopsy":2455,"Ġtract":2456,"ulin":2457,"Ġsuggested":2458,"Ġown":2459,"Ġdoesn":2460,"verse":2461,"Ġareas":2462,"Ġmeans":2463,"Ġenzym":2464,"uration":2465,"Ġaffected":2466,"ĠCon":2467,"ounds":2468,"Ġdisorders":2469,"roph":2470,"ID":2471,"ĠBe":2472,"Ġrib":2473,"Ġbro":2474,"rown":2475,"50":2476,"Ġnat":2477,"Ġnecessary":2478,"hea":2479,"Ġshown":2480,"Ġproteins":2481,"ortic":2482,"Ġrare":2483,"Ġdeep":2484,"Ġpersist":2485,"Ġexample":2486,"Ġcrit":2487,"Ġasking":2488,"ulate":2489,"ĠII":2490,"Ġheadache":2491,"Ġhurt":2492,"ĠGood":2493,"ĠPro":2494,"Ġrese":2495,"rh":2496,"erative":2497,"ands":2498,"Ġfollic":2499,"Ġpur":2500,"ĠConsult":2501,"umps":2502,"ressed":2503,"lob":2504,"Ġuter":2505,"Ġasthma":2506,"ari":2507,"Ġclose":2508,"ork":2509,"Ġcolon":2510,"Ġcho":2511,"ĠEng":2512,"ional":2513,"Ġbil":2514,"Ġexercises":2515,"Ġfin":2516,"dle":2517,"Ġculture":2518,"aring":2519,"Ġproduct":2520,"atitis":2521,"ropri":2522,"Ġdu":2523,"Ġorder":2524,"Ġdisch":2525,"Ġmostly":2526,"CG":2527,"ĠDi":2528,"Ġspread":2529,"Ġthor":2530,"Ġmaintain":2531,"erved":2532,"sequ":2533,"Ġwarm":2534,"Ġvirus":2535,"Ġquite":2536,"Ġsmoking":2537,"ĠPl":2538,"Ġmilk":2539,"con":2540,"Ġmetab":2541,"ores":2542,"Ġshows":2543,"Ġdoc":2544,"ED":2545,"Ġbladder":2546,"Ġexcess":2547,"Ġdear":2548,"lish":2549,"Ġdry":2550,"ux":2551,"Ġissue":2552,"Ġdizz":2553,"Ġstim":2554,"Ġsudd":2555,"Ġbu":2556,"akes":2557,"Ġheavy":2558,"Ġsuccess":2559,"rection":2560,"Ġrange":2561,"16":2562,"Ġplac":2563,"Ġjoint":2564,"Ġwis":2565,"osing":2566,"iatrist":2567,"Ġhuman":2568,"Ġ'":2569,"oscopy":2570,"Ġdeath":2571,"Ġcocaine":2572,"Ġsudden":2573,"stet":2574,"arian":2575,"Ġslow":2576,"17":2577,"Ġwait":2578,"Ġturn":2579,"Ġnucle":2580,"Ġsinus":2581,"onia":2582,"ĠWith":2583,"ouse":2584,"Ġfollowed":2585,"Ġgluc":2586,"Ġphysi":2587,"Ġgets":2588,"Ġpel":2589,"ending":2590,"Ġevaluated":2591,"omes":2592,"gr":2593,"Ġadditional":2594,"ologic":2595,"ensive":2596,"ĠCol":2597,"Ġtried":2598,"acks":2599,"minist":2600,"Ġextreme":2601,"Ġlesion":2602,"Ġneur":2603,"Ġearli":2604,"Ġvarious":2605,"Ġregards":2606,"!!":2607,"Ġprocedure":2608,"Ġeas":2609,"ats":2610,"ik":2611,"Ġelse":2612,"sp":2613,"Ġdescribed":2614,"ril":2615,"Ġpresence":2616,"Ġenl":2617,"Ġlay":2618,"af":2619,"otic":2620,"ĠSome":2621,"ĠQ":2622,"Ġcr":2623,"Ġsays":2624,"aneous":2625,"Ġnause":2626,"Ġfather":2627,"Ġroot":2628,"Ġreduced":2629,"Ġmut":2630,"Ġchol":2631,"Ġclean":2632,"Ġitch":2633,"IS":2634,"ries":2635,"Ġfeet":2636,"Ġself":2637,"arp":2638,"Ġwrong":2639,"Ġ197":2640,"aging":2641,"ters":2642,"Ġgoes":2643,"Ġchecked":2644,"Ġillness":2645,"Ġcombination":2646,"Ġattack":2647,"Ġcontrace":2648,"BC":2649,"Ġinvestigations":2650,"Ġprec":2651,"ivers":2652,"Ġul":2653,"Ġshoulder":2654,"ĠAnt":2655,"ae":2656,"Ġrespiratory":2657,"Ġconstant":2658,"Ġtill":2659,"Ġwonder":2660,"Ġbehav":2661,"ograph":2662,"Ġexact":2663,"ann":2664,"lying":2665,"cell":2666,"30":2667,"neum":2668,"ising":2669,"uture":2670,"ĠAND":2671,"rogen":2672,"Ġequ":2673,"Ġaccordingly":2674,"Ġmoder":2675,"ĠShould":2676,"Ġconsider":2677,"Ġbeg":2678,"Ġseiz":2679,"Ġbow":2680,"Ġbelie":2681,"Ġexperiencing":2682,"Ġcervical":2683,"right":2684,"Ġfact":2685,"Ġtraum":2686,"ediatric":2687,"ING":2688,"ĠAp":2689,"Ġfet":2690,"Ġbig":2691,"Ġwhole":2692,"Ġmasturb":2693,"Ġyoung":2694,"Ġsensation":2695,"Ġcur":2696,"Ġ}":2697,"Ġfore":2698,"Ġtechni":2699,"oster":2700,"Ġstone":2701,"Ġirrit":2702,"Ġhypertension":2703,"Ġfive":2704,"Ġbenef":2705,"hyd":2706,"Ġundergo":2707,"Ġanswers":2708,"Ġmicro":2709,"Ġsurv":2710,"wards":2711,"cribe":2712,"ĠUS":2713,"vir":2714,"Ġyesterday":2715,"aps":2716,"Ġfigure":2717,"aking":2718,"aches":2719,"ored":2720,"Ġappropri":2721,"mitt":2722,"âĢĿ":2723,"ĠWh":2724,"Ġlun":2725,"Ġsituation":2726,"ables":2727,"Ġfing":2728,"Ġlate":2729,"Ġcompared":2730,"itate":2731,"Ġflu":2732,"Ġappears":2733,"hyl":2734,"Ġroutine":2735,"hel":2736,"ĠNew":2737,"itation":2738,"Ġsexual":2739,"Ġfract":2740,"for":2741,"osph":2742,"Ġstren":2743,"Ġvess":2744,"Ġgenerally":2745,"rib":2746,"ergy":2747,"ecause":2748,"Ġmater":2749,"oin":2750,"Ġcommonly":2751,"Ġconce":2752,"Ġsusp":2753,"Ġra":2754,"Ġfron":2755,"Ġspinal":2756,"Ġwife":2757,"Ġenough":2758,"here":2759,"rial":2760,"Ġfindings":2761,"itivity":2762,"Ġgene":2763,"Ġinflammatory":2764,"raz":2765,"Ġsurface":2766,"Ġvent":2767,"Ġbru":2768,"Ġcure":2769,"LE":2770,"Ġrefer":2771,"Ġinfected":2772,"Ġcorrect":2773,"romb":2774,"Ġartery":2775,"rof":2776,"son":2777,"full":2778,"Ġuseful":2779,"head":2780,"ison":2781,"xim":2782,"ortion":2783,"Ġworking":2784,"Ġsix":2785,"rid":2786,"ĠUnited":2787,"Ġmiss":2788,"Ġsemen":2789,"sible":2790,"Ġelevated":2791,"Ġdro":2792,"lished":2793,"Ġthank":2794,"Ġgastro":2795,"Ġdeficiency":2796,"Ġrepl":2797,"Ġcut":2798,"vi":2799,"ister":2800,"Ġrole":2801,"Ġeating":2802,"OS":2803,"ungal":2804,"Ġchances":2805,"Ġregarding":2806,"Ġsequ":2807,"ĠMost":2808,"Ġsigns":2809,"Ġyet":2810,"Ġprovide":2811,"ĠThen":2812,"Ġrele":2813,"Ġgiving":2814,"Ġstep":2815,"vern":2816,"Ġburning":2817,"och":2818,"Ġdom":2819,"yle":2820,"Ġswe":2821,"Ġemb":2822,"Ġresist":2823,"Ġdischarge":2824,"Ġorth":2825,"wise":2826,"Ġstopped":2827,"year":2828,"anc":2829,"Ġintra":2830,"Ġhip":2831,"Ġamount":2832,"Ġspot":2833,"Ġdrink":2834,"ĠFe":2835,"ĠPar":2836,"Ġadminist":2837,"ĠIN":2838,"Ġpercent":2839,"Ġsimple":2840,"urop":2841,"Ġpsychiatrist":2842,"Ġitself":2843,"Ġblack":2844,"Ġluck":2845,"isms":2846,"ean":2847,"Ġbecame":2848,"Ġrap":2849,"Ġsolution":2850,"Ġdiarr":2851,"Ġpopulation":2852,"Ġchance":2853,"Ġevidence":2854,"Ġflow":2855,"Ġhell":2856,"Ġulcer":2857,"uled":2858,"omp":2859,"Ġdetected":2860,"omic":2861,"ds":2862,"ĠSc":2863,"ĠTO":2864,"Ġconsulting":2865,"Ġopen":2866,"ai":2867,"Ġwall":2868,"Ġovulation":2869,"ez":2870,"Ġsick":2871,"Ġtemper":2872,"see":2873,"Ġitching":2874,"Ġbal":2875,"ptive":2876,"rolled":2877,"ead":2878,"Ġfuture":2879,"angu":2880,"ĠER":2881,"reatment":2882,"uk":2883,"Ġcere":2884,"itary":2885,"resent":2886,"lor":2887,"Ġfrequent":2888,"Ġ...":2889,"Ġincreasing":2890,"lication":2891,"Ġplate":2892,"Ġ28":2893,"Ġ21":2894,"\".":2895,"aly":2896,"oglob":2897,"ĠAc":2898,"Ġtreating":2899,"Ġformation":2900,"opathy":2901,"Ġmonitor":2902,"ched":2903,"Ġappropriate":2904,"ĠApp":2905,"Ġfrequently":2906,"Ġok":2907,"Ġ22":2908,"Ġurinary":2909,"Ġinterc":2910,"rences":2911,"ams":2912,"Ġfoods":2913,"acy":2914,"Ġgroups":2915,"Ġeyes":2916,"Ġvalu":2917,"iver":2918,"Ġlooks":2919,"Ġstay":2920,"function":2921,"Ġcoming":2922,"ier":2923,"Ġtouch":2924,"ontin":2925,"Ġconn":2926,"Ġtrig":2927,"aged":2928,"Ġpanc":2929,"Ġsecondary":2930,"ongue":2931,"Ġejac":2932,"port":2933,"Ġspe":2934,"nia":2935,"Ġcolle":2936,"Ġimmediately":2937,"odies":2938,"Ġmiddle":2939,"Ġkill":2940,"raw":2941,"ula":2942,"Ġrelative":2943,"ometimes":2944,"Ġexperience":2945,"ifications":2946,"atin":2947,"Ġservice":2948,"Ġiron":2949,"arged":2950,"Ġfar":2951,"ribut":2952,"ocial":2953,"Ġrecommended":2954,"Ġrather":2955,"ormally":2956,"Ġobserved":2957,"ended":2958,"ateral":2959,"Ġ+":2960,"ets":2961,"Ġmembrane":2962,"Ġtal":2963,"Ġleading":2964,"Ġpoor":2965,"atures":2966,"ĠTo":2967,"Ġ..":2968,"Ġsecret":2969,"Ġhormone":2970,"Ġpus":2971,"ms":2972,"Ġpneum":2973,"OM":2974,"Ġeverything":2975,"Ġhands":2976,"anced":2977,"Ġhes":2978,"Ġcoll":2979,"lo":2980,"ĠPC":2981,"estinal":2982,"upt":2983,"Ġworld":2984,"istic":2985,"Ġtongue":2986,"Ġpattern":2987,"Ġcomm":2988,"Ġaction":2989,"ĠCould":2990,"ternal":2991,"ĠâĢľ":2992,"Ġreal":2993,"ĠĠĠĠĠĠĠĠĠĠĠĠĠĠĠĠ":2994,"OT":2995,"Ġthus":2996,"Ġtab":2997,"Ġprost":2998,"Ġanalges":2999,"Ġimmune":3000,"Ġintake":3001,"Ġcolor":3002,"Ġsharp":3003,"Ġcomplications":3004,"Ġml":3005,"ton":3006,"Ġthick":3007,"oe":3008,"used":3009,"ject":3010,"Ġrapid":3011,"Ġegg":3012,"hest":3013,"Ġupon":3014,"Ġagg":3015,"rag":3016,"Ġexcept":3017,"Ġguid":3018,"ids":3019,"Ġexposure":3020,"asal":3021,"rine":3022,"Ġconsist":3023,"Ġappre":3024,"Ġproduction":3025,"ĠGeneral":3026,"Ġtight":3027,"Ġdecrease":3028,"Ġ26":3029,"Ġ196":3030,"ĠÎ":3031,"rum":3032,"Ġnausea":3033,"Ġlarg":3034,"ote":3035,"Ġnut":3036,"ĠWishing":3037,"Ġure":3038,"kill":3039,"Ġpulmonary":3040,"Ġtired":3041,"Ġview":3042,"flamm":3043,"eration":3044,"ĠOne":3045,"Ġadult":3046,"bo":3047,"Ġenc":3048,"Ġmo":3049,"cal":3050,"Ġbind":3051,"Ġhello":3052,"ĠBP":3053,"ynecologist":3054,"ema":3055,"asma":3056,"Ġ60":3057,"Ġank":3058,"ĠBecause":3059,"mm":3060,"bal":3061,"Ġestab":3062,"Ġfoc":3063,"Ġmill":3064,"FT":3065,"Ġrecent":3066,"bral":3067,"Ġbacterial":3068,"ĠOb":3069,"EL":3070,"astic":3071,"ocytes":3072,"Ġdirectly":3073,"olit":3074,"ball":3075,"Ġtypes":3076,"ĠPh":3077,"Ġwalking":3078,"azole":3079,"Ġnatural":3080,"Ġwondering":3081,"Ġothers":3082,"Ġaltern":3083,"bit":3084,"Ġlost":3085,"Ġstatus":3086,"Ġstones":3087,"Ġslightly":3088,"ger":3089,"Ġphen":3090,"ĠHis":3091,"Ġincreases":3092,"rim":3093,"Ġfatty":3094,"andom":3095,"mor":3096,"Ġtesting":3097,"Ġtakes":3098,"amet":3099,"Ġech":3100,"Ġorigin":3101,"ils":3102,"ĠStates":3103,"ĠBest":3104,"Ġdemon":3105,"Ġ23":3106,"Ġcm":3107,"urs":3108,"ptic":3109,"Ġindividuals":3110,"epend":3111,"Ġdoubts":3112,"Ġdiv":3113,"thritis":3114,"Ġdermatologist":3115,"rosis":3116,"Ġmix":3117,"ĠAL":3118,"Ġcommun":3119,"Ġcalcium":3120,"Ġnor":3121,"Ġsolved":3122,"Ġlonger":3123,"Ġsat":3124,"acet":3125,"term":3126,"Ġinvolved":3127,"ĠBrit":3128,"more":3129,"rote":3130,"Ġsir":3131,"Ġcram":3132,"Ġinflu":3133,"Ġbowel":3134,"Ġreturn":3135,"fully":3136,"Ġsound":3137,"ĠHer":3138,"Ġlungs":3139,"Ġpotential":3140,"esterol":3141,"Ġstreng":3142,"Ġcurrently":3143,"Ġcant":3144,"icient":3145,"rav":3146,"ember":3147,"ques":3148,"Ġlive":3149,"indly":3150,"40":3151,"ha":3152,"Ġdemonst":3153,"Ġmovement":3154,"Ġmom":3155,"oxic":3156,"Ġappreci":3157,"Ġtissues":3158,"Ġdiscom":3159,"struction":3160,"Ġweakness":3161,"Welcome":3162,"iter":3163,"Ġlack":3164,"estion":3165,"oon":3166,"ĠAlthough":3167,"Ġdiarrhea":3168,"Ġsour":3169,"Ġreceptor":3170,"Ġconc":3171,"raft":3172,"Ġtrauma":3173,"omas":3174,"Ġexplain":3175,"Ġexpression":3176,"Ġdiscomfort":3177,"Ġdidn":3178,"Ġdefinite":3179,"Ġparticularly":3180,"Ġtested":3181,"Ġray":3182,"ĠIts":3183,"ĠECG":3184,"irl":3185,"ipher":3186,"arc":3187,"Ġintercourse":3188,"overed":3189,"Ġreasons":3190,"Ġdark":3191,"Ġwish":3192,"oval":3193,"lin":3194,"Fig":3195,"Ġlig":3196,"Ġglucose":3197,"verage":3198,"Ġregularly":3199,"put":3200,"Ġposting":3201,"Ġdrin":3202,"Ġstarting":3203,"enty":3204,"Ġtumors":3205,"Ġreve":3206,"Ġevent":3207,"ĠJust":3208,"Ġlangu":3209,"Ġenergy":3210,"Ġduration":3211,"SA":3212,"ĠTHE":3213,"Ġ27":3214,"Ġthird":3215,"plant":3216,"Ġanemia":3217,"Ġdri":3218,"Ġever":3219,"ĠSurg":3220,"Ġearlier":3221,"over":3222,"ĠRec":3223,"Ġfront":3224,"\",":3225,"Ġconcept":3226,"icy":3227,"Ġsam":3228,"Ġter":3229,"arily":3230,"Ġtarg":3231,"Ġstro":3232,"ames":3233,"fect":3234,"Ġprior":3235,"ertility":3236,"Ġtox":3237,"Ġwat":3238,"icial":3239,"Ġexamined":3240,"Ġmakes":3241,"erous":3242,"Ġaw":3243,"arb":3244,"Ġinitial":3245,"Ġagents":3246,"Ġvers":3247,"Ch":3248,"Ġcontraceptive":3249,"Ġbase":3250,"Ġschool":3251,"ensity":3252,"Ġbott":3253,"pped":3254,"CT":3255,"ached":3256,"Ġvalues":3257,"Ġdesign":3258,"Ġinternal":3259,"Ġhepatitis":3260,"ĠAf":3261,"Ġach":3262,"ĠHealthcare":3263,"amol":3264,"Ġcreat":3265,"Ġcost":3266,"regular":3267,"Ġgrad":3268,"Ġdeg":3269,"rosc":3270,"Ġcry":3271,"Ġfru":3272,"Ġhypot":3273,"Ġunp":3274,"Ġrelations":3275,"Ġsteroid":3276,"sc":3277,"Ġreviewed":3278,"Ġcentral":3279,"Ġtemperature":3280,"Ġcondu":3281,"ĠPhysician":3282,"ift":3283,"Ġcontinuous":3284,"ĠBy":3285,"Ġcanal":3286,"Ġdil":3287,"So":3288,"amed":3289,"Ġhormonal":3290,"igen":3291,"Ġhesitate":3292,"ĠIV":3293,"Ġjaw":3294,"Ġmalign":3295,"mp":3296,"Ġthromb":3297,"mber":3298,"Ġclot":3299,"OD":3300,"Ġtherefore":3301,"Ġgreen":3302,"sh":3303,"inflamm":3304,"aries":3305,"Ġsensitivity":3306,"Ġhemat":3307,"ze":3308,"Ġmeasure":3309,"'ve":3310,"Ġhappened":3311,"Ġcysts":3312,"active":3313,"aster":3314,"ament":3315,"ĠWill":3316,"AD":3317,"Ġnodes":3318,"Ġ29":3319,"Ġdysfunction":3320,"Ġhappen":3321,"ĠHave":3322,"Ġ<":3323,"ilt":3324,"Ġcomplain":3325,"Ġunderlying":3326,"ĠGet":3327,"Ġobtain":3328,"viron":3329,"Ġrandom":3330,"ĠFirst":3331,"Ġinvolve":3332,"ĠDNA":3333,"Ġcav":3334,"io":3335,"ellow":3336,"orrh":3337,"ĠPre":3338,"Ġrecur":3339,"mitted":3340,"Ġabscess":3341,"erest":3342,"Ġdifficulty":3343,"you":3344,"urgeon":3345,"asion":3346,"ximately":3347,"Ġbehavior":3348,"ogram":3349,"ĠSometimes":3350,"Ġcholesterol":3351,"ny":3352,"equ":3353,"ength":3354,"Ġdoubt":3355,"ectomy":3356,"ostic":3357,"opath":3358,"ipation":3359,"rox":3360,"Ġfill":3361,"enter":3362,"Ġoxy":3363,"Ġinsulin":3364,"what":3365,"ĠĠĠ":3366,"Ġder":3367,"lied":3368,"Ġmaking":3369,"ET":3370,"ĠRep":3371,"Ġveget":3372,"ives":3373,"PT":3374,"Ġcompon":3375,"Ġ35":3376,"ode":3377,"hyth":3378,"Ġdescription":3379,"hist":3380,"200":3381,"rofen":3382,"Ġnumbness":3383,"Ġthorough":3384,"jects":3385,"Ġcompression":3386,"Ġvalue":3387,"lant":3388,"Ġrecogn":3389,"Ġstandard":3390,"ĠNeu":3391,"Ġcontrast":3392,"lected":3393,"ĠDon":3394,"Ġassessment":3395,"Ġhighly":3396,"Ġsqu":3397,"Ġsepar":3398,"Ġbegin":3399,"imum":3400,"Ġdisturb":3401,"iversity":3402,"Ġscre":3403,"This":3404,"Ġhappens":3405,"Ġbacteria":3406,"Ġplasma":3407,"Ġlabor":3408,"Ġvacc":3409,"ĠSy":3410,"ĠMay":3411,"Ġseverity":3412,"Ġremoval":3413,"ese":3414,"osition":3415,"Ġprofile":3416,"Ġnode":3417,"Ġgirl":3418,"Ġrespond":3419,"CH":3420,"Ġdecreased":3421,"Ġvessels":3422,"Ġfeatures":3423,"Ġmarried":3424,"Ġquick":3425,"Ġopp":3426,"Ġconfirmed":3427,"just":3428,"itud":3429,"Ġbronchitis":3430,"Ġsalt":3431,"Ġproduce":3432,"ĠUs":3433,"Ġdrain":3434,"Ġreceptors":3435,"bup":3436,"olism":3437,"ĠBr":3438,"Ġgums":3439,"Ġprovided":3440,"Ġlin":3441,"oz":3442,"Ġstrain":3443,"rup":3444,"Ġhealthcare":3445,"Ġasked":3446,"Ġfatig":3447,"Ġlimited":3448,"Ġconsum":3449,"Ġmovements":3450,".)":3451,"Ġpull":3452,"VE":3453,"Ġcontaining":3454,"Ġsun":3455,"Ġruled":3456,"Ġrecord":3457,"oglobin":3458,"Ġtrou":3459,"Ġple":3460,"Ġapproach":3461,"Ġinterest":3462,"Ġlift":3463,"Ġinhal":3464,"ument":3465,"24":3466,"Ġinner":3467,"ĠMed":3468,"Ġguide":3469,"Ġharm":3470,"Ġmax":3471,"Ġ2010":3472,"ape":3473,"Ġ500":3474,"hesis":3475,"Ġmental":3476,"Ġgovern":3477,"operative":3478,"Ġmind":3479,"Ġexcessive":3480,"ilities":3481,"ĠChrist":3482,"iff":3483,"Ġwound":3484,"izing":3485,"Ġgenes":3486,"Ġhit":3487,"Ġproperly":3488,"Ġspace":3489,"Ġmodel":3490,"Ġuterus":3491,"ators":3492,"Ġlink":3493,"Ġarms":3494,"Ġgynecologist":3495,"Ġdiss":3496,"Ġax":3497,"Ġdig":3498,"Ġeng":3499,"vent":3500,"ĠCare":3501,"Ġirregular":3502,"ifest":3503,"illin":3504,"Ġvascular":3505,"Ġ>":3506,"Ġestim":3507,"Ġconceive":3508,"Ġcort":3509,"Ġimprovement":3510,"Ġsitting":3511,"Ġaspir":3512,"vironment":3513,"Ġbul":3514,"ĠAug":3515,"time":3516,"iding":3517,"Ġtrain":3518,"Ġinhibit":3519,"lux":3520,"esis":3521,"Ġpediatric":3522,"Ġmig":3523,"Ġliqu":3524,"Ġchemotherapy":3525,"rench":3526,"bing":3527,"ley":3528,"Ġseries":3529,"ĠFig":3530,"ĠNor":3531,"ping":3532,"Ġcity":3533,"ercul":3534,"Ġlif":3535,"mer":3536,"ĠClin":3537,"Ġgenetic":3538,"Ġenzymes":3539,"Ġbasis":3540,"gien":3541,"Ġrelease":3542,"Ġwide":3543,"Ġresearch":3544,"Ġrepresent":3545,"mission":3546,"ype":3547,"Ġstroke":3548,"acetamol":3549,"sel":3550,"buprofen":3551,"ĠWor":3552,"ĠFrom":3553,"Ġart":3554,"Ġpower":3555,"Ġremove":3556,"ĠEurop":3557,"ipheral":3558,"ians":3559,"helial":3560,"Ġsignificantly":3561,"Ġexclud":3562,"21":3563,"ĠIS":3564,"Ġauth":3565,"Ġnasal":3566,"23":3567,"Ġoutside":3568,"ĠYes":3569,"Ġmetast":3570,"Ġtoget":3571,"Ġforms":3572,"Ġnormally":3573,"Ġdefinitely":3574,"ices":3575,"alysis":3576,"Ġoption":3577,"ĠReg":3578,"Ġtogether":3579,"Ġradiation":3580,"Ġposterior":3581,"Ġelectro":3582,"ori":3583,"Ġduct":3584,"Ġrates":3585,"Ġcontrolled":3586,"Ġphase":3587,"Ġting":3588,"Ġcoughing":3589,"Ġbreak":3590,"Ġbegan":3591,"Ġoil":3592,"Ġcord":3593,"Ġrequires":3594,"OL":3595,"Ġcentury":3596,"ĠHy":3597,"Ġitchy":3598,"Ġann":3599,"Ġentire":3600,"Ġmenstru":3601,"Ġincluded":3602,"Ġhealing":3603,"ĠDuring":3604,"Ġtempor":3605,"Ġchrom":3606,"Ġlumb":3607,"Ġstarts":3608,"80":3609,"arri":3610,"Ġtestic":3611,"Ġproducts":3612,"Ġnerves":3613,"Ġepisodes":3614,"Ġneurologist":3615,"TION":3616,"Ġanterior":3617,"Ġpneumonia":3618,"Please":3619,"Ġfix":3620,"Ġloose":3621,"Ġcarcin":3622,"Ġsurvival":3623,"Ġhygien":3624,"Ġpersonal":3625,"ĠHIV":3626,"Ġidea":3627,"orts":3628,"Ġtarget":3629,"Ġroom":3630,"Ġresulting":3631,"iated":3632,"Ġheight":3633,"Ġsocial":3634,"inflammatory":3635,"ivery":3636,"Ġgreater":3637,"Ġrespective":3638,"ĠST":3639,"AM":3640,"Ġclarifications":3641,"tt":3642,"ek":3643,"Ġsupplements":3644,"Ġdrops":3645,"Ġmit":3646,"ÂłÂłÂłÂł":3647,"Ġthigh":3648,"inct":3649,"Ġleads":3650,"Ġven":3651,"Ġlooking":3652,"Ġtender":3653,"Ġovarian":3654,"Ġcountry":3655,"Ġpelvic":3656,"Ġacross":3657,"Ġankle":3658,"ĠObstet":3659,"Ġmasturbation":3660,"Ġlaw":3661,"Ġing":3662,"ackage":3663,"Ġdepends":3664,"Ġfracture":3665,"weight":3666,"Ġgas":3667,"ĠEnglish":3668,"de":3669,"osa":3670,"Ġess":3671,"Ġspots":3672,"ned":3673,"ana":3674,"Ġtransplant":3675,"allow":3676,"ĠNot":3677,"Ġpanic":3678,"ĠTreatment":3679,"Ġcontains":3680,"Ã©":3681,"Ġextremely":3682,"Ġidentified":3683,"pit":3684,"while":3685,"ying":3686,"Ġstructure":3687,"aces":3688,"Ġminor":3689,"Ġthinking":3690,"ĠRes":3691,"rotected":3692,"ĠAS":3693,"Ġdoses":3694,"Ġsample":3695,"Ġyr":3696,"ences":3697,"Ġmaybe":3698,"mentation":3699,"ĠFurther":3700,"Ġ80":3701,"une":3702,"IL":3703,"with":3704,"Ġmaterial":3705,"Ġ2012":3706,"Wish":3707,"Ġalone":3708,"Ġquality":3709,"Ġneurolog":3710,"Ġ2011":3711,"Ġtechniques":3712,"atal":3713,"ĠSch":3714,"ĠMD":3715,"Ġconcentration":3716,"ication":3717,"Ġmeasures":3718,".\"":3719,"Ġoste":3720,"Ġinduced":3721,"My":3722,"Ġvaginal":3723,"ĠSec":3724,"Ġorthop":3725,"Ġpractice":3726,"Ġenlarged":3727,"Al":3728,"Ġwors":3729,"lyc":3730,"ulating":3731,"Ġonset":3732,"Ġachie":3733,"Ġbump":3734,"Ġmem":3735,"Ġaverage":3736,"Ġreduction":3737,"Ġmatter":3738,"Ġpredict":3739,"Ġmeds":3740,"Ġbecomes":3741,"Ġmeals":3742,"Ġactually":3743,"Ġsent":3744,"Ġresistance":3745,"Ġdelivery":3746,"Ġrid":3747,"ohn":3748,"Ġinstead":3749,"ĠGerm":3750,"Ġrelationship":3751,"Ġepit":3752,"60":3753,"rog":3754,"Ġvolume":3755,"Ġactivities":3756,"Ġaff":3757,"Ġhygiene":3758,"Ġnature":3759,"inant":3760,"aria":3761,"Ġadequ":3762,"resh":3763,"ĠAust":3764,"Ġremains":3765,"US":3766,"Ġyourself":3767,"Ġlist":3768,"ĠHist":3769,"Ġmeet":3770,"rat":3771,"Ġapproximately":3772,"Ġboy":3773,"Ġbath":3774,"Ġindicate":3775,"Ġfig":3776,"Ġplenty":3777,"Ġrelieve":3778,"Ġsk":3779,"Ġprescribe":3780,"22":3781,"Ġlat":3782,"Ġproduced":3783,"Ġtube":3784,"oman":3785,"Ġ45":3786,"Ġdiabetic":3787,"pite":3788,"Ġcenter":3789,"Ġmac":3790,"Ġrunning":3791,"90":3792,"Ġunprotected":3793,"eds":3794,"Ġcarb":3795,"nce":3796,"Ġidentify":3797,"Ġbehind":3798,"ĠOF":3799,"Ġgland":3800,"Ġcorrel":3801,"Ġfrequency":3802,"Ġsum":3803,"erculosis":3804,"Ġec":3805,"Ġsymptomatic":3806,"Ġfield":3807,"Ġoxygen":3808,"ĠBritish":3809,"ĠWell":3810,"IG":3811,"ĠCal":3812,"Ġotherwise":3813,"ĠFamily":3814,"Ġball":3815,"Ġremain":3816,"empt":3817,"Ġstre":3818,"ĠWar":3819,"Ġdizziness":3820,"Ġnervous":3821,"Ġfetal":3822,"EC":3823,"ĠThat":3824,",,":3825,"Ġendomet":3826,"Ġimaging":3827,"Ġsection":3828,"Ġreflux":3829,"Ġarthritis":3830,"Ġbenign":3831,"Ġmyself":3832,"oles":3833,"Ġ2013":3834,"Ġfatigue":3835,"Ġwar":3836,"Ġappoint":3837,"enses":3838,"ruction":3839,"Ġpancreat":3840,"resp":3841,"Ġgel":3842,"Ġperipheral":3843,"Ġinvestigation":3844,"Ġincludes":3845,"Ġrecurrent":3846,"Ġcross":3847,"Ġfell":3848,"ĠCar":3849,"Ġseizures":3850,"Ġkg":3851,"ĠMagic":3852,"Ġtypically":3853,"Ġmanifest":3854,"Ġsyrup":3855,"Ġprescription":3856,"orb":3857,"Ġju":3858,"Ġmagn":3859,"Ġcontinued":3860,"Ġdegen":3861,"Ġenvironment":3862,"ĠâĢĺ":3863,"Ġsuggestions":3864,"Ġalright":3865,"hood":3866,"rite":3867,"Ġapplication":3868,"Ġobstruction":3869,"Ġrepeat":3870,"Ġvia":3871,"ĠMedic":3872,"Ġjoin":3873,"Ġspasm":3874,"Ġunable":3875,"Ġsort":3876,"Ġoptions":3877,"Ġhum":3878,"ĠKindly":3879,".....":3880,"ĠOnce":3881,"Ġevening":3882,"Ġhormones":3883,"ino":3884,"Ġmolecules":3885,"Ġfungal":3886,"neys":3887,"ĠEn":3888,"Ġmainly":3889,"Ġpreviously":3890,"usep":3891,"ĠFran":3892,"OP":3893,"Ġdifference":3894,"usepackage":3895,"Ġaf":3896,"amic":3897,"ene":3898,"iving":3899,"aut":3900,"born":3901,"ĠBo":3902,"Ġsensitive":3903,"Ġsuffer":3904,"Ġuncom":3905,"lt":3906,"Ġsynt":3907,"Ġhold":3908,"Ġmonitoring":3909,"Ġsuggests":3910,"inate":3911,"Ġburn":3912,"Ġrespectively":3913,"NT":3914,"Ġthroughout":3915,"Ġmemory":3916,"inine":3917,"Ġquant":3918,"Ġbelieve":3919,"Ġpublic":3920,"asia":3921,"Ġ90":3922,"Ġplus":3923,"Ġsystems":3924,"Ġphot":3925,"Ġreplace":3926,"Ġlength":3927,"Ġparts":3928,"Ġreceived":3929,"Ġoperation":3930,"Ġspecies":3931,"Ġchemical":3932,"Ġphosph":3933,"Ġmillion":3934,"Ġgrade":3935,"ipp":3936,"Ġnoted":3937,"bladder":3938,"itional":3939,"Ġsaline":3940,"Ġindicated":3941,"Ġventric":3942,"iven":3943,"Ġyellow":3944,"Ask":3945,"Ġesoph":3946,"Ġ48":3947,"kg":3948,"mi":3949,"ĠBlood":3950,"ĠYOU":3951,"Ġprogram":3952,"ĠJohn":3953,"Ġattacks":3954,"Ġhemorrh":3955,"ĠGynec":3956,"which":3957,"Ġsleeping":3958,"Ġrepeated":3959,"oday":3960,"cont":3961,"arrow":3962,"omal":3963,"immun":3964,"Ġdosage":3965,"ĠMany":3966,"Ġconv":3967,"amil":3968,"Ġice":3969,"ĠGr":3970,"othing":3971,"eria":3972,"Ġdetailed":3973,"Ġangi":3974,"Ġstudied":3975,"Ġpainkill":3976,"phal":3977,"Ġheadaches":3978,"ulf":3979,"Ġhernia":3980,"48":3981,"oplasm":3982,"tered":3983,"rief":3984,"Ġbottom":3985,"Ġvisual":3986,"Ġapplied":3987,"Ġsystemic":3988,"isf":3989,"27":3990,"IT":3991,"Ġconstipation":3992,"riction":3993,"ml":3994,"Ġsac":3995,"Ġ2009":3996,"can":3997,"Ġlap":3998,"Ġchanged":3999,"work":4000,"oses":4001,"Ġmort":4002,"Ġaccum":4003,"Ġreferred":4004,"di":4005,"onic":4006,"ĠAcc":4007,"ependent":4008,"Ġlateral":4009,"Ġpret":4010,"unt":4011,"Ġwishes":4012,"Ġpolit":4013,"Ġrupt":4014,"Ġdetermine":4015,"Ġscared":4016,"Ġbuild":4017,"emic":4018,"Ġache":4019,"Ġcircum":4020,"Ġreading":4021,"Ġenh":4022,"ĠAD":4023,"Ġperman":4024,"Ġ37":4025,"Ġsaw":4026,"AC":4027,"vis":4028,"edy":4029,"Ġpossibly":4030,"Ġbumps":4031,"Ġeasily":4032,"Ġattention":4033,"Ġfruits":4034,"Ġexperienced":4035,"uls":4036,"Ġimpact":4037,"Ġsubsequ":4038,"ĠAM":4039,"oney":4040,"Ġattempt":4041,"Ġtrad":4042,"Ġpathology":4043,"Ġlocated":4044,"Ġactivation":4045,"ĠMY":4046,"Ġfunctions":4047,"Ġwoke":4048,"Ġdiagnose":4049,"Ġrect":4050,"ĠPer":4051,"Ġgyn":4052,"ĠWorld":4053,"onary":4054,"Ġ70":4055,"Ġpowder":4056,"Ġexist":4057,"Ġwisdom":4058,"leg":4059,"Ġkidneys":4060,"ference":4061,"Ġlanguage":4062,"SH":4063,"ster":4064,"BS":4065,"met":4066,"mic":4067,"ellular":4068,"Ġshowing":4069,"ites":4070,"Ġtowards":4071,"ris":4072,"Ġauto":4073,"Ġtip":4074,"Ġspect":4075,"Ġfluids":4076,"Ġthr":4077,"Ġ33":4078,"Ġ36":4079,"II":4080,"Ġfinding":4081,"Ġvegetables":4082,"Ġmotion":4083,"Ġheal":4084,"Ġprolong":4085,"Ġrise":4086,"ales":4087,"Ġfollows":4088,"amb":4089,"Ġantibodies":4090,"apse":4091,"45":4092,"che":4093,"Ġhelped":4094,"esterone":4095,"ask":4096,"Ġmotor":4097,"Ġbite":4098,"Ġfinger":4099,"cyst":4100,"anding":4101,"range":4102,"Ġparticip":4103,"Ġraised":4104,"Ġrich":4105,"Ġcaps":4106,"aec":4107,"Ġdetect":4108,"ories":4109,"Ġrub":4110,"ĠAugust":4111,"Ġneurop":4112,"Ġsuggestive":4113,"round":4114,"Ġabnormalities":4115,"eared":4116,"Ġgives":4117,"Ġgro":4118,"Ġwithd":4119,"Ġintern":4120,"Ġvein":4121,"Ġdelayed":4122,"Ġevents":4123,"Ġanest":4124,"where":4125,"urch":4126,"Ġhouse":4127,"Ġtrouble":4128,"Ġinteraction":4129,"Ġstret":4130,"Ġeth":4131,"Ġoint":4132,"ofen":4133,"Ġobtained":4134,"Ġcate":4135,"ĠHA":4136,"ocyt":4137,"hetic":4138,"ĠEven":4139,"Ġpack":4140,"Ġtransfer":4141,"utic":4142,"Ġport":4143,"Ġmus":4144,"Ġdepending":4145,"Ġmembers":4146,"unk":4147,"Ġbrown":4148,"fortable":4149,"Ġct":4150,"Ġcong":4151,"lation":4152,"ĠEar":4153,"Ġepid":4154,"ĠCD":4155,"Ġformed":4156,"ĠMet":4157,"Ġdrinking":4158,"ging":4159,"Ġexperim":4160,"Ġyes":4161,"Ġclinic":4162,"ades":4163,"Ġrelatively":4164,"Ġisol":4165,"alp":4166,"Ġwhereas":4167,"vices":4168,"aced":4169,"vant":4170,"oscopic":4171,"ogenic":4172,"ony":4173,"Ġtopical":4174,"omen":4175,"Ġabsence":4176,"Ġcompar":4177,"Ġaden":4178,"Ġ195":4179,"ulations":4180,"ĠSurgeon":4181,"Ġincidence":4182,"Ġla":4183,"nis":4184,"Ġten":4185,"Ġdim":4186,"ĠIT":4187,"Ġtear":4188,"Ġunless":4189,"Ġestablished":4190,"ĠAfric":4191,"Ġdegree":4192,"Ġhost":4193,"Ġmethods":4194,"Ġstates":4195,"28":4196,"Ġunderstood":4197,"Ġcyc":4198,"friend":4199,"Ġdiagnostic":4200,"Ġwoman":4201,"Ġstructures":4202,"anu":4203,"istics":4204,"Ġdate":4205,"rew":4206,"Ġcountries":4207,"Ġspicy":4208,"Ġantigen":4209,"val":4210,"ĠSir":4211,"aus":4212,"ezing":4213,"Ġlarger":4214,"irub":4215,"Ġerection":4216,"Ġpoin":4217,"Ġepisode":4218,"Ġdest":4219,"Ġneuro":4220,"Ġmortality":4221,"ococ":4222,"Ġtingling":4223,"ashes":4224,"Ġdefined":4225,"Ġbroad":4226,"Ġfunctional":4227,"yst":4228,"UT":4229,"Ġgovernment":4230,"Ġrati":4231,"illary":4232,"Ġgenital":4233,"ops":4234,"Ġhydro":4235,"35":4236,"Ġgastric":4237,"Ġgallbladder":4238,"Ġsubs":4239,"Ġmenstrual":4240,"oor":4241,"ĠPain":4242,"eep":4243,"mit":4244,"Ġdizzy":4245,"upp":4246,"etite":4247,"ĠAct":4248,"ocal":4249,"ycin":4250,"Ġ75":4251,"Ġhemoglobin":4252,"Ġâ":4253,"aving":4254,"ius":4255,"Ġprogn":4256,"abil":4257,"monologist":4258,"vision":4259,"co":4260,"isp":4261,"Ġstra":4262,"cut":4263,"Ġlob":4264,"magic":4265,"ĠSpec":4266,"OW":4267,"Ġplaced":4268,"Ġtoxic":4269,"ĠFl":4270,"Ġexpect":4271,"stit":4272,"Ġtechn":4273,"Ġprefer":4274,"Ġrepair":4275,"uke":4276,"hib":4277,"Ġorg":4278,"ason":4279,"Ġcontain":4280,"Ġnotice":4281,"Ġprofess":4282,"Ġmoderate":4283,"ays":4284,"ĠGo":4285,"26":4286,"Ġtuberculosis":4287,"press":4288,"ĠPatient":4289,"Ġeduc":4290,"Ġprostate":4291,"ollow":4292,"Ġbalance":4293,"uries":4294,"Ġ31":4295,"Ġworks":4296,"Ġvagina":4297,"Ġprotect":4298,"Ġimproved":4299,"attle":4300,"Ġic":4301,"Ġcardiologist":4302,"Ġreach":4303,"Ġverte":4304,"Ġcavity":4305,"Ġadded":4306,"Ġantihist":4307,"ageal":4308,"Ġdeveloping":4309,"rophy":4310,"osin":4311,"Ġovary":4312,"Ġsomeone":4313,"Ġecho":4314,"ulmonary":4315,"Ġce":4316,"tle":4317,"unct":4318,"Ġalternative":4319,"Ġlumbar":4320,"Ġled":4321,"Ġpartner":4322,"Ġpict":4323,"itude":4324,"Ġstools":4325,"Ġextraction":4326,"Ġfr":4327,"ribution":4328,"mature":4329,"Ġintervention":4330,"iol":4331,"Ġrespons":4332,"Ġtalk":4333,"ĠUsually":4334,"AB":4335,"Ġhor":4336,"Ġoverall":4337,"ria":4338,"Ġantibody":4339,"she":4340,"amples":4341,"ĠTB":4342,"29":4343,"Ġ2014":4344,"Ġnet":4345,"cm":4346,"Ġwanted":4347,"iology":4348,"odium":4349,"Ġtrial":4350,"........":4351,"Ġaccept":4352,"know":4353,"Ġsource":4354,"Ġgran":4355,"Ġfeed":4356,"Ġappreciate":4357,"There":4358,"Your":4359,"ĉĉĉĉ":4360,"kele":4361,"Ġresolve":4362,"Ġbrother":4363,"Ġ2008":4364,"Ġaccident":4365,"ples":4366,"Ġintrodu":4367,"Ġlear":4368,"Ġ2007":4369,"Ġsites":4370,"Ġpassed":4371,"Ġfilm":4372,"Ġlocation":4373,"Ġsuddenly":4374,"Ġrequ":4375,"Ġimplant":4376,"keletal":4377,"Ġallergies":4378,"ĠToday":4379,"Best":4380,"iation":4381,"Ġbus":4382,"Ġsmok":4383,"Ġ95":4384,"ĠUniversity":4385,"ĠSecond":4386,"Ġspl":4387,"Ġfinal":4388,"ĠMa":4389,"For":4390,"ocard":4391,"ĠFOR":4392,"racellular":4393,"never":4394,"bum":4395,"pro":4396,"Ġtreatments":4397,"Ġseg":4398,"Ġvision":4399,"Ġsatisf":4400,"Ġregions":4401,"ued":4402,"Ġminute":4403,"Ġolder":4404,"Ġsteroids":4405,"bow":4406,"70":4407,"ĠMore":4408,"aim":4409,"Ġwrite":4410,"Ġessential":4411,"Ġmenses":4412,"Ġrad":4413,"Ġtoler":4414,"Ġarch":4415,"comes":4416,"olution":4417,"wo":4418,"Ġdem":4419,"Ġste":4420,"ĠMan":4421,"gia":4422,"Ġability":4423,"Ġbran":4424,"Ġcoronary":4425,"Ġsurround":4426,"ĠWH":4427,"Ġband":4428,"opt":4429,"Ġprogressive":4430,"ĠPat":4431,"Ġconception":4432,"Ġadequate":4433,"Ġnearly":4434,"apter":4435,"Ġreleased":4436,"Ġappointment":4437,"Ġpurp":4438,"ĠMe":4439,"Ġindicates":4440,"Ġexpected":4441,"Ġappetite":4442,"Ġseeing":4443,"ged":4444,"ĠCanad":4445,"Ġassociation":4446,"Ġchoice":4447,"Ġaccess":4448,"plete":4449,"Ġlifest":4450,"ervation":4451,"Ġbinding":4452,"Ġliter":4453,"Ġneut":4454,"ophil":4455,"ico":4456,"fection":4457,"Ġpretty":4458,"rest":4459,"Ġmutations":4460,"Ġ32":4461,"psy":4462,"ĠSG":4463,"Ġaccur":4464,"Ġideas":4465,"Ġmechanism":4466,"irubin":4467,"ani":4468,"Ġwash":4469,"Ġthoughts":4470,"ĠLast":4471,"Ġshot":4472,"Ġ|":4473,"au":4474,"rents":4475,"orry":4476,"Ġwithdraw":4477,"Ġgotten":4478,"Ġenter":4479,"Ġhappening":4480,"Ġconduct":4481,"Ġsmell":4482,"ĠDis":4483,"Ġfocus":4484,"ĠAC":4485,"Ġstraight":4486,"pe":4487,"Ġresponsible":4488,"ĠDay":4489,"ognitive":4490,"Ġinvolvement":4491,"erior":4492,"omb":4493,"Ġchann":4494,"Ġgradually":4495,"ĠTest":4496,"Ġcramps":4497,"Ġaspect":4498,"Ġbenefit":4499,"Ġdisapp":4500,"Ġ%":4501,"ulatory":4502,"ĠCo":4503,"Ġcateg":4504,"100":4505,"Ġconsulted":4506,"Ġtransport":4507,"Ġaccomp":4508,"Ġdental":4509,"Ġlipid":4510,"Ġslowly":4511,"ocol":4512,"Ġ38":4513,"Ġfav":4514,"Ġlooked":4515,"den":4516,"Ġcharacterized":4517,"idity":4518,"ĠFrench":4519,"Ġlifestyle":4520,"rations":4521,"Ġut":4522,"Ġpulmonologist":4523,"Ġforce":4524,"ĠGynecol":4525,"eline":4526,"Ġgarg":4527,"aph":4528,"iveness":4529,"Ġobstet":4530,"achment":4531,"Ġrecover":4532,"ĠAccording":4533,"Ġmood":4534,"Ġconsultation":4535,"ĠSm":4536,"Ġappend":4537,"ovascular":4538,"Ġcortic":4539,"Ġ34":4540,"Ġpreval":4541,"omer":4542,"Ġfit":4543,"Ġmetabolism":4544,"vert":4545,"Ġfully":4546,"Ġdifferences":4547,"ressing":4548,"Ġpersistent":4549,"ĠChar":4550,"Ġhence":4551,"ken":4552,"rd":4553,"orption":4554,"AP":4555,"ingu":4556,"Ġbell":4557,"Ġkindly":4558,".-":4559,"hi":4560,"Ġjob":4561,"ĠCent":4562,"Ġcarcinoma":4563,"Ġsupplement":4564,"Ġstanding":4565,"enosis":4566,"Ġenzyme":4567,"Ġmetabolic":4568,"Ġprocedures":4569,"Ġdispl":4570,"Ġps":4571,"Ġ2015":4572,"ĠSee":4573,"rays":4574,"Ġinfect":4575,"Ġ2006":4576,"Ġhurting":4577,"immune":4578,"Ġheat":4579,"Ġextent":4580,"Ġstrength":4581,"Ġfert":4582,"ĠAre":4583,"Ġswallow":4584,"Ġjoints":4585,"ii":4586,"rates":4587,"no":4588,"Ġvit":4589,"Ġdang":4590,"idal":4591,"Ġnumbers":4592,"Ġtravel":4593,"Ġtension":4594,"Ġadministration":4595,"Ġreply":4596,"Ġpept":4597,"ĠNational":4598,"ĠIg":4599,"ENT":4600,"Ġneedle":4601,"Ġsmaller":4602,"Ġtrue":4603,"Ġoutcome":4604,"atives":4605,"sis":4606,"Ġstimul":4607,"arent":4608,"Ġintestinal":4609,");":4610,"racted":4611,"Ġadverse":4612,"fusion":4613,"Ġlumps":4614,"Ġmice":4615,"Ġpim":4616,"Ġhom":4617,"Ġmissed":4618,"ern":4619,"ĠAg":4620,"Ġointment":4621,"arin":4622,"Ġadjust":4623,"Ġpit":4624,"Ġgain":4625,"Ġimbal":4626,"Ġgynaec":4627,"Ġcop":4628,"Ġalot":4629,"Ġacne":4630,"36":4631,"Ġinsert":4632,"Ġunlike":4633,"Ġliving":4634,"Ġgrowing":4635,"ĠBen":4636,"Ġnum":4637,"Ġring":4638,"Ġauthor":4639,"erb":4640,"ĠPr":4641,"Ġbeta":4642,"ĠMin":4643,"ta":4644,"gy":4645,"Ġwrist":4646,"omat":4647,"ĠDoes":4648,"asionally":4649,"estern":4650,"razole":4651,"Ġvariety":4652,"Ġsaliv":4653,"Ġliquid":4654,"emb":4655,"Ġadults":4656,"Ġconsequ":4657,"Ġreactions":4658,"Ġ150":4659,"Ġterms":4660,"Ġimpair":4661,"ĠApril":4662,"Ġleave":4663,"ĠEnd":4664,"ergic":4665,"Ġecon":4666,"EG":4667,"ĠInt":4668,"Ġbrief":4669,"Ġsmoke":4670,"ĠUse":4671,"Ġusual":4672,"Ġcycles":4673,"ploy":4674,"Ġsuffered":4675,"ographic":4676,"heum":4677,"ĠCardi":4678,"ew":4679,"Ġneph":4680,"Ġpermanent":4681,"Ġrarely":4682,"Ġseizure":4683,"Ġlots":4684,"ĠFigure":4685,"Ġ$":4686,"ĠAT":4687,"Ġcounter":4688,"Ġmuscular":4689,"Ġrevealed":4690,"Ġinjections":4691,"ĠBoth":4692,"ĠBar":4693,"Ġplatelet":4694,"iance":4695,"Ġsetting":4696,"Ġobstetric":4697,"uted":4698,"Ġshall":4699,"Ġnarrow":4700,"Ġpediatrician":4701,"related":4702,"05":4703,"Ġcured":4704,"ĠAss":4705,"Ġty":4706,"ĠCont":4707,"ocon":4708,"ochond":4709,"Ġdetermined":4710,"Ġirritation":4711,"Ġinteg":4712,"75":4713,"iction":4714,"AY":4715,"Ġdidnt":4716,"Ġdemonstrated":4717,"Ġdog":4718,"ĠTry":4719,"Ġphysiotherapy":4720,"Ġextra":4721,"Ġveins":4722,"Ġmechanisms":4723,"33":4724,"aste":4725,"Ġreducing":4726,"Ġreplacement":4727,"Ġcollection":4728,"Ġmes":4729,"Ġnutr":4730,"Ġpoints":4731,"Ġscreening":4732,"Ġheard":4733,"ĠGu":4734,"ĠTable":4735,"Ġden":4736,"ĠGe":4737,"aff":4738,"Ġbeginning":4739,"Ġadvis":4740,"Ġcritical":4741,"Ġsequence":4742,"Ġintest":4743,"Ġrot":4744,"ocyte":4745,"ĠES":4746,"struct":4747,"Ġprogesterone":4748,"Ġinitially":4749,"lycer":4750,"icular":4751,"Ġlapar":4752,"Ġhabit":4753,"Ġinfertility":4754,"ĠWhile":4755,"Ġattached":4756,"Ġil":4757,"Ġparamet":4758,"Ġrecurrence":4759,"pes":4760,"after":4761,"Ġstiff":4762,"Ġedema":4763,"ributed":4764,"asive":4765,"ĠÂ":4766,"Ġteam":4767,"artment":4768,"Ġsignal":4769,"igo":4770,"ĠJu":4771,"Ġgroin":4772,"inated":4773,"Ġsubjects":4774,"Ġcd":4775,"Ġmeasured":4776,"Ġevaluate":4777,"Ġmucus":4778,"ooth":4779,"ike":4780,"Ġlifting":4781,"Do":4782,"back":4783,"Ġpc":4784,"Ġcerebral":4785,"yur":4786,"ĠBet":4787,"ocks":4788,"yrs":4789,"Ġland":4790,"Ġbile":4791,"47":4792,"hal":4793,"pr":4794,"Ġtit":4795,"Ġadvance":4796,"Ġmel":4797,"Ġimmunity":4798,"asmin":4799,"Ġprolonged":4800,"Ġpap":4801,"ĠPe":4802,"Ġfingers":4803,"Ġ2005":4804,"Ġsister":4805,"Ġcriteria":4806,"Ġchromos":4807,"Ġdiscussed":4808,"anuary":4809,"vious":4810,"Ġratio":4811,"ĠQu":4812,"ĠHE":4813,"ĠUlt":4814,"ĠRev":4815,"ober":4816,"Ġoutcomes":4817,"Ġinhaled":4818,"Ġ*":4819,"ulitis":4820,"Ġappearance":4821,"ths":4822,"lam":4823,"Ġbasic":4824,"Ġmodern":4825,"rium":4826,"ĠENT":4827,"Ġsend":4828,"ounts":4829,"ĠUSG":4830,"ĠBC":4831,"aves":4832,"ĠIve":4833,"Ġsecretion":4834,"pir":4835,"ella":4836,"olute":4837,"Ġarg":4838,"Ġappeared":4839,"Ġlog":4840,"ĠTrans":4841,"ander":4842,"Ġfibers":4843,"Ġpotent":4844,"Ġorgans":4845,"Ġmicrosc":4846,"Ġvert":4847,"Ġscar":4848,"Ġextended":4849,"Ġtons":4850,"Ġsed":4851,"Ġpassing":4852,"iet":4853,"assium":4854,"Ġfear":4855,"ĠIndia":4856,"Good":4857,"pert":4858,"Ġanalgesics":4859,"ĠTe":4860,"agon":4861,"ublic":4862,"ĠAlex":4863,"Ġweigh":4864,"Ġnational":4865,"But":4866,"resses":4867,"Ġlimit":4868,"Ġgynaecologist":4869,"hesia":4870,"Ġq":4871,"Ġmisc":4872,"imen":4873,"Ġibuprofen":4874,"LD":4875,"please":4876,"abies":4877,"ĠHistory":4878,"iary":4879,"LY":4880,"Ġscalp":4881,"Ġhaven":4882,"Ġbp":4883,"Ġelbow":4884,"Ġdouble":4885,"Ġfollicle":4886,"ĠSw":4887,"cious":4888,"oli":4889,"lets":4890,"aund":4891,"ĠComp":4892,"Ġdespite":4893,"rible":4894,"Ġlimb":4895,"Ġtext":4896,"Ġvalve":4897,"lands":4898,"Ġcompleted":4899,"oxid":4900,"oo":4901,"Ġforward":4902,"urance":4903,"UR":4904,"Ġstent":4905,"iry":4906,"ceed":4907,"ĠPsych":4908,"abs":4909,"Ġlaboratory":4910,"Ġsubstance":4911,"load":4912,"Ġcarefully":4913,"Ġcreatinine":4914,"ĠPatients":4915,"Ġpersists":4916,"ofenac":4917,"Ġconstit":4918,"Ġsides":4919,"Ġmixed":4920,"ested":4921,"Ġhear":4922,"Ġquit":4923,"Ġinhibitors":4924,"ĠMon":4925,"Ġejaculation":4926,"zed":4927,"Ġanim":4928,"Ġinvestigated":4929,"reek":4930,"Ġpump":4931,"Ġanaly":4932,"Ġmorph":4933,"yurved":4934,"Ġinstit":4935,"Ġblo":4936,"ĠNorth":4937,"yr":4938,"Ġprepar":4939,"Ġglyc":4940,"Ġtypical":4941,"38":4942,"oration":4943,"room":4944,"oup":4945,"Ġbar":4946,"Ġbones":4947,"tion":4948,"ĠCH":4949,"ĠDep":4950,"intestinal":4951,"Ġmoving":4952,"Ġtechnique":4953,"asty":4954,"Ġaged":4955,"Ġuterine":4956,"ĠON":4957,"Ġanalgesic":4958,"Ġpsychological":4959,"Ġremember":4960,"UL":4961,"Ġcondom":4962,"Ġstenosis":4963,"ĠInc":4964,"oming":4965,"Ġchoosing":4966,"CD":4967,"bra":4968,"Ġoccurred":4969,"odil":4970,"Ġpulse":4971,"Ġfamil":4972,"olytic":4973,"Ġprinc":4974,"Ġsteps":4975,"Ġsuccessful":4976,"Ġchlor":4977,"lective":4978,"airs":4979,"reas":4980,"Ġsamples":4981,"Ġvaccine":4982,"esity":4983,"Ġsess":4984,"St":4985,"Ġsupply":4986,"Ġglands":4987,"lim":4988,"Ġscrot":4989,"icl":4990,"Ġtraining":4991,"Ġvary":4992,"known":4993,"ĠYork":4994,"Ġfetus":4995,"renal":4996,"Ġmajority":4997,"ĠOct":4998,"ties":4999,"Ġwin":5000,"agen":5001,"Ġprognosis":5002,"Ġresponses":5003,"itch":5004,"Ġforum":5005,"ĠGP":5006,"Ġcover":5007,"Ġoriginal":5008,"angl":5009,"Ġdeb":5010,"aundice":5011,"39":5012,"aired":5013,"cies":5014,"Ġribs":5015,"ĠAlb":5016,"Ġglob":5017,"Ġ2000":5018,"Ġwithdrawal":5019,"ĠAustral":5020,"osal":5021,"Ġ....":5022,"Ġfresh":5023,"itus":5024,"cember":5025,"Ġpathway":5026,"osterone":5027,"Ġblue":5028,"acity":5029,"ĠGerman":5030,"Ġbelly":5031,"Ġmarrow":5032,"Ġeventually":5033,"Ġvenous":5034,"ills":5035,"rhyth":5036,"Ġscore":5037,"Ġbring":5038,"Ġpharm":5039,"Ġbutt":5040,"ĠIU":5041,"Ġery":5042,"Ġ2016":5043,"ĠCons":5044,"idine":5045,"Ġclinically":5046,"Ġcombined":5047,"iate":5048,"heli":5049,"Ġstri":5050,"acin":5051,"Ġurologist":5052,"ĠBE":5053,"iral":5054,"aks":5055,"Ġpublished":5056,"Ġemot":5057,"based":5058,"ky":5059,"pass":5060,"Ġtin":5061,"ĠMar":5062,"ĠSim":5063,"Ġscient":5064,"Ġexternal":5065,"Ġvas":5066,"Ġcand":5067,"ĠKing":5068,"Ġkey":5069,"Ġive":5070,"ĠSouth":5071,"Ġrashes":5072,"actor":5073,"Ġfair":5074,"Ġadvanced":5075,"then":5076,"???":5077,"URE":5078,"ads":5079,"Ġelectroly":5080,"Ġfinally":5081,"Ġinn":5082,"Ġwear":5083,"Ġol":5084,"Ġdust":5085,"kal":5086,"uous":5087,"astro":5088,"eling":5089,"Ġadvisable":5090,"He":5091,"%.":5092,"Ġseven":5093,"Ġcreated":5094,"Ġidentity":5095,"ems":5096,"Ġsil":5097,"Ġ55":5098,"ower":5099,"uria":5100,"jection":5101,"Ġexamine":5102,"Ġborder":5103,"eutic":5104,"Ġ!":5105,"ĠTr":5106,"Ġhepatic":5107,"opathic":5108,"Ġkin":5109,"ĠPres":5110,"Ġsodium":5111,"Ġcheek":5112,"aryn":5113,"Ġovaries":5114,"do":5115,"Ġagent":5116,"Ġlev":5117,"Ġ72":5118,"Ġlayer":5119,"We":5120,"ĠCor":5121,"Ġmalignant":5122,"iotics":5123,"ĠHigh":5124,"Ġgame":5125,"Ġdescribe":5126,"Ġprogression":5127,"sm":5128,"arding":5129,"Ġeffic":5130,"oxy":5131,"Ġexclude":5132,"Ġimbalance":5133,"ranial":5134,"Ġens":5135,"Ġmob":5136,"Ġsuperior":5137,"34":5138,"Ġmyel":5139,"ĠThus":5140,"ĠOnly":5141,"Ġarteries":5142,"Ġembry":5143,"Ġdull":5144,"Ġpy":5145,"ogenesis":5146,"ĠHep":5147,"Ġcomponents":5148,"ĠPA":5149,"Ġknowledge":5150,"Ġreprodu":5151,"Ġoxid":5152,"Ġborn":5153,"EM":5154,"ĠAnother":5155,"37":5156,"ferences":5157,"Ġdied":5158,"ĠIntern":5159,"Ġgastritis":5160,"Ġshift":5161,"Ġbruise":5162,"Ġmoment":5163,"Ġdecided":5164,"ĠMedicine":5165,"ĠSer":5166,"Ġ44":5167,"respond":5168,"Ġnec":5169,"Ġpromin":5170,"99":5171,"Ġparacetamol":5172,"Ġ65":5173,"Ġstrate":5174,"rupt":5175,"Ġmening":5176,"Ġfeature":5177,"ĠOR":5178,"Ġshape":5179,"rob":5180,"Ġparents":5181,"Ġpig":5182,"Ġsynthesis":5183,"Ġflex":5184,"Ġextensive":5185,"Ġrelation":5186,"Ġpossibilities":5187,"Ġparas":5188,"ware":5189,"ĠCa":5190,"last":5191,"Ġcomputer":5192,"Ġdoesnt":5193,"Ġbilirubin":5194,"chem":5195,"Ġobstetrician":5196,"mat":5197,"gone":5198,"Ġsaying":5199,"ĠAng":5200,"ifically":5201,"open":5202,"Ġrapidly":5203,"mal":5204,"Ġelim":5205,"Ġcorticoster":5206,"Ġproviding":5207,"Ġabsolute":5208,"Ġneurons":5209,"nes":5210,"Ġsne":5211,"Ġexpert":5212,"Ġsufficient":5213,"Ġlotion":5214,"ardia":5215,"part":5216,"oral":5217,"Ġturned":5218,"eanwhile":5219,"lection":5220,"Ġcarry":5221,"ĠDise":5222,"Ġfriends":5223,"Ġpelvis":5224,"Ġexpressed":5225,"Ġtrials":5226,"aden":5227,"Ġprevalence":5228,"Ġid":5229,"Ġnit":5230,"Ġbilateral":5231,"ociety":5232,"TS":5233,"da":5234,"ns":5235,"Ġfollicles":5236,"Ġround":5237,"ĠSept":5238,"Ġlact":5239,"apan":5240,"Ġdecision":5241,"usive":5242,"idering":5243,"ĠRoman":5244,"95":5245,"Ġplaying":5246,"het":5247,"Ġdistal":5248,"itone":5249,"Ġrang":5250,"Ġshortness":5251,"ĠMc":5252,"ague":5253,"Ġclaim":5254,"Ġpopular":5255,"Ġadapt":5256,"ĠTwo":5257,"ontaneous":5258,"Ġcathe":5259,"Ġinjuries":5260,"Ġwhose":5261,"Ġdiscussion":5262,"Ġunderw":5263,"entation":5264,"ĠPR":5265,"Ġnearby":5266,"Ġdehyd":5267,"Ġpartial":5268,"Ġalter":5269,"Ġbound":5270,"Ġenlarge":5271,"ĠCON":5272,"thal":5273,"ĠJuly":5274,"Ġswell":5275,"Ġdensity":5276,"Ġsignaling":5277,"pers":5278,"ĠGod":5279,"ovir":5280,"cript":5281,"Ġmoved":5282,"iles":5283,"Ġaortic":5284,"Ġsuspected":5285,"ss":5286,"Ġpromot":5287,"Ġundergone":5288,"ara":5289,"Ġsperms":5290,"Ġindex":5291,"Ġ400":5292,"Ġartic":5293,"Ġ2004":5294,"ĠSu":5295,"Ġautoimmune":5296,"selves":5297,"Ġaffects":5298,"Ġcomplaints":5299,"rical":5300,"Ġscrat":5301,"rason":5302,"Ġiv":5303,"bits":5304,"raid":5305,"Ġkept":5306,"earch":5307,"Ġdistribution":5308,"Ġgest":5309,"Ġones":5310,"Ġdeal":5311,"pecific":5312,"izes":5313,"bre":5314,"Ġpin":5315,"Ġmov":5316,"ĠGI":5317,"Ġshock":5318,"Ġinfectious":5319,"Ġaccompan":5320,"off":5321,"Ġacids":5322,"Ġmigrain":5323,"ĠPart":5324,"Ġsubsequent":5325,"light":5326,"ĠOrth":5327,"hyroid":5328,"Ġoffice":5329,"Ġportion":5330,"bell":5331,"Ġwake":5332,"ĠHAVE":5333,"Ġinfluence":5334,"Ġseconds":5335,"Ġguidance":5336,"Ġimmediate":5337,"Ġfailed":5338,"Ġdistinct":5339,"Ġmotility":5340,"Ġgastroenter":5341,"ĠEurope":5342,"Ġcomponent":5343,"cemia":5344,"ĠDes":5345,"Ġcorrespond":5346,"ida":5347,"ĠDO":5348,"ollo":5349,"Ġ194":5350,"Ġstatist":5351,"Ġexposed":5352,"ilization":5353,"ctive":5354,"Ġbleed":5355,"Ġinvolves":5356,"nel":5357,"umanth":5358,"Ġ2003":5359,"hers":5360,"dl":5361,"Ġcontinues":5362,"Ġpotassium":5363,"Ġredness":5364,"Ġlargest":5365,"Ġ39":5366,"Ġcycl":5367,"oms":5368,"oga":5369,"Ġcarbon":5370,"Ġelectron":5371,"Ġformer":5372,"east":5373,"ĠApply":5374,"Ġaccount":5375,"ishes":5376,"ĠJune":5377,"Ġprimarily":5378,"rotein":5379,"Ġapparent":5380,"Ġprovides":5381,"Ġinches":5382,"Ġbook":5383,"Ġoccasionally":5384,"Ġneural":5385,"Ġsubside":5386,"mar":5387,"Ġcognitive":5388,"Ġflat":5389,"Ġligament":5390,"gent":5391,"Ġpicture":5392,"Ġopening":5393,"ream":5394,"Ġsust":5395,"ica":5396,"indu":5397,"venous":5398,"Ġplayer":5399,"ĠBal":5400,"OG":5401,"Ġperfect":5402,"Ġintense":5403,"ĠSpecial":5404,"Ġwritten":5405,"Ġinduce":5406,"Ġpresented":5407,"Ġimages":5408,"Ġmis":5409,"Ġvisible":5410,"31":5411,"Ġge":5412,"Ġstages":5413,"usions":5414,"Ġnote":5415,"Ġdirection":5416,"Ġafraid":5417,"Ġanswering":5418,"Ġpoison":5419,"Ġhistor":5420,"Ġglass":5421,"Avoid":5422,"Ġperformance":5423,"Ġlose":5424,"ĠME":5425,"ners":5426,"bor":5427,"ror":5428,"ender":5429,"Ġreduces":5430,"Also":5431,"Ġhepat":5432,"Ġnumerous":5433,"Ġwhenever":5434,"Ġcytok":5435,"ĠPFT":5436,"achy":5437,"Ġkn":5438,"Ġ300":5439,"rating":5440,"Ġquickly":5441,"utum":5442,"After":5443,"Ġobesity":5444,"Ġsolid":5445,"olin":5446,"ĠAir":5447,"Ġindependent":5448,"ĠIII":5449,"Ġahead":5450,"Ġvac":5451,"mptomatic":5452,"ilos":5453,"Ġcalm":5454,"AG":5455,"ĠYasmin":5456,"Ġarrhyth":5457,"Ġcapacity":5458,"Ġventricular":5459,"ĠJanuary":5460,"ophen":5461,"Ġservices":5462,"Ġerect":5463,"Ġrh":5464,"Ġadministered":5465,"Ġmiscarri":5466,"ĠRuss":5467,"Ġgrand":5468,"Ġepile":5469,"Ġresolved":5470,"Ġoutput":5471,"Ġinfluen":5472,"ĠFollow":5473,"ju":5474,"Ġelements":5475,"Ġendot":5476,"Ġproduces":5477,"Ġtherapeutic":5478,"Ġunlikely":5479,"quired":5480,"ĠMor":5481,"%,":5482,"thanks":5483,"ĠTab":5484,"rian":5485,"Ġleaf":5486,"Ġderived":5487,"ĠAbout":5488,"Ġmolecular":5489,"Ġjaundice":5490,"Ġinterp":5491,"Ġpulled":5492,"Ġfacing":5493,"ATION":5494,"Ġminimal":5495,"Ġthrice":5496,"Ġthemselves":5497,"icle":5498,"ours":5499,"encephal":5500,"Ġprocesses":5501,"AK":5502,"Ġaspiration":5503,"ĠMarch":5504,"Ġagree":5505,"ĠChatDoctor":5506,"Ġxray":5507,"ophy":5508,"Ġways":5509,"Ġorthopedic":5510,"heumat":5511,"agus":5512,"Ġlining":5513,"Ġinvolving":5514,"ĠPa":5515,"ĠOver":5516,"Ġfores":5517,"Ġeight":5518,"Ġchain":5519,"utions":5520,"Ġseek":5521,"Ġfeeding":5522,"Ġbroken":5523,"ushing":5524,"ĠUTI":5525,"Ġparameters":5526,"Ġspontaneous":5527,"ĠSumanth":5528,"65":5529,"istry":5530,"Ġanimal":5531,"Ġunus":5532,"Ġord":5533,"Ġconsists":5534,"Ġmusic":5535,"Ġalbum":5536,"Ġneurological":5537,"Ġhemorrhage":5538,"ontinue":5539,"Ġwords":5540,"Ġconcentrations":5541,"helium":5542,"otherapist":5543,"Ġcontent":5544,"ector":5545,"Ġcongen":5546,"idepress":5547,"amines":5548,"69":5549,"Ġmanaged":5550,"Ġdependent":5551,"Ġplanning":5552,"Ġtheory":5553,"iable":5554,"32":5555,"Ġprep":5556,"ĠFeb":5557,"Ġmand":5558,"imate":5559,"ĠAvailable":5560,"ĠKeep":5561,"Ġstyle":5562,"lder":5563,"Ġinfar":5564,"Ġcompet":5565,"otrop":5566,"Ġsmooth":5567,"Ġseason":5568,"iotic":5569,"Ġsurrounding":5570,"Ġneuropathy":5571,"Ġcart":5572,"Ġpatch":5573,"Ġacet":5574,"Ġtranscription":5575,"elines":5576,"Ġcarried":5577,"ply":5578,"Ġsense":5579,"Ġeveryday":5580,"ttp":5581,"Ġmach":5582,"Ġtoe":5583,"eter":5584,"ought":5585,"Ġfund":5586,"Ġarri":5587,"Ġimage":5588,"Ġdefect":5589,"Ġstimulation":5590,"Ġestimated":5591,"ĠMal":5592,"Ġdiscovered":5593,"Ġempt":5594,"ĠStart":5595,"Is":5596,"bi":5597,"Ġcontraction":5598,"Ġcit":5599,"ĠChurch":5600,"icles":5601,"ameter":5602,"Ġstr":5603,"Ġexactly":5604,"Ġ2002":5605,"Ġfrag":5606,"Ġconstantly":5607,"this":5608,"uf":5609,"iaz":5610,"ĠEm":5611,"ama":5612,"Ġpancreatic":5613,"gl":5614,"Ġbecoming":5615,"Ġdefects":5616,"Ġimpairment":5617,"ĠEvery":5618,"phoid":5619,"well":5620,"ips":5621,"Ġthoroughly":5622,"Ġprolif":5623,"nea":5624,"Ġcharacteristics":5625,"Ġfootball":5626,"ĠESR":5627,"Ġlately":5628,"ows":5629,"Ġbeat":5630,"Ġgraft":5631,"ulus":5632,"Ġmarked":5633,"ĠVitamin":5634,"67":5635,"enol":5636,"Ġsuggestion":5637,"Ġchildhood":5638,"rectomy":5639,"Ġmaternal":5640,"cardia":5641,"Ġmultiv":5642,"Ġane":5643,"Ġabortion":5644,"HC":5645,"Ġprox":5646,"pping":5647,"urning":5648,"Ġacting":5649,"Ġsaf":5650,"ura":5651,"rasonography":5652,"Ġanat":5653,"ĠBi":5654,"Ġresection":5655,"Ġlbs":5656,"Ġbend":5657,"Ġmilitary":5658,"Ġrupture":5659,"85":5660,"ĠSun":5661,"Ġcharacteristic":5662,"Ġlines":5663,"ears":5664,"Ġperforming":5665,"ribute":5666,"Ġheld":5667,"Ġantif":5668,"ĠPM":5669,"Ġanimals":5670,"Ġmaximum":5671,"ĠâĢ¢":5672,"Ġinhibitor":5673,"erate":5674,"Ġforeskin":5675,"Ġect":5676,"Ġstem":5677,"Ġamino":5678,"ĠCancer":5679,"oud":5680,"Ġears":5681,"Ġglad":5682,"Ġassum":5683,"ĠKal":5684,"days":5685,"Ġactivated":5686,"Ġsensory":5687,"br":5688,"Ġwebs":5689,"Ġworked":5690,"Ġexhib":5691,"Ġindust":5692,"vate":5693,"Ġ2001":5694,"ĠMod":5695,"Ġjuice":5696,"Ġconsistent":5697,"Ġaccompanied":5698,"ĠUR":5699,"Ġnm":5700,"Ġvo":5701,"ls":5702,"eech":5703,"jacent":5704,"amous":5705,"ming":5706,"ĠClinical":5707,"Ġconj":5708,"Ġchemo":5709,"Ġpremature":5710,"Ġgastrointestinal":5711,"ĠChest":5712,"Ġfacial":5713,"ĠSH":5714,"Ġversus":5715,"ĠPost":5716,"Ġscrotum":5717,"VER":5718,"Ġtaste":5719,"col":5720,"Ġlymphoma":5721,"Ġmales":5722,"Ġtele":5723,"Ġunderstanding":5724,"unic":5725,"Ġdialysis":5726,"Ġtail":5727,"Ġabnormality":5728,"Ġherpes":5729,"Ġseemed":5730,"SF":5731,"Ġcongestion":5732,"rhosis":5733,"Ġoccas":5734,"Ġeducation":5735,"ĠDecember":5736,"seud":5737,"Ġremaining":5738,"Ġcomplication":5739,"aceous":5740,"Ġfibrosis":5741,"Ġmeal":5742,"ST":5743,"ĠEuropean":5744,"acic":5745,"pos":5746,"Ġsorry":5747,"Ġcore":5748,"eed":5749,"standing":5750,"Ġbother":5751,"ancies":5752,"otype":5753,"Ġstrict":5754,"Ġuncomfortable":5755,"Ġunits":5756,"Ġsweat":5757,"ibility":5758,"Ġvariable":5759,"Ġendoscopy":5760,"pitations":5761,"ĠBefore":5762,"ĠRed":5763,"Ġdistingu":5764,"IM":5765,"----":5766,"rete":5767,"oxide":5768,"Ġproperties":5769,"Ġwaiting":5770,"urally":5771,"inating":5772,"Ġeffectiveness":5773,"ffe":5774,"ĠNOT":5775,"urys":5776,"Ġhighest":5777,"Ġherni":5778,"Ġinferior":5779,"Ġboyfriend":5780,"Ġstuff":5781,"Ġmeaning":5782,"Ġbigger":5783,"Ġoverweight":5784,"Ġtubes":5785,"Ġknees":5786,"Ġsounds":5787,"inese":5788,"Ġdangerous":5789,"va":5790,"ĠOctober":5791,"Ġhole":5792,"rix":5793,"Ġcellular":5794,"Ġmir":5795,"Ġemploy":5796,"pler":5797,"Ġestablish":5798,"Ġtoward":5799,"Ġpresentation":5800,"Ġpls":5801,"ervative":5802,"Ġcamp":5803,"Ġmodels":5804,"ĠÎ²":5805,"ady":5806,"ĠEp":5807,"Ġsafely":5808,"Ġuns":5809,"Ġunit":5810,"Consult":5811,"ĠBD":5812,"lessness":5813,"Ġfixed":5814,"Ġnamed":5815,"Ġcongenital":5816,"Ġtransl":5817,"ERD":5818,"Ġmyocard":5819,"Ġhematoma":5820,"Get":5821,"cg":5822,"ĠHar":5823,"Ġdocument":5824,"ĠCell":5825,"Ġsuit":5826,"rosp":5827,"Ġprominent":5828,"Ġadhes":5829,"Ġapart":5830,"leen":5831,"Ġeggs":5832,"Ġspectrum":5833,"Ġsn":5834,"Ġnuclear":5835,"Ġaches":5836,"Ġhumans":5837,"iform":5838,"Ġ120":5839,"Ġfasting":5840,"Ġmess":5841,"ovember":5842,"Ġhrs":5843,"oxicillin":5844,"HT":5845,"Ġhearing":5846,"Ġund":5847,"anted":5848,"Ġsettle":5849,"ĠHB":5850,"Ġ42":5851,"Ġanc":5852,"Ġulcers":5853,"Ġantidepress":5854,"Ġyeast":5855,"Ġsweating":5856,"enal":5857,"Ġpay":5858,"clusion":5859,"Ġhabits":5860,"fortun":5861,"cil":5862,"Ġupt":5863,"asone":5864,"Ġleuk":5865,"plasia":5866,"Ġdiameter":5867,"Ġdairy":5868,"Ġ2017":5869,"Ġearliest":5870,"ww":5871,"aint":5872,"Ġcareful":5873,"Ġadjacent":5874,"ĠWilli":5875,"Ġenlargement":5876,"Ġamb":5877,"Ġwidely":5878,"ĠGl":5879,"Ġjud":5880,"ĠRecently":5881,"Ġfilled":5882,"Ġconfused":5883,"Ġfer":5884,"inations":5885,"Ġcancers":5886,"activ":5887,"Ġoccup":5888,"EP":5889,"Ġversion":5890,"Ġ190":5891,"rought":5892,"ITH":5893,"acing":5894,"Ġbreathe":5895,"Ġcomplaining":5896,"Ġstable":5897,"Ġprotection":5898,"Ġplz":5899,"Ġureter":5900,"Ġmarg":5901,"Ġstated":5902,"Ġmoist":5903,"Ġscale":5904,"Ġbaseline":5905,"ĠChristian":5906,"Ġbond":5907,"iring":5908,"ĠBlack":5909,"Ġnice":5910,"CA":5911,"Ġrandomized":5912,"Ġsuic":5913,"Ġhttp":5914,"Ġcolum":5915,"ĠComm":5916,"riage":5917,"Ġunknown":5918,"Ġreflect":5919,"Ġcommunity":5920,"za":5921,"Ġorganisms":5922,"Ġmolecule":5923,"Ġpainkiller":5924,"Ġmri":5925,"Ġfight":5926,"NS":5927,"Ġefficacy":5928,"ĠTherefore":5929,"Ġrelig":5930,"Ġintestine":5931,"Ġsurve":5932,"Ġepithelial":5933,"Ġcatheter":5934,"ĠEv":5935,"Ġchall":5936,"ĠDec":5937,"Ġarterial":5938,"Ġseparate":5939,"ĠBased":5940,"Ġgon":5941,"Ġpersons":5942,"Ġinsurance":5943,"Ġinstrum":5944,"Ġqual":5945,"hens":5946,"Ġcirculation":5947,"Ġinhaler":5948,"abor":5949,"doc":5950,"Ġmiscarriage":5951,"how":5952,"Ġkids":5953,"ham":5954,"itions":5955,"Ġpredom":5956,"ĠCAN":5957,"Ġresulted":5958,"ochem":5959,"Ġalle":5960,"Ġurination":5961,"Ġprogress":5962,"Ġmamm":5963,"ĠNovember":5964,"dose":5965,"ares":5966,"Ġpounds":5967,"ĠCBC":5968,"upus":5969,"Ġphenomen":5970,"ĠHad":5971,"Ġsputum":5972,"ĠRob":5973,"Ġlobe":5974,"Ġliterature":5975,"Ġload":5976,"Ġfish":5977,"Ġlying":5978,"axis":5979,"otyp":5980,"riz":5981,"Ġspotting":5982,"Ġonc":5983,"wing":5984,"ivil":5985,"Ġadmitted":5986,"Ġlips":5987,"oriasis":5988,"ipolar":5989,"esides":5990,"sec":5991,"Ġuni":5992,"Ġdepressed":5993,"Ġpathways":5994,"acco":5995,"ĠWas":5996,"Ġanesthesia":5997,"Ġtemporary":5998,"Ġtet":5999,"ĠBel":6000,"Ġsubject":6001,"Ġassessed":6002,"ourt":6003,"ols":6004,"Ġspleen":6005,"ociated":6006,"Ġvessel":6007,"ĠSal":6008,"isters":6009,"Ġinvestigate":6010,"55":6011,"Ġstabil":6012,"ĠCA":6013,"Ġpatches":6014,"umar":6015,"Ġpasses":6016,"Ġdietary":6017,"Ġmolar":6018,"Ġtot":6019,"Ġclosed":6020,"Ġconducted":6021,"Figure":6022,"ĠEl":6023,"Ġcardiovascular":6024,"ĠHelloThanks":6025,"ĠAst":6026,"Ġlasted":6027,"Ġtomor":6028,"ĠSte":6029,"Ġwhom":6030,"rig":6031,"yond":6032,"Ġeosin":6033,"ĠRNA":6034,"also":6035,"aker":6036,"ĠStud":6037,"onin":6038,"Ġproximal":6039,"Ġdirected":6040,"Ġisolated":6041,"Ġlove":6042,"eks":6043,"Ġobvious":6044,"haps":6045,"Ġisn":6046,"exp":6047,"iclofenac":6048,"Ġword":6049,"Ġlatter":6050,"Ġasc":6051,"ymptomatic":6052,"otid":6053,"Ġcod":6054,"ĠAnti":6055,"Ġsup":6056,"Ġinsuff":6057,"Ġallowing":6058,"Ġfavor":6059,"inally":6060,"Ġreturned":6061,"ĠÃ":6062,"ev":6063,"Ġkeeps":6064,"Ġaggrav":6065,"Ġplant":6066,"Ġblocked":6067,"noon":6068,"stein":6069,"Ġtomorrow":6070,"88":6071,"Ġsimply":6072,"Ġsept":6073,"aj":6074,"Ġintravenous":6075,"han":6076,"Ġwind":6077,"ĠHem":6078,"Ġunusual":6079,"Ġpancreas":6080,"Ġimproving":6081,"Ġdetection":6082,"Ġmutation":6083,"mentia":6084,"aments":6085,"Ġcontribut":6086,"azep":6087,"Ġcounts":6088,"Ġallows":6089,"Ġpalpitations":6090,"Ġdivided":6091,"DL":6092,"Ġconsumption":6093,"udd":6094,"ophageal":6095,"Ġreceive":6096,"Ġfal":6097,"aret":6098,"ĠMR":6099,"Ġwants":6100,"Ġavoided":6101,"riday":6102,"Ġcage":6103,"itz":6104,"anish":6105,"Ġcandid":6106,"yal":6107,"Ġwet":6108,"Ġheter":6109,"ĠDue":6110,"Ġcontract":6111,"Ġ46":6112,"Ġshoot":6113,"Ġfloor":6114,"Ġeasy":6115,"radi":6116,"ĠUnder":6117,"EST":6118,"ĠSeptember":6119,"Ġthrow":6120,"Ġimm":6121,"Ġpurpose":6122,"ĠCy":6123,"Ġdecl":6124,"Ġ1990":6125,"SP":6126,"ulos":6127,"ĠCro":6128,"Ġinvasive":6129,"Ġcreams":6130,"Ġprofessional":6131,"Ġbehavi":6132,"Ġdrainage":6133,"aser":6134,"ĠSub":6135,"Ġparticipants":6136,"Ġves":6137,"Ġrough":6138,"ĠPatel":6139,"ĠAB":6140,"ĠDav":6141,"Ġwebsite":6142,"Ġantip":6143,"Ġmalignancy":6144,"Ġspeech":6145,"Ġprevention":6146,"ĠCentral":6147,"Ġket":6148,"Ġpalp":6149,"ĠMake":6150,"izine":6151,"cystic":6152,"ĠSuch":6153,"ĠPos":6154,"Ġuses":6155,"isions":6156,"Ġmetal":6157,"uation":6158,"IR":6159,"Wishing":6160,"Ġgames":6161,"Ġovercome":6162,"ĠEd":6163,"iece":6164,"ondyl":6165,"Ġejaculate":6166,"Ġcollected":6167,"Ġengine":6168,"ĠIL":6169,"olid":6170,"Ġundergoing":6171,"from":6172,"Ġnovel":6173,"ocket":6174,"98":6175,"Ġsomewhat":6176,"Ġreplaced":6177,"itic":6178,"ĠAz":6179,"Ġmember":6180,"ĠAntib":6181,"Ġpet":6182,"low":6183,"Ġachieve":6184,"night":6185,"Ġmitochond":6186,"ĠTher":6187,"ĠSGPT":6188,"IF":6189,"baceous":6190,"ibular":6191,"ĠAP":6192,"Ġrelieved":6193,"Ġguess":6194,"Ġcontinuously":6195,"Ġpolitical":6196,"ĠDisease":6197,"Ġforget":6198,"ART":6199,"induced":6200,"Ġbrought":6201,"Ġmineral":6202,"Ġintensity":6203,"ĠAfrican":6204,"ait":6205,"rocy":6206,"ĠAmerica":6207,"Ġsulf":6208,"Ġcirrhosis":6209,"Ġcreate":6210,"ca":6211,"ĠCR":6212,"stract":6213,"fectious":6214,"Ã¡":6215,"Ġoily":6216,"mented":6217,"Ġcontext":6218,"LA":6219,"semb":6220,"ille":6221,"Ġstrongly":6222,"ocardi":6223,"Table":6224,"Ġcorrelation":6225,"Ġfunctioning":6226,"Ġmarriage":6227,"Ġconsidering":6228,"Ġdamaged":6229,"idazole":6230,"reased":6231,"ka":6232,"Ġendoc":6233,"ture":6234,"ĠFunction":6235,"Ġconfirmation":6236,"Ġtightness":6237,"Ġscler":6238,"ias":6239,"Ġconver":6240,"ĠCommon":6241,"ĠUltrasound":6242,"Ġrisks":6243,"Ġesophagus":6244,"Ġbronchodil":6245,"Ġ).":6246,"angi":6247,"Ġkeeping":6248,"Ġsoap":6249,"44":6250,"Ġvs":6251,"Ġ43":6252,"Ġforeign":6253,"Ġfertility":6254,"Ġconsent":6255,"Ġcomparison":6256,"Ġrhyth":6257,"ĠChe":6258,"Ġassistance":6259,"Ġcounsel":6260,"Ġlymphocytes":6261,"Ġnone":6262,"Ġ47":6263,"oppler":6264,"Ġpatterns":6265,"Ġcompany":6266,"reed":6267,"enior":6268,"irm":6269,"Ġrelaxant":6270,"ĠBh":6271,"Ġhar":6272,"YYYY":6273,"Ġground":6274,"Ġsuscept":6275,"Ġdermatitis":6276,"osite":6277,"Ġtachy":6278,"Ġprincip":6279,"Ġpad":6280,"ĠGreek":6281,"lege":6282,"Ġactual":6283,"Ġimportance":6284,"Ġdevice":6285,"Ġlinks":6286,"Ġaffecting":6287,"Ġms":6288,"ĠMic":6289,"Ġaccumulation":6290,"uge":6291,"Ġfacts":6292,"Ġpsychotherapy":6293,"Ġselected":6294,"ĠPress":6295,"oxacin":6296,"ĠÎ±":6297,"Ġamounts":6298,"Ġacquired":6299,"ĠArch":6300,"ye":6301,"ĠApollo":6302,"Am":6303,"Ġmucosa":6304,"icken":6305,"ĠOf":6306,"Ġboil":6307,"alled":6308,"Ġdead":6309,"ĠWest":6310,"Ġcleaning":6311,"Ġclearly":6312,"ano":6313,"Ġdrinks":6314,"dr":6315,"Ġdyn":6316,"ĠNothing":6317,"ruary":6318,"ipid":6319,"Ġminim":6320,"How":6321,"Ġweird":6322,"uscular":6323,"ĠPCOD":6324,"ĠDef":6325,"aminophen":6326,"Ġobstruct":6327,"berg":6328,"YYY":6329,"Ġguidelines":6330,"Ġcolour":6331,"Ġinterpret":6332,"Ġdrop":6333,"Ġdna":6334,"ĠYYYY":6335,"Ġachieved":6336,"reet":6337,"thern":6338,"ĠChapter":6339,"Ġconscious":6340,"Ġdecide":6341,"ĠAnn":6342,"ĠTSH":6343,"Ġpainkillers":6344,"Ġincision":6345,"Ġaneurys":6346,"alin":6347,"Ġafternoon":6348,"Ġcool":6349,"version":6350,"omatic":6351,"97":6352,"ylenol":6353,"Ġencoun":6354,"Ġpi":6355,"olved":6356,"UM":6357,"Ġapproved":6358,"Ġallowed":6359,"ĠWITH":6360,"ĠDM":6361,"Ġinfilt":6362,"clusive":6363,"cking":6364,"Ġrecon":6365,"rees":6366,"ĠLym":6367,"Ġhall":6368,"sem":6369,"Ġcontribute":6370,"ĠSpecialist":6371,"oul":6372,"icillin":6373,"Ġtalking":6374,"Ġinjured":6375,"Ġsaliva":6376,"Ġremained":6377,"Ġresid":6378,"Ġsafety":6379,"Ġextend":6380,"Ġthickness":6381,"ora":6382,"ĠHel":6383,"Ġaer":6384,"Ġsuggesting":6385,"Ġtotally":6386,"Ġouter":6387,"Ġinduction":6388,"ĠOral":6389,"oric":6390,"occ":6391,"Ġoccurring":6392,"Ġcos":6393,"nic":6394,"Ġvomited":6395,"Ġhimself":6396,"Ġoperated":6397,"Ġintroduced":6398,"Ġantifungal":6399,"Ġfist":6400,"Ġestrogen":6401,"Ġsegment":6402,"Ġforces":6403,"Ġ52":6404,"Ġinternational":6405,"Ġprotocol":6406,"Ġpharmac":6407,"ĠInter":6408,"ocl":6409,"Ġcalf":6410,"ining":6411,"Ġappreciated":6412,"ĠDiagn":6413,"ĠIF":6414,"ĠCount":6415,"ĠHS":6416,"uth":6417,"Ġasymptomatic":6418,"Ġpostoperative":6419,"ondon":6420,"Ġmeat":6421,"Ġlinked":6422,"ĠBer":6423,"Ġsymp":6424,"Ġworst":6425,"Ġreference":6426,"ĠRel":6427,"itoneal":6428,"Ġwatch":6429,"Ġmeant":6430,"Ġmur":6431,"Ġcompound":6432,"attachment":6433,"Ġtiny":6434,"ya":6435,"Ġ41":6436,"thening":6437,"ĠSurgical":6438,"Ġposture":6439,"An":6440,"ĠChronic":6441,"46":6442,"Ġmedial":6443,"Ġvomit":6444,"Ġproducing":6445,"Ġanyone":6446,"ĠHere":6447,"yg":6448,"Ġcig":6449,"ASE":6450,"cs":6451,"Ġpenet":6452,"chemic":6453,"ĠCollege":6454,"Ġelder":6455,"Ġproposed":6456,"uses":6457,"Ġran":6458,"igned":6459,"la":6460,"Ġhelping":6461,"SI":6462,"Ġaug":6463,"Ġthreat":6464,"olysis":6465,"document":6466,"ĠNeurologist":6467,"Ġprophyl":6468,"Ġvirt":6469,"cutaneous":6470,"imic":6471,"entional":6472,"Ġureth":6473,"ĠWhy":6474,"Ġmist":6475,"hyroidism":6476,"ĠBas":6477,"rhea":6478,"Ġshare":6479,"ontal":6480,"Ġfilling":6481,"Ġdegenerative":6482,"Ġod":6483,"Ġnucleus":6484,"Ġbeyond":6485,"ĠJapan":6486,"Ġnorth":6487,"inas":6488,"reated":6489,"ĠInternational":6490,"Ġton":6491,"asp":6492,"ĠHospital":6493,"ĠRadi":6494,"Ġputting":6495,"Ġdesigned":6496,"Ġpersonality":6497,"Ġsouth":6498,"ĠPers":6499,"Ġdad":6500,"Ġresistant":6501,"kinson":6502,"ients":6503,"Ġbypass":6504,"Ġresting":6505,"Ġleak":6506,"Ġmarket":6507,"ĠRight":6508,"Ġmacroph":6509,"ĠIbuprofen":6510,"hern":6511,"fs":6512,"Ġbruising":6513,"LO":6514,"actin":6515,"Ġaim":6516,"Ġpink":6517,"Ġpla":6518,"ĠCO":6519,"Ġformula":6520,"Ġvitamins":6521,"SAID":6522,"uloskeletal":6523,"lusion":6524,"Ġion":6525,"Ġfasc":6526,"Ġdevelops":6527,"Ġrequest":6528,"ĠReferences":6529,"ications":6530,"Ġ1999":6531,"Ġwrote":6532,"years":6533,"arter":6534,"Ġanymore":6535,"Don":6536,"omeg":6537,"rology":6538,"Ġconclud":6539,"eph":6540,"ero":6541,"Ġfibr":6542,"Ġbroke":6543,"Ġtransplantation":6544,"Ġextrem":6545,"fortunately":6546,"Ġbeneficial":6547,"Ġrecognized":6548,"ĠUnion":6549,"uitary":6550,"Ġtown":6551,"Ġsche":6552,"Ġcortex":6553,"Res":6554,"Ġana":6555,"ĠChinese":6556,"Ġnail":6557,"Ġstructural":6558,"Ġspeak":6559,"Ġsubstant":6560,"Ġadvant":6561,"ĠJew":6562,"cler":6563,"lu":6564,"cele":6565,"Ġtendon":6566,"Ġdementia":6567,"ogens":6568,"ĠURL":6569,"ĠRepublic":6570,"Ġsessions":6571,"Ġunderwent":6572,"Ġaud":6573,"Ġplatelets":6574,"Ġimpaired":6575,"ĠLo":6576,"ĠImmun":6577,"Ġinteractions":6578,"cision":6579,"grad":6580,"Ġobese":6581,"Ġbasal":6582,"Ġfinished":6583,"ĠPhil":6584,"ĠFIG":6585,"Ġsexually":6586,"Ġsources":6587,"ilet":6588,"ĠIVF":6589,"Ġbuilt":6590,"IA":6591,"ĠHuss":6592,"otal":6593,"Ġdomain":6594,"Ġrheumat":6595,"anded":6596,"Ġplanned":6597,"Ġcrack":6598,"ĠParacetamol":6599,"aintain":6600,"thank":6601,"Ġtriglycer":6602,"49":6603,"Ġther":6604,"ground":6605,"ideo":6606,"life":6607,"Ġconnection":6608,"eu":6609,"vascular":6610,"Ġgreatly":6611,"Ġsupervision":6612,"ĠCurrent":6613,"Ġplayed":6614,"icated":6615,"key":6616,"ĠSever":6617,"Ġenhance":6618,"ĠSP":6619,"Ġrecorded":6620,"acid":6621,"Ġtransmission":6622,"romycin":6623,"Ġreflex":6624,"Ġwheezing":6625,"Ġfiber":6626,"ï¬":6627,"Ġadrenal":6628,"Ġdecreases":6629,"rows":6630,"ĠSyn":6631,"ilation":6632,"Ġrelaxation":6633,"Ġdie":6634,"ï¬Ĥ":6635,"ĠCanada":6636,"Ġtestosterone":6637,"Ġreproductive":6638,"01":6639,"cus":6640,"Ġpick":6641,"Ġfollicular":6642,"Ġvariables":6643,"Ġaz":6644,"Ġrelevant":6645,"Ġtransmitted":6646,"Ġmarkers":6647,"wor":6648,"rod":6649,"Ġexcision":6650,"ĠLiver":6651,"hope":6652,"Ġbill":6653,"ounced":6654,"89":6655,"Ġtun":6656,"Ġsmoker":6657,"ĠLib":6658,"Ġcode":6659,"Ġlum":6660,"ĠMS":6661,"oked":6662,"41":6663,"ĠNO":6664,"Ġmigraine":6665,"Ġsearch":6666,"Ġaware":6667,"Ġpoisoning":6668,"oes":6669,"Ġinfant":6670,"RA":6671,"Ġtraditional":6672,"osomal":6673,"tenance":6674,"Ġmassage":6675,"arely":6676,"02":6677,"ffee":6678,"Ġchanging":6679,"Ġaspirin":6680,"Ġsuspect":6681,"Ġfraction":6682,"Ġclus":6683,"ocking":6684,"Ġdefic":6685,"estive":6686,"Ġcontroll":6687,"Ġrestriction":6688,"Ġmultivitamin":6689,"Ġexert":6690,"Ġmelan":6691,"Ġended":6692,"03":6693,"Ġviol":6694,"Ġsched":6695,"take":6696,"ĠPri":6697,"rick":6698,"Ġfemales":6699,"ilateral":6700,"rich":6701,"Ġstar":6702,"Ġscans":6703,"versible":6704,"change":6705,"Ġstopping":6706,"oring":6707,"Ġbodies":6708,"Ġremedy":6709,"Ġ99":6710,"Ġiam":6711,"Ġpsychiatric":6712,"ĠCle":6713,"Ġempty":6714,"Ġencephal":6715,"agues":6716,"Ġcapt":6717,"ago":6718,"ogene":6719,"Ġcytoplasm":6720,"body":6721,"ĠCM":6722,"ologies":6723,"ĠEngland":6724,"istan":6725,"Ġspecifically":6726,"Ġtrim":6727,"chemia":6728,"Ġgerm":6729,"Ġinstruction":6730,"NAC":6731,"ogenous":6732,"Ġign":6733,"ola":6734,"Ġlanguages":6735,"Ġinfarction":6736,"Ġbeats":6737,"Ġaccurate":6738,"Ġreactive":6739,"Ġchannel":6740,"Ġtall":6741,"Ġcrown":6742,"lycemia":6743,"Ġcolumn":6744,"Ġcompounds":6745,"isk":6746,"ĠHussain":6747,"Ġgap":6748,"Ġinterval":6749,"Ġextracted":6750,"cellent":6751,"Ġhealed":6752,"Ġobservation":6753,"Ġfed":6754,"ĠEmp":6755,"Ġcast":6756,"Ġlie":6757,"Ġexplained":6758,"From":6759,"Ġyoga":6760,"Ġyounger":6761,"Ġthereby":6762,"Ġtyphoid":6763,"Ġtea":6764,"Ġworm":6765,"Ġpeptide":6766,"Ġhr":6767,"ĠCity":6768,"Ġpancreatitis":6769,"Ġsold":6770,"72":6771,"Ġintracellular":6772,"Ġdepos":6773,"Ġtrack":6774,"Ġclosely":6775,"Ġinhalation":6776,"What":6777,"ERY":6778,"%)":6779,"Ġhypog":6780,"yurveda":6781,"Ġintermitt":6782,"Ġbusiness":6783,"pm":6784,"initis":6785,"ager":6786,"CP":6787,"Ġairway":6788,"ĠHealthcaremagic":6789,"ĠEarly":6790,"Ġreached":6791,"Ġpreventing":6792,"Ġworsen":6793,"Ġnecrosis":6794,"pre":6795,"etal":6796,"ulum":6797,"ctors":6798,"imens":6799,"Ġmixture":6800,"Ġyield":6801,"Ġradio":6802,"craft":6803,"Ġdiffuse":6804,"ĠGeor":6805,"igens":6806,"ocet":6807,"Ġprone":6808,"ĠTill":6809,"Ġmorb":6810,"inding":6811,"Ġskill":6812,"ĠStill":6813,"Ġmatrix":6814,"ridge":6815,"ĠFew":6816,"yd":6817,"ĠInfection":6818,"outhern":6819,"Ġaggressive":6820,"Ġtesticles":6821,"Ġepilepsy":6822,"Ġultrasonography":6823,"53":6824,"erican":6825,"AST":6826,"obic":6827,"Ġdominant":6828,"urse":6829,"Ġcrying":6830,"ĠLondon":6831,"ĠChina":6832,"Ġlimbs":6833,"Ġblockage":6834,"Ġincor":6835,"Ġischemic":6836,"Ġsometime":6837,"KG":6838,"abetes":6839,"Ġpsoriasis":6840,"throp":6841,"ĠAlexander":6842,"Ġdescrib":6843,"Ġgranul":6844,"Ġbloating":6845,"Ġthrombosis":6846,"irizine":6847,"Ġinfants":6848,"Ġ140":6849,"Ġconservative":6850,"ĠChap":6851,"Ġtemp":6852,"aud":6853,"Ġuncle":6854,"Ġupset":6855,"ocytosis":6856,"erol":6857,"ĠVal":6858,"athetic":6859,"ĠJay":6860,"Ġfacil":6861,"ford":6862,"Ġcru":6863,"Ġfold":6864,"Ġtoes":6865,"Ġvul":6866,"ĠNon":6867,"Ġserve":6868,"Ġpsychologist":6869,"Ġmalaria":6870,"Any":6871,"Ġdat":6872,"Ġmedia":6873,"Ġminimum":6874,"Ġleafy":6875,"CE":6876,"Ġexcret":6877,"Ġplaces":6878,"ĠLow":6879,"Ġaltered":6880,"lies":6881,"ĠExternal":6882,"Ġelevation":6883,"Ġsequences":6884,"Ġgallst":6885,"Ġfaster":6886,"Ġalkal":6887,"Ġfractures":6888,"Ġnetwork":6889,"66":6890,"ĠUr":6891,"Ġcalculated":6892,"Ġcomposed":6893,"aped":6894,"icking":6895,"uncture":6896,"Ġ58":6897,"Ġsolve":6898,"ĠMeanwhile":6899,"Ġtenderness":6900,"chol":6901,"ĠShinas":6902,"Ġreceiving":6903,"Ġren":6904,"Ġ49":6905,"Ġconnected":6906,"iatic":6907,"Ġjunction":6908,"eal":6909,"esophageal":6910,"dominal":6911,"ramm":6912,"ĠRE":6913,"Ġstru":6914,"Ġatrial":6915,"Ġextension":6916,"ĠMus":6917,"ĠEst":6918,"Ġproton":6919,"Ġanxious":6920,"Ġcartil":6921,"PV":6922,"ĠNa":6923,"ĠBattle":6924,"icitis":6925,"Ġcouldn":6926,"Ġantihistamine":6927,"ĠSystem":6928,"42":6929,"Ġregimen":6930,"Ġexcluded":6931,"Ġdistance":6932,"Ġcapsule":6933,"certain":6934,"Ġscreen":6935,"Ġinflamed":6936,"Ġchicken":6937,"oser":6938,"Ġfolic":6939,"that":6940,"lications":6941,"chn":6942,"Ġcovered":6943,"Ġischemia":6944,"Ġcomment":6945,"sens":6946,"formin":6947,"adine":6948,"Ġ85":6949,"Ġcontrols":6950,"Ġmyocardial":6951,"Ġlosing":6952,"Ġ1998":6953,"ĠLev":6954,"itte":6955,"Ġsoftware":6956,"Ġvisited":6957,"otoxic":6958,"Ġantise":6959,"Ġmoney":6960,"cence":6961,"fast":6962,"Ġneurologic":6963,"Ġaort":6964,"Ġskull":6965,"Ġneon":6966,"Ġbutton":6967,"Ġorganism":6968,"was":6969,"otomy":6970,"ĠBM":6971,"ĠPen":6972,"ĠPal":6973,"Ġemotional":6974,"ĠSud":6975,"Ġnipp":6976,"idney":6977,"Ġinher":6978,"Ġelement":6979,"Ġwearing":6980,"Ġmechanical":6981,"Ġdisplay":6982,"Ġhop":6983,"Ġspondyl":6984,"Ġurgent":6985,"Ġepithelium":6986,"Ġbranch":6987,"ĠdearI":6988,"atter":6989,"amide":6990,"ĠArt":6991,"mptoms":6992,"Ġacts":6993,"Ġbipolar":6994,"Ġsuperf":6995,"Ġhealthcaremagic":6996,"Ġadoles":6997,"Ġnaturally":6998,"ĠFebruary":6999,"Ġapplying":7000,"alian":7001,"Ġreact":7002,"ricted":7003,"Ġsituations":7004,"Ġmusculoskeletal":7005,".(":7006,"Ġsquee":7007,"Ġstrange":7008,"Ġthoracic":7009,"ript":7010,"ĠGastro":7011,"alk":7012,"Ġcarri":7013,"Ġbenefits":7014,"Ġ~":7015,"Ġspray":7016,"ĠAbstract":7017,"Ġpeak":7018,"Ġpol":7019,"Ġterrit":7020,"Ġtemporal":7021,"Ġcomplement":7022,"Ġobserv":7023,"Ġexcellent":7024,"Ġdin":7025,"ĠLike":7026,"ĠPhysi":7027,"Ġfalling":7028,"ĠColumb":7029,"Ġbathroom":7030,"Ġdecay":7031,"Ġmaintenance":7032,"agulation":7033,"Ġcolonoscopy":7034,"Ġconduction":7035,"olone":7036,"ĠSU":7037,"outs":7038,"Ġarrhythmia":7039,"Ġmaintained":7040,"Ġrhythm":7041,"ĠAfrica":7042,"oper":7043,"geal":7044,"ĠGreat":7045,"Ġalg":7046,"eck":7047,"ometry":7048,"Ġmanifestations":7049,"ĠOrthop":7050,"tail":7051,"izer":7052,"ĠSeveral":7053,"irect":7054,"Ġendometrial":7055,"Ġperhaps":7056,"ĠOv":7057,"Ġpreg":7058,"Ġkillers":7059,"Ġensure":7060,"coholic":7061,"ĠRegarding":7062,"Ġavoiding":7063,"sterectomy":7064,"Ġfalse":7065,"kes":7066,"Ġenvironmental":7067,"Ġmicrob":7068,"ĠDI":7069,"roy":7070,"ortun":7071,"Ġspir":7072,"Ġterminal":7073,"Ġpopulations":7074,"igence":7075,"Ġsupposed":7076,"Ġelderly":7077,"rad":7078,"Chap":7079,"Ġincident":7080,"Ġmembran":7081,"Un":7082,"Ġ56":7083,"Ġpercentage":7084,"ĠWould":7085,"Ġlocally":7086,"Ġcervix":7087,"mark":7088,"wash":7089,"ders":7090,"organ":7091,"Ġbony":7092,"Ġprivate":7093,"Ġtrigger":7094,"Ġsports":7095,"Ġanalys":7096,"ĠRA":7097,"ediatrician":7098,"Ġstrengthening":7099,"MA":7100,"Ġsignals":7101,"Ġlargely":7102,"Ġcigaret":7103,"Ġpuls":7104,"Ġfusion":7105,"bear":7106,"ĠMond":7107,"Ġaddress":7108,"gf":7109,"Ġprednis":7110,"Ġbelieved":7111,"Ġauthors":7112,"Ġuser":7113,"ND":7114,"ĠAdv":7115,"Ġabsorb":7116,"ĠArab":7117,"Ġom":7118,"Ġquad":7119,"Ġimple":7120,"wide":7121,"Ġampl":7122,"bone":7123,"Ġinhibition":7124,"have":7125,"ĠNormal":7126,"inf":7127,"Ġmedian":7128,"Ġoct":7129,"57":7130,"Ġdifferential":7131,"Ġencou":7132,"Ġvaries":7133,"Ġtachycardia":7134,"Ġodd":7135,"Ġpoop":7136,"Ġnutrition":7137,"Ġfourth":7138,"Ġviruses":7139,"rif":7140,"Ġ1980":7141,"Ġsneezing":7142,"Ġpaper":7143,"Ġabsorption":7144,"Ġsuspic":7145,"Ġcollagen":7146,"Ġfocal":7147,"Ġinch":7148,"ĠThough":7149,"ociation":7150,"Ġbright":7151,"ryl":7152,"Ġdepressive":7153,"Ġphilos":7154,"Ġruns":7155,"Ġdiver":7156,"Ġgenome":7157,"Ġecg":7158,"Ġlupus":7159,"Ġokay":7160,"ki":7161,"ĠSE":7162,"rant":7163,"Ġgeneralized":7164,"Ġ54":7165,"ophren":7166,"Ġtoilet":7167,"Ġsebaceous":7168,"Ġcoffee":7169,"Ġ250":7170,"Ġgastroenterologist":7171,"Ġate":7172,"Ġsubstances":7173,"Ġtechnology":7174,"Ġcytokines":7175,"ufact":7176,"86":7177,"Ġstudents":7178,"Ġprogramm":7179,"Ġcolleagues":7180,"ulture":7181,"ĠNE":7182,"Ġforehead":7183,"Ġroots":7184,"ught":7185,"Ġstudent":7186,"Ġchannels":7187,"Ġexpress":7188,"ikai":7189,"arcin":7190,"ĠWhe":7191,"Ġcystic":7192,"Ġchills":7193,"Ġvertebra":7194,"xiety":7195,"ona":7196,"Ġembryo":7197,"Ġging":7198,"quit":7199,"ĠAF":7200,"agement":7201,"Ġstiffness":7202,"iasis":7203,"ĠIr":7204,"Ġexplan":7205,"ĠWBC":7206,"ournal":7207,"Ġrins":7208,"face":7209,"jective":7210,"Research":7211,"joy":7212,"rex":7213,"ĠNSAID":7214,"ishing":7215,"And":7216,"RNA":7217,"Ġmanufact":7218,"Ġeconomic":7219,"//":7220,"ĠCharles":7221,"uel":7222,"Ġvan":7223,"Ġhypotension":7224,"Ġpseud":7225,"going":7226,"Ġmedium":7227,"Ġantagon":7228,"Ġultra":7229,"orph":7230,"ipro":7231,"Ġmeditation":7232,"erent":7233,"onazole":7234,"ba":7235,"onomic":7236,"Ġairways":7237,"phosph":7238,"Ġplays":7239,"got":7240,"cline":7241,"Ġcleared":7242,"Ġdrive":7243,"Ġradiating":7244,"Ġpotentially":7245,"ĠIndian":7246,"Ġunf":7247,"Ġfire":7248,"isation":7249,"ĠDel":7250,"Ġselective":7251,"Ġcontacting":7252,"ĠALT":7253,"Ġcramping":7254,"Ġnons":7255,"Ġunc":7256,"aryng":7257,"gm":7258,"ĠSat":7259,"Ġspeed":7260,"ĠFrance":7261,"Ġtherapies":7262,"Ġdiscussing":7263,"ologically":7264,"Ġbuilding":7265,"ĠDoc":7266,"Ġresolution":7267,"Ġdisturbances":7268,"Ġmachine":7269,"there":7270,"itching":7271,"eli":7272,"Ġtoxicity":7273,"Ġ57":7274,"Ġabuse":7275,"orrhea":7276,"ĠMil":7277,"riosis":7278,"aed":7279,"Ġhairs":7280,"Ġgangl":7281,"ocortic":7282,"inity":7283,"Ġdiscontin":7284,"Ġlocalized":7285,"Ġ{":7286,"Ġpimples":7287,"Ġrabies":7288,"Ġchromosome":7289,"ĠMonday":7290,"adol":7291,"Ġdisappear":7292,"Ġlaser":7293,"Ġsubt":7294,"Ġvoice":7295,"ĠDR":7296,"eff":7297,"Ġterrible":7298,"Ġpush":7299,"ĠSurgery":7300,"Ġpreparation":7301,"43":7302,"Ġking":7303,"Ġkinase":7304,"Ġpredominant":7305,"Ġunique":7306,"ĠWestern":7307,"Ġlasts":7308,"Ġpac":7309,"Ġbenz":7310,"PS":7311,"isone":7312,"Ġupload":7313,"Ġschiz":7314,"ĠPort":7315,"riter":7316,"Ġneutroph":7317,"Â°":7318,"Ġthumb":7319,"ĠHEL":7320,"ĠAR":7321,"cob":7322,"Ġgut":7323,"acerb":7324,"ĪĴ":7325,"ception":7326,"pain":7327,"ĠĠĠĠĠĠĠĠĠĠĠĠĠĠĠĠĠĠĠĠĠĠĠĠĠĠĠĠĠĠĠĠ":7328,"ĠMot":7329,"ĠALL":7330,"Ġglobal":7331,"enic":7332,"Ġmetastatic":7333,"ĠDavid":7334,"Ġpolic":7335,"Ġalt":7336,"Ġremed":7337,"osupp":7338,"Ġectopic":7339,"Ġfung":7340,"Ġfift":7341,"aching":7342,"oplasty":7343,"ĠCanadian":7344,"Ġphenomenon":7345,"Ġscheduled":7346,"Ġgold":7347,"Ġofficial":7348,"aur":7349,"Ġuniversity":7350,"etine":7351,"ĠCath":7352,"ĠPan":7353,"Ġmediated":7354,"Ġhypothyroidism":7355,"Ġsong":7356,"Ġcock":7357,"Ġbegins":7358,"She":7359,"orter":7360,"ĠCoun":7361,"ĠPhysical":7362,"Ġconnective":7363,"ultaneous":7364,"Ġpure":7365,"96":7366,"Ġgeneration":7367,"ĠFIGURE":7368,"such":7369,"ĠCong":7370,"Ġequal":7371,"amer":7372,"Ġexperimental":7373,"ionic":7374,"Ġantigens":7375,"Ġforming":7376,"Ġstretching":7377,"PC":7378,"bul":7379,"entions":7380,"Ġsmear":7381,"Ġwont":7382,"egree":7383,"Ġbending":7384,"imer":7385,"Ġscience":7386,"Ġonto":7387,"ĠChem":7388,"Ġmeningitis":7389,"rug":7390,"ospor":7391,"Ġvertigo":7392,"math":7393,"Ġbox":7394,"Ġmetastasis":7395,"acterial":7396,"Ġproportion":7397,"Ġesophageal":7398,"Ġbrid":7399,"specific":7400,"Ġantiseptic":7401,"mL":7402,"ĠEast":7403,"Ġerectile":7404,"rizine":7405,"Ġanus":7406,"Ġ53":7407,"Ġvertebral":7408,"grade":7409,"ios":7410,"itect":7411,"78":7412,"useum":7413,"Ġpresents":7414,"Ġcerebell":7415,"enta":7416,"Ġglut":7417,"Ġstab":7418,"rins":7419,"Ġalph":7420,"Ġmasturbate":7421,"oving":7422,"ukemia":7423,"gnancy":7424,"Ġechocardi":7425,"Ġgrown":7426,"Ġharmful":7427,"Ġ1997":7428,"ario":7429,"entin":7430,"Ġobject":7431,"Ġtends":7432,"Ġsupportive":7433,"Ġwasn":7434,"ĠBUT":7435,"Ġintrac":7436,"months":7437,"Ġ64":7438,"Ġstory":7439,"ĠList":7440,"Ġpee":7441,"Ġcomplaint":7442,"Ġtesticle":7443,"ban":7444,"Ġcommerc":7445,"Ġpituitary":7446,"associated":7447,"Ġtour":7448,"alam":7449,"ĠVis":7450,"ococcal":7451,"ĠVir":7452,"eps":7453,"Ġdegrees":7454,"Ġbehavioral":7455,"Ġcard":7456,"Ġitems":7457,"Ġfeedback":7458,"oler":7459,"rage":7460,"Ġsinusitis":7461,"ĠSO":7462,"arest":7463,"ĠAut":7464,"Ġtesticular":7465,"Ġproliferation":7466,"Ġprotr":7467,"Ġradiograph":7468,"ĠAcute":7469,"Ġclots":7470,"Ġextracellular":7471,"76":7472,"Ġexacerb":7473,"Ġcomput":7474,"Ġencod":7475,"autions":7476,"zing":7477,"Ġnurse":7478,"Ġcomfortable":7479,"ĠOx":7480,"orith":7481,"Ġdraw":7482,"oxetine":7483,"Ġii":7484,"Ġtransfusion":7485,"Ġnurs":7486,"Ġoccasional":7487,"Ġstrateg":7488,"Ġsph":7489,"Ġscen":7490,"Ġelectrolytes":7491,"etics":7492,"ronidazole":7493,"Ġmacrophages":7494,"Ġ1996":7495,"Ġprolapse":7496,"Ġspreading":7497,"Ġsafer":7498,"XX":7499,"ĠMult":7500,"Ġuric":7501,"Ġgender":7502,"001":7503,"Ġindication":7504,"Ġmissing":7505,"Ġcryst":7506,"selling":7507,"essive":7508,"Ġattributed":7509,"Ġpractition":7510,"Ġprecip":7511,"Ġgod":7512,"ĠCSF":7513,"ĠSS":7514,"Ġhysterectomy":7515,"ĠYOUR":7516,"Ġcoh":7517,"Ġrectal":7518,"Ġdram":7519,"Ġstretch":7520,"Ġusers":7521,"Ġcapital":7522,"alle":7523,"ĠTur":7524,"Ġatrophy":7525,"Ġfruit":7526,"Ġdefinitive":7527,"ĠAge":7528,"Ġasleep":7529,"aginal":7530,"Ġmeasurement":7531,"ĠBook":7532,"openia":7533,"empor":7534,"trans":7535,"oneph":7536,"olecyst":7537,"cod":7538,"Ġproject":7539,"Ġangiography":7540,"atever":7541,"iforn":7542,"All":7543,"Ġagon":7544,"Ġ62":7545,"Ġphysiotherapist":7546,"ĠOp":7547,"ĠFurthermore":7548,"ĠDermat":7549,"ĠProg":7550,"Ġna":7551,"Ġspell":7552,"Ġdepth":7553,"MP":7554,"may":7555,"ĠSci":7556,"Ġdesc":7557,"Ġprobable":7558,"Ġpolitician":7559,"Ġmount":7560,"Ġcorrection":7561,"ĠVol":7562,"Ġparent":7563,"rey":7564,"Ġsores":7565,"Ġpiece":7566,"Ġadip":7567,"ĠFollowing":7568,"emy":7569,"Ġthinks":7570,"Ġuncommon":7571,"Ġorally":7572,"ĠLI":7573,"Since":7574,"ĠNat":7575,"Ġfigures":7576,"ĠEmpire":7577,"ĠTHIS":7578,"ief":7579,"Ġbulge":7580,"Ġleaving":7581,"Ġdonor":7582,"First":7583,"INE":7584,"Well":7585,"Ġsuc":7586,"Ġchi":7587,"Ã¶":7588,"itative":7589,"Ġhuge":7590,"Ġemp":7591,"'re":7592,"ĠNeed":7593,"ĠBur":7594,"Î±":7595,"ĠProt":7596,"hep":7597,"neg":7598,"Ġaorta":7599,"Ġhaem":7600,"illa":7601,"Ġroll":7602,"ittee":7603,"Ġ51":7604,"Ġmeasurements":7605,"58":7606,"68":7607,"Ġacad":7608,"Ġclassified":7609,"Ġpoll":7610,"Ġmanner":7611,"icate":7612,"aphyl":7613,"Ġanalog":7614,"Ġav":7615,"Ġindepend":7616,"Ġswim":7617,"Ġcapsules":7618,"Ġscientific":7619,"ĠMid":7620,"Ġalternate":7621,"ĠEEG":7622,"77":7623,"Ġwave":7624,"resents":7625,"ĠTay":7626,"Ġexec":7627,"aryngeal":7628,"Ġapopt":7629,"Ġparticles":7630,"Ġlinear":7631,"ĠAG":7632,"olf":7633,"Ġcarotid":7634,"Ġsupported":7635,"Ġnutritional":7636,"Ġendothelial":7637,"Ġconfidence":7638,"ĠFriday":7639,"Ġpleural":7640,"Ġoc":7641,"ensus":7642,"59":7643,"hene":7644,"esium":7645,"Ġgoal":7646,"Ġoffer":7647,"ĠArun":7648,"Ġaspects":7649,"free":7650,"Ġprosp":7651,"Ġregulation":7652,"Ġcortical":7653,"ĠLa":7654,"Ġlymp":7655,"Ġpolymer":7656,"Ġvaccination":7657,"Ġconventional":7658,"urity":7659,"ulates":7660,"ĠEach":7661,"Ġdiscol":7662,"ĠChild":7663,"Ġpermission":7664,"Ġstressed":7665,"Ġdehydration":7666,"bed":7667,"Ġinformed":7668,"Ġoperative":7669,"Ġsignificance":7670,"Ġprompt":7671,"phthal":7672,"asts":7673,"Ġscores":7674,"Ġesc":7675,"rophic":7676,"ini":7677,"Ġphosphory":7678,")-":7679,"Ġsarc":7680,"ĠHyp":7681,"Ġzinc":7682,"Ġcontraception":7683,"ped":7684,"omplete":7685,"Ġordered":7686,"Ġfibro":7687,"patient":7688,"celer":7689,"Ok":7690,"morph":7691,"Ġwatery":7692,"char":7693,"pan":7694,"Ġweights":7695,"ocation":7696,"imately":7697,"Ġobjects":7698,"Ġregional":7699,"Ġapproaches":7700,"bc":7701,"anth":7702,"ĠInf":7703,"Ġphysically":7704,"Ġcartilage":7705,"ĠEKG":7706,"Ġtrust":7707,"century":7708,"rus":7709,"ĠWishes":7710,"Ġallergen":7711,"Ġvariation":7712,"Ġcentre":7713,"plex":7714,"Ġcytology":7715,"Ġbarri":7716,"OME":7717,"uli":7718,"Ġsubsequently":7719,"Ġknot":7720,"orous":7721,"Ġproceed":7722,"Ġkit":7723,"sibility":7724,"mediate":7725,"ĠconcernsI":7726,"://":7727,"Ġtree":7728,"Ġarise":7729,"oprotein":7730,"Ġdeaths":7731,"esh":7732,"Ġshamp":7733,"ypical":7734,"ritic":7735,"CV":7736,"hemat":7737,"Ġbrush":7738,"Ġtrem":7739,"Ġ1995":7740,"otide":7741,"luding":7742,"Ġbreathlessness":7743,"Ġemph":7744,"ĠClass":7745,"Ġpimple":7746,"Ġdisp":7747,"Ġcomprom":7748,"blood":7749,"EAR":7750,"Ġtob":7751,"Ġexpans":7752,"Ġmembranes":7753,"astern":7754,"Ġabsolutely":7755,"Ġrecru":7756,"aken":7757,"Ġretention":7758,"Ġprecautions":7759,"Ġsphinct":7760,"orad":7761,"Ġsciatic":7762,"Ġlaparoscopic":7763,"ĠBab":7764,"Ġrepresents":7765,"Ġneigh":7766,"Ġjunk":7767,"dL":7768,"Ġequival":7769,"Ġdegeneration":7770,"agul":7771,"Ġcompresses":7772,"ĠMont":7773,"bles":7774,"iers":7775,"ĠBul":7776,"......":7777,"Ġcounseling":7778,"leb":7779,"ĠSociety":7780,"Ġpromote":7781,"ĠAustralian":7782,"ĠAV":7783,"Ġtom":7784,"ĠChic":7785,"ĠAcad":7786,"Ġnames":7787,"class":7788,"ĠTank":7789,"Ġfertile":7790,"amination":7791,"Ġarmpit":7792,"Ġconcentrated":7793,"Ġease":7794,"Ġmulti":7795,"63":7796,"Ġdistress":7797,"azine":7798,"Now":7799,"ĠTAK":7800,"controlled":7801,"ĠBudd":7802,"ĠHCMI":7803,"Ġpanel":7804,"Ġcorresponding":7805,"Ġinteract":7806,"ĠTHAT":7807,"ĠFNAC":7808,"Ġrecovered":7809,"Ġactions":7810,"Ġweather":7811,"Ġhasn":7812,"stream":7813,"Ġfeelings":7814,"Ġenjoy":7815,"Ġfeb":7816,"Ġinterfe":7817,"Ġtelling":7818,"izations":7819,"razil":7820,"Ġmature":7821,"ĠPark":7822,"Ġhav":7823,"irc":7824,"ĠSTD":7825,"Ġ1000":7826,"Ġcorticosteroid":7827,"Ġdiure":7828,"encies":7829,"ĠHen":7830,"Ġdecline":7831,"Ġdivision":7832,"ĠUrologist":7833,"Ġmethyl":7834,"hold":7835,"ĠDem":7836,"sa":7837,"Ġchecking":7838,"Ġvict":7839,"ĠYesterday":7840,"Ġsoreness":7841,"Ġfilms":7842,"ĠIC":7843,"thyroid":7844,"Ġmarks":7845,"Ġretro":7846,"Ġrice":7847,"Ġconfusion":7848,"ithromycin":7849,"Ġmaterials":7850,"Ġcircumst":7851,"Ġorganic":7852,"Ã¼":7853,"when":7854,"Ġraise":7855,"Ġanalyses":7856,"burn":7857,"matic":7858,"psis":7859,"Ġready":7860,"Ġlit":7861,"ĠDoppler":7862,"aper":7863,"Ġmetastases":7864,"Ġflight":7865,"Ġfirm":7866,"ĠBre":7867,"ĠOur":7868,"Ġprotected":7869,"Ġcu":7870,"Ġclassification":7871,"Ġban":7872,"avir":7873,"ylori":7874,"Ġgenerated":7875,"Ġci":7876,"urday":7877,"ĠSur":7878,"Ġvital":7879,"Ġillust":7880,"Ġworsening":7881,"entric":7882,"Ġbulging":7883,"Ġincorpor":7884,"Ġsimultaneous":7885,"Ġblisters":7886,"Ġdifferentiation":7887,"Ġdriving":7888,"Ġspasms":7889,"Ġspin":7890,"Ġpainless":7891,"61":7892,"astric":7893,"Ġconsume":7894,"Ġglomer":7895,"unicardi":7896,"Ġintermittent":7897,"cardi":7898,"AA":7899,"Ġmouse":7900,"Ġpregnancies":7901,"Ġinsp":7902,"Ġfibroid":7903,"Ġsuitable":7904,"TC":7905,"otrans":7906,"umes":7907,"ĠUrine":7908,"IGHT":7909,"rank":7910,"Ġ68":7911,"otes":7912,"ĠFE":7913,"ĠKumar":7914,"ĠWilliam":7915,"Ġreh":7916,"However":7917,"Ġmr":7918,"ĠSa":7919,"Ġimplantation":7920,"Ġsle":7921,"Ġtestis":7922,"ĠHeart":7923,"ĠKingdom":7924,"Ġsubstit":7925,"Ġquantity":7926,"Ġstatistical":7927,"ractor":7928,"Ġelection":7929,"Ġbranches":7930,"Ġremedies":7931,"Ġ1970":7932,"Ġdev":7933,"Ġantihistamines":7934,"GF":7935,"Ġfibrom":7936,"ifornia":7937,"ĠARE":7938,"atil":7939,"Ġfalls":7940,"Ġopposite":7941,"Ġopportun":7942,"ĠState":7943,"aren":7944,"reating":7945,"Ġshoulders":7946,"Ġvideo":7947,"Ġinvasion":7948,"Ġrestricted":7949,"Ġswallowing":7950,"Ġinserted":7951,"Ġanalyzed":7952,"Ġamyl":7953,"Ġassay":7954,"athyroid":7955,"iren":7956,"jected":7957,"uinal":7958,"ato":7959,"Ġinput":7960,"Ġbreasts":7961,"ĠHence":7962,"Ġstuck":7963,"abap":7964,"62":7965,"arbon":7966,"osphat":7967,"Ġtolerance":7968,"Ġcategory":7969,"Ġsuperficial":7970,"wari":7971,"Ġhon":7972,"ĠIl":7973,"ĠhCG":7974,"ĠConst":7975,"Ġmorbidity":7976,"Ġtransient":7977,"Ġnd":7978,"Ġmeasuring":7979,"odont":7980,"Ġsinuses":7981,"dule":7982,"Ġacidity":7983,"ophrenia":7984,"ipe":7985,"ĠPlan":7986,":-":7987,"Ġsoci":7988,"Ġsem":7989,"indd":7990,"Ġtrigg":7991,"ĠGive":7992,"Ġ180":7993,"ĠTherap":7994,"ĠCap":7995,"Ġmassive":7996,"Ġhoney":7997,"oprazole":7998,"ĠPrim":7999,"ĠSan":8000,"orect":8001,"Ġgargles":8002,"zen":8003,"ĠDid":8004,"Ġcoord":8005,"500":8006,"itting":8007,"Ġappendicitis":8008,"ĠArmy":8009,"Magic":8010,"Ġsurgeries":8011,"Ġgallstones":8012,"Ġabsent":8013,"Ġcocktail":8014,"Ġdire":8015,"van":8016,"Ġchin":8017,"Ġsyndromes":8018,"Ġpolyp":8019,"Ġconsumed":8020,"ĠPAIN":8021,"Ġathe":8022,"Ġ1994":8023,"---":8024,"Ġrecognition":8025,"uit":8026,"Ġsprain":8027,"Ġevolution":8028,"Ġprecise":8029,"Ġbruised":8030,"road":8031,"ĠWE":8032,"ĠSC":8033,"ources":8034,"ĠGERD":8035,"Ġtraumatic":8036,"ĠInv":8037,"inter":8038,"Ġpathogens":8039,"ĠLeague":8040,"ĠLong":8041,"ĠMac":8042,"month":8043,"Ġrig":8044,"Ġcenters":8045,"Ġhavent":8046,"Ġelectrical":8047,"Ġcollege":8048,"rawn":8049,"uscle":8050,"Ġstick":8051,"azepam":8052,"HD":8053,"Ġpp":8054,"oconst":8055,"Ġeosinophil":8056,"ĠMoreover":8057,"some":8058,"ĠBat":8059,"Ġlearning":8060,"ochemical":8061,"Ġetiology":8062,"ĠCub":8063,"Ġarrest":8064,"Ġnights":8065,"Ġangle":8066,"Ġmoves":8067,"Ġmonit":8068,"ĠJos":8069,"OC":8070,"Ġfom":8071,"Ġfamilies":8072,"Ġprepared":8073,"Ġgained":8074,"ĠDisorder":8075,"Ġsha":8076,"ĠSovi":8077,"stolic":8078,"Ġdors":8079,"Ġdissection":8080,"ĠAlbert":8081,"Ġveh":8082,"Ġspeedy":8083,"OPD":8084,"ĠResp":8085,"92":8086,"Ġdimin":8087,"83":8088,"Ġreligious":8089,"DS":8090,"fold":8091,"point":8092,"Ġbattle":8093,"Ġstrains":8094,"etyl":8095,"ĠGermany":8096,"Ġchallen":8097,"opor":8098,"52":8099,"Ġcet":8100,"ĠCP":8101,"Ġmodified":8102,"ĠEngl":8103,"Ġphysiological":8104,"Ġ(\"":8105,"ĠLatin":8106,"Ġ2018":8107,"ĠEth":8108,"Ġclub":8109,"ĠConf":8110,"formed":8111,"regards":8112,"Ġurea":8113,"Ġlimits":8114,"Ġfairly":8115,"oblast":8116,"ĠĠĠĠĠ":8117,"Ġimmunosupp":8118,"DA":8119,"ĠElect":8120,"adequ":8121,"94":8122,"iant":8123,"Ġshooting":8124,"atus":8125,"ĠLater":8126,"Ġweekly":8127,"ancing":8128,"Ġfrontal":8129,"Ġstrugg":8130,"ÃŃ":8131,"Ġsepsis":8132,"oidal":8133,"Ġshower":8134,"ipl":8135,"Ġreveal":8136,"ĠInit":8137,"Ġsynthes":8138,"Ġgenitals":8139,".:":8140,"acial":8141,"ĠDisc":8142,"ĠRBC":8143,"Ġassure":8144,"ococcus":8145,"geons":8146,"RIN":8147,"cort":8148,"ether":8149,"Ġendometriosis":8150,"net":8151,"ĠPol":8152,"Ġdegrad":8153,"64":8154,"dep":8155,"Ġshin":8156,"Ġmins":8157,"Ġcomplicated":8158,"Ġ63":8159,"Ġhourly":8160,"Ġbiological":8161,"Ġhorrible":8162,"ĠSecondly":8163,"74":8164,"Ġmouthwash":8165,"ecess":8166,"eprazole":8167,"Ġbadly":8168,"Ġlabel":8169,"Ġsummer":8170,"Ġderm":8171,"ĠSha":8172,"Ġprolactin":8173,"Ġdisturbance":8174,"Ġthighs":8175,"omegaly":8176,"Ġselection":8177,"Ġlisted":8178,"iling":8179,"Ġgym":8180,"osen":8181,"Ġ1992":8182,"Ġsets":8183,"ĠExt":8184,"Ġlearn":8185,"Ġsymb":8186,"Ġcontro":8187,"hypert":8188,"ticaria":8189,"Ġnuclei":8190,"93":8191,"amina":8192,"ĠLE":8193,"Ġmedi":8194,"Ġsphincter":8195,"Ġdiaph":8196,"rend":8197,"Ġlipoma":8198,"Ġmos":8199,"ĠInstit":8200,"????":8201,"Ġdecreasing":8202,"Ġoperating":8203,"ILL":8204,"No":8205,"ĠAsia":8206,"Ġnine":8207,"Ġamoxicillin":8208,"down":8209,"ruption":8210,"ĠHepatitis":8211,"81":8212,"oted":8213,"Ġadop":8214,"Ġmenop":8215,"Yes":8216,"IV":8217,"Ġnic":8218,"Ġzone":8219,"Ġnan":8220,"uris":8221,"ĠSymptoms":8222,"Ġdevi":8223,"Ġsubun":8224,"Ġradiotherapy":8225,"zema":8226,"rotic":8227,"oar":8228,"Ġdyst":8229,"ĠHY":8230,"Ġends":8231,"ĠRiver":8232,"Ġanywhere":8233,"Ġcommunication":8234,"Ġgirlfriend":8235,"ova":8236,"Ġtobacco":8237,"Ġindirect":8238,"Ġoriginally":8239,"Ġaid":8240,"Ġlax":8241,"Ġadvantage":8242,"Ġalgorith":8243,"ĠMich":8244,"Ġcaffe":8245,"ipine":8246,"illed":8247,"ĠWhite":8248,"Ġchurch":8249,"Ġpredisp":8250,"erally":8251,"Ġprobability":8252,"gypt":8253,"haust":8254,"Ġrespect":8255,"Ġportal":8256,"orage":8257,"Ġresidual":8258,"Ġdestroy":8259,"Ġreverse":8260,"ĠWAS":8261,"hesh":8262,"Ġrelaxed":8263,"91":8264,"icing":8265,"Ġcounselling":8266,"Ġcurve":8267,"Ġdop":8268,"Ġdecomp":8269,"adan":8270,"antly":8271,"Ġoffic":8272,"Ġaddiction":8273,"Ġtendency":8274,"overy":8275,"vention":8276,"Ġfun":8277,"Ġleukemia":8278,"Ġseverely":8279,"Ġobstructive":8280,"idone":8281,"Ġsett":8282,"Ġthy":8283,"Ġneither":8284,"Ġparty":8285,"Ġarth":8286,"Ġindicating":8287,"ĠAustralia":8288,"Ġroute":8289,"unch":8290,"Ġexchange":8291,"ĠWil":8292,"actic":8293,"Ġcultures":8294,"Ġdefe":8295,"Ġpositions":8296,"rec":8297,"Ġskeletal":8298,"Ġremoving":8299,"iciencies":8300,"Ġpurple":8301,"Ġtone":8302,"Ġposs":8303,"fered":8304,"Ġrock":8305,"Ġsurfaces":8306,"Ġfluct":8307,"Ġshampoo":8308,"ĠSimilar":8309,"Ġll":8310,"Ġpant":8311,"olk":8312,"Ġshots":8313,"ĠIUI":8314,"Ġdifficulties":8315,"Ġfle":8316,"ĠBrown":8317,"Ġsuppress":8318,"Î²":8319,"Ġassemb":8320,"Ġswitch":8321,"Ġtherapist":8322,"utional":8323,"Ġsocket":8324,"Ġperfor":8325,"Ġbless":8326,"itches":8327,"esare":8328,"ĠMart":8329,"Ġinsufficiency":8330,"Ġconsciousness":8331,"Ġtelevision":8332,"ĠAlong":8333,"Ġbronchodilators":8334,"Ġpassage":8335,"Ar":8336,"Ġlic":8337,"Ġongoing":8338,"ĠAtlant":8339,"Ġumb":8340,"Ġclassical":8341,"Ġbalanced":8342,"Ġphenol":8343,"Ġdestruction":8344,"Ġexpansion":8345,"Ġseas":8346,"Ġcircumcision":8347,"Ġfre":8348,"Ġprograms":8349,"Ġworth":8350,"iazep":8351,"ĠHb":8352,"Ġclarification":8353,"Ġexplanation":8354,"Ġenhanced":8355,"sw":8356,"Ġworrying":8357,"Ġinsect":8358,"ifying":8359,"ĠCamb":8360,"Ġcorrected":8361,"ausal":8362,"ĠAsh":8363,"Ġheaded":8364,"Ġscratch":8365,"Ġdeposition":8366,"urt":8367,"Ġconclusion":8368,"Ġsteam":8369,"Ġcontrolling":8370,"ĠCocaine":8371,"tering":8372,"itted":8373,"Ġbic":8374,"Ġhalluc":8375,"82":8376,"Ġprotective":8377,"org":8378,"raum":8379,"Ġpreced":8380,"Ġophthal":8381,"ĠHouse":8382,"Ġextract":8383,"Ġmarker":8384,"Ġclothes":8385,"Ġappendix":8386,"Ġschedule":8387,"Ġprospective":8388,"Treatment":8389,"Ġcorticosteroids":8390,"Ġaneurysm":8391,"Ġtradition":8392,"roscler":8393,"Ġdomains":8394,"renchym":8395,"Ġpall":8396,"Ġot":8397,"Ġarchitect":8398,"Ġbud":8399,"ĠMedical":8400,"Ġforearm":8401,"Ġhydrogen":8402,"Ġdevelopmental":8403,"Ġbinds":8404,"ĠCalifornia":8405,"Ġtax":8406,"kins":8407,"ingly":8408,"lbs":8409,"Ġ130":8410,"Ġconsequences":8411,"Ġblur":8412,"Ġ59":8413,"Ġproved":8414,"Ġbelong":8415,"Ġbites":8416,"ĠAssociation":8417,"effect":8418,"Ġrunny":8419,"ita":8420,"Ġ67":8421,"Ġcytos":8422,"lav":8423,"least":8424,"ĠDiabetes":8425,"Ġhung":8426,"Ġrear":8427,"Ġsubsided":8428,"Ex":8429,"Ġstability":8430,"Ġcompan":8431,"Ġimproves":8432,"illation":8433,"Ġpartially":8434,"Ġaging":8435,"velopment":8436,"Ġmaintaining":8437,"Ġfried":8438,"tr":8439,"ĠOcc":8440,"Ġvalid":8441,"Ġmitochondrial":8442,"87":8443,"Ġidentification":8444,"veolar":8445,"Ġcomposition":8446,"Ġ1991":8447,"ĠMHC":8448,"Ġker":8449,"84":8450,"ading":8451,"ĠRem":8452,"Ġplastic":8453,"ĠGold":8454,"Ġinstructions":8455,"Ġstaining":8456,"ocarcin":8457,"Ġphosphate":8458,"osomes":8459,"Chat":8460,"Ġbrushing":8461,"Ġoperations":8462,"Ġeffort":8463,"Ġstairs":8464,"Ġsharing":8465,"Ġwalls":8466,"Ġradical":8467,"Ġancient":8468,"OULD":8469,"ĠRest":8470,"ĠDoctors":8471,"uterine":8472,"Ġelectric":8473,"ĠSpanish":8474,"Ġhyperplasia":8475,"Ġfatal":8476,"Ġboard":8477,"Ġtonight":8478,"Ġwid":8479,"isting":8480,"Ġtel":8481,"ĠCOPD":8482,"rave":8483,"Ġamp":8484,"ĠRo":8485,"Ġincub":8486,"ĠPeople":8487,"Ġopi":8488,"Ġannual":8489,"ĠMass":8490,"Ġusa":8491,"ĠPresident":8492,"Ġbesides":8493,"odyn":8494,"abase":8495,"ucid":8496,"Ġ66":8497,"Ġattitude":8498,"Ġkiller":8499,"ĠSoviet":8500,"hatic":8501,"Ġcleaned":8502,"ĠSunday":8503,"Ġmorphology":8504,"vin":8505,"eze":8506,"ĠRoy":8507,"Ġhardly":8508,"Ġmucosal":8509,"ker":8510,"Ġorient":8511,"Ġarmy":8512,"Ġreliable":8513,"Ġisland":8514,"Ġstops":8515,"Ġexhaust":8516,"Ġunivers":8517,"Ġperic":8518,"Ġinguinal":8519,"ĠRever":8520,"Ġideal":8521,"Ġcivil":8522,"Ġinitiated":8523,"Ġtro":8524,"Ġbear":8525,"Ġscanning":8526,"Ġeu":8527,"isin":8528,"ada":8529,"Ġlib":8530,"raind":8531,"Ġactin":8532,"avy":8533,"RES":8534,"Ġcontinuing":8535,"Ġaircraft":8536,"ROM":8537,"onucle":8538,"opian":8539,"âĢ¢":8540,"Ġurinate":8541,"Ġrail":8542,"Ġprophylaxis":8543,"Ġgrav":8544,"Ġdevices":8545,"headed":8546,"Ġrefers":8547,"Ġeffusion":8548,"Ġplacement":8549,"Ġlayers":8550,"ologists":8551,"Ġerythe":8552,"itory":8553,"Ġopened":8554,"Ġnarrowing":8555,"Ġelectrolyte":8556,"Ġcircumstances":8557,"ĠDespite":8558,"Based":8559,"quin":8560,"ĠMaintain":8561,"Ġmodification":8562,"RO":8563,"Ġrecommendations":8564,"field":8565,"Ġrules":8566,"Ġankles":8567,"Ġbooks":8568,"Ġcomplexes":8569,"Ġrectum":8570,"Can":8571,"Ġbarely":8572,"omiting":8573,"abapentin":8574,"uble":8575,"rely":8576,"ĠRich":8577,"mill":8578,"Ġlys":8579,"Ġpil":8580,"Ġ1993":8581,"Ġacademic":8582,"hir":8583,"Ġconcerning":8584,"ĠSoon":8585,"produ":8586,"Ġsurgically":8587,"ĠCommun":8588,"ĠPaul":8589,"Ġurethra":8590,"Ġreass":8591,"arts":8592,"Ġnodules":8593,"Ġtrade":8594,"Ġphysicians":8595,"anol":8596,"anda":8597,"Ġcholecyst":8598,"pling":8599,"ursday":8600,"ilized":8601,"Ġmoreover":8602,"ancial":8603,"Ġdocumented":8604,"Ġdinner":8605,"wood":8606,"ĠEarth":8607,"Ġevident":8608,"ĠHead":8609,"Ġ102":8610,"Ġ.*":8611,"ires":8612,"oea":8613,"Ġpt":8614,"ĠEgypt":8615,"Ġplants":8616,"Ġnutri":8617,"Ġeryth":8618,"Ġcalculus":8619,"Ġstabbing":8620,"Ġantic":8621,"ĠDearWe":8622,"ĠWhich":8623,"Ġinsertion":8624,"ĠJames":8625,"Ġperi":8626,"Ġimmunoglob":8627,"Ġ1960":8628,"Ġindustry":8629,"Ġpractitioner":8630,"Ġorganization":8631,"Ġdigital":8632,"Ġbiliary":8633,"!!!":8634,"73":8635,"ĠSem":8636,"Ġdiffer":8637,"Ġrestrict":8638,"roxy":8639,"Ġped":8640,"Ġvasc":8641,"Ġchains":8642,"Ġexisting":8643,"Ġsociety":8644,"flu":8645,"ael":8646,"including":8647,"Ġbreakfast":8648,"Ġpreferred":8649,"ĠSerum":8650,"Ġstrategy":8651,"Ġsad":8652,"amycin":8653,"Ġultimately":8654,"radiol":8655,"54":8656,"utch":8657,"IP":8658,"gered":8659,"Ġfomentation":8660,"Ġtummy":8661,"robial":8662,"icks":8663,"Ġplain":8664,"yalgia":8665,"Ġsclerosis":8666,"Ġsized":8667,"ald":8668,"Sh":8669,"Ġdm":8670,"ifies":8671,"pread":8672,"ĠContinue":8673,"Ġbackground":8674,"Ġpool":8675,"Ġvill":8676,"Ġplacenta":8677,"ĠBell":8678,"Ġsea":8679,"Ġcompr":8680,"Ġpresident":8681,"esarean":8682,"__":8683,"gin":8684,"Ġpuss":8685,"anus":8686,"Ġdisk":8687,"Ġcohort":8688,"gel":8689,"ensions":8690,"Ġintact":8691,"Ġcareer":8692,"ĠVen":8693,"Ġefforts":8694,"ĠPCR":8695,"Ġaxis":8696,"ĠSchool":8697,"ĠLH":8698,"Ġincomplete":8699,"ĠKalach":8700,"ĠCurrently":8701,"Ġ61":8702,"Ġlasting":8703,"Ġstrategies":8704,"lig":8705,"Ġparalysis":8706,"Ġ\\\"":8707,"def":8708,"Ġ160":8709,"Ġedge":8710,"Ġconcentrate":8711,"reshold":8712,"Ġrubbing":8713,"Ġmont":8714,"Ġwhats":8715,"Ġconflic":8716,"Ġdemonstrate":8717,"Ġsurvey":8718,"Ġintracranial":8719,"ĠKalachikai":8720,"ĠOrgan":8721,"ĠIlir":8722,"Ġdiast":8723,"Ġclim":8724,"Ġentering":8725,"hysi":8726,"Ġejaculated":8727,"Ġdysp":8728,"fall":8729,"adam":8730,"Ġduod":8731,"Ġantidepressant":8732,"ĠAddition":8733,"rinsic":8734,"cho":8735,"Ġstrept":8736,"tics":8737,"Ġjo":8738,"reef":8739,"ĠFib":8740,"Ġconstruct":8741,"Ġdiaphrag":8742,"bbing":8743,"rowth":8744,"Ġantioxid":8745,"Ġgestational":8746,"ĠCNS":8747,"Ġtermed":8748,"ĠGovern":8749,"ĠCardiologist":8750,"Ġpair":8751,"usp":8752,"Ġincreasingly":8753,"ĠHyd":8754,"ĠParty":8755,"doctor":8756,"Ġtheore":8757,"Ġweekend":8758,"Pulmonary":8759,"Ġdefinition":8760,"ĠCouncil":8761,"Ġconstruction":8762,"Ġsuicidal":8763,"Ġequivalent":8764,"adequate":8765,"ĠBack":8766,"Ġsatisfied":8767,"flow":8768,"ĠPCOS":8769,"oconstriction":8770,"ket":8771,"ĠSam":8772,"ĠRobert":8773,"non":8774,"ensional":8775,"Ġafford":8776,"++":8777,"ĠmL":8778,"ette":8779,"ession":8780,"Ġunn":8781,"Ġphotograph":8782,"urgical":8783,"ochrom":8784,"Ġframe":8785,"ĠCONS":8786,"Ġhives":8787,"Ġcertainly":8788,"ukast":8789,"Ġwestern":8790,"Ġviv":8791,"Ġintoler":8792,"itated":8793,"ĠBrazil":8794,"Ġstrenuous":8795,"American":8796,"Ġwild":8797,"Ġprocessing":8798,"Ġcultural":8799,"mias":8800,"56":8801,"Ġpreterm":8802,"Ġpron":8803,"Ġintervals":8804,"ĠGall":8805,"Ġskills":8806,"FE":8807,"lev":8808,"Ġangina":8809,"Ġentirely":8810,"ĠAlp":8811,"ĠBrain":8812,"TIC":8813,"SM":8814,"Ġjump":8815,"Ġfistula":8816,"Ġeffectively":8817,"Ġmmol":8818,"Ġfluores":8819,"idespread":8820,"Ġcirculating":8821,"ĠShareef":8822,"Ġavail":8823,"Ġcities":8824,"Ġplayers":8825,"rep":8826,"Ġcosts":8827,"Ġqualified":8828,"Br":8829,"reditary":8830,"Ġlaying":8831,"With":8832,"Ġhz":8833,"anti":8834,"Ġregulatory":8835,"Ġnewborn":8836,"ioned":8837,"ĠFever":8838,"ĠGynecologist":8839,"Ġstronger":8840,"At":8841,"Ġruptured":8842,"51":8843,"ilis":8844,"Ġwarf":8845,"ĠThree":8846,"Ġclom":8847,"Ġchair":8848,"Ġsustained":8849,"79":8850,"Ġalcoholic":8851,"Ġbabies":8852,"Ġhospitals":8853,"Ġschizophrenia":8854,"asure":8855,"Ġupd":8856,"Ġiod":8857,"Ġcolitis":8858,"thetic":8859,"Ġcaffeine":8860,"Ġjournal":8861,"Ġoccurrence":8862,"opram":8863,"Ġly":8864,"oprol":8865,"Ġthats":8866,"Ġinfusion":8867,"Ġsuccessfully":8868,"Ġpresenting":8869,"Ġhips":8870,"Ġvitro":8871,"uate":8872,"Ġblocks":8873,"\")":8874,"Ġbub":8875,"ĠPulmonary":8876,"ĠCatholic":8877,"Ġnorm":8878,"ĠOK":8879,"Ġparalle":8880,"Ġkilled":8881,"positive":8882,"infection":8883,"Ġerupt":8884,"Ġrevers":8885,"Ġretic":8886,"ĠMild":8887,"Ġleaves":8888,"Ġvap":8889,"Ġ125":8890,"Ġspecialized":8891,"Ġrequirement":8892,"ĠSex":8893,"bohyd":8894,"roscopy":8895,"opril":8896,"Ġadjusted":8897,"Ġthous":8898,"Ġunw":8899,"Ġinfluenced":8900,"ĠBill":8901,"Ġcollect":8902,"ĠQU":8903,"Ġrecords":8904,"Ġleaders":8905,"ĠConsultant":8906,"otton":8907,"ĠAST":8908,"ĠSmith":8909,"Ġsolutions":8910,"mas":8911,"Ġrecip":8912,"Ġsided":8913,"Ġpartners":8914,"Ġdecades":8915,"ĠATP":8916,"LC":8917,"Ġstands":8918,"rast":8919,"arring":8920,"Ã³":8921,"Ġsting":8922,"ĠLou":8923,"Ġresear":8924,"Ġnodule":8925,"Ġhydration":8926,"Ġdisability":8927,"Ġspecificity":8928,"Ġcommercial":8929,"iro":8930,"oa":8931,"Ġindeed":8932,"Ġinformative":8933,"Ġdend":8934,"Ġclasses":8935,"THER":8936,"ĠHyper":8937,"ificial":8938,"SO":8939,"Ġrevert":8940,"razy":8941,"Ġmaster":8942,"isted":8943,"Ġmonitored":8944,"Ġcomorb":8945,"uesday":8946,"Ġneuros":8947,"een":8948,"ĠTylenol":8949,"Ġtomography":8950,"umin":8951,"Ġwhatever":8952,"Ġplacebo":8953,"UN":8954,"osity":8955,"ĠUK":8956,"Ġcro":8957,"Ġlegal":8958,"Ġburst":8959,"ĠLymph":8960,"Ġassume":8961,"Ġgram":8962,"ĠGeorge":8963,"Ġstation":8964,"ĠUp":8965,"Ġsupporting":8966,"PH":8967,"idd":8968,"Ġacceler":8969,"ĠOtherwise":8970,"ĠCalc":8971,"expl":8972,"Ġburns":8973,"arynx":8974,"Ġaching":8975,"Ġherbal":8976,"icted":8977,"ĠGroup":8978,"Ġstatistically":8979,"Ġconcluded":8980,"Ġbuff":8981,"ivered":8982,"ĠDegree":8983,"roma":8984,"Ġdoct":8985,"Ġdepartment":8986,"Ġapprox":8987,"Ġ1989":8988,"Ġpeptides":8989,"ault":8990,"nut":8991,"ushed":8992,"Ġrelapse":8993,"Ġendoscopic":8994,"Ġtumour":8995,"Ġoncologist":8996,"Ġprednisone":8997,"Ġapoptosis":8998,"isis":8999,"ĠSkin":9000,"Gen":9001,"Ġwashing":9002,"Ġtrache":9003,"ja":9004,"Ġment":9005,"Ġatleast":9006,"ĠJan":9007,"Ġnewly":9008,"Ġconsuming":9009,"ĠMajor":9010,"Ġcigarette":9011,"Ġcheckup":9012,"oporosis":9013,"aedic":9014,"cope":9015,"itating":9016,"ĠLife":9017,"ĠOk":9018,"Ġrights":9019,"Ġerr":9020,"ellitus":9021,"Ġregulate":9022,"ĠDet":9023,"Ġinjected":9024,"aptic":9025,"Ġuntreated":9026,"Ġstorage":9027,"ĠKidney":9028,"Ġcranial":9029,".*":9030,"Ġ110":9031,"Ġpenicillin":9032,"type":9033,"inv":9034,"IST":9035,"Ġpreferably":9036,"dependent":9037,"ĠHas":9038,"Ġacetaminophen":9039,"ĠAntibiotics":9040,"ĠPoly":9041,"Ġtriple":9042,"Ġrob":9043,"Ġtb":9044,"Ġthym":9045,"Ġexamples":9046,"ĠIndrav":9047,"ĠRussian":9048,"PA":9049,"Ġpinc":9050,"ĠHall":9051,"Ġinstance":9052,"Ġdropped":9053,"iative":9054,"abad":9055,"ĠIndravadan":9056,"secut":9057,"Ġscholar":9058,"Ġrul":9059,"Ġloop":9060,"Ġfluor":9061,"Ġfrust":9062,"yurvedic":9063,"Ġumbil":9064,"Ġamen":9065,"theless":9066,"comp":9067,"Ġeczema":9068,"Ġaccepted":9069,"yer":9070,"ĠSing":9071,"ĠBay":9072,"Ġallergens":9073,"71":9074,"odiazep":9075,"ĠNever":9076,"Ġvel":9077,"Ġusage":9078,"Ġdeterior":9079,"Ġgent":9080,"ĠRh":9081,"ĠEcon":9082,"Ġcontraind":9083,"Ġplane":9084,"omnia":9085,"Ġmicroscopy":9086,"usually":9087,"Ġmitral":9088,"Ġmagnetic":9089,"ĠFrank":9090,"Ġexperiments":9091,"stim":9092,"Ġcoast":9093,"Ġpm":9094,"Ġvig":9095,"rie":9096,"Ġspent":9097,"MG":9098,"lan":9099,"ĠPath":9100,"Ġmotions":9101,"Ġventricle":9102,"Ġconsequence":9103,"negative":9104,"rehens":9105,"Ġdisl":9106,"ĠTAB":9107,"Ġwashed":9108,"ĠFore":9109,"Ġaggreg":9110,"cial":9111,"ĠFeel":9112,"Ġwest":9113,"ĠMG":9114,"Ġsegments":9115,"ĠDist":9116,"Ġvariant":9117,"Ġalbumin":9118,"Ġtor":9119,"Ġsystematic":9120,"Ġwidespread":9121,"chlor":9122,"Ġranging":9123,"ĠpH":9124,"Ġmode":9125,"Ġ101":9126,"Ġmodifications":9127,"VT":9128,"Ġdealing":9129,"erty":9130,"arsh":9131,"Ġcopy":9132,"Ġsubcutaneous":9133,"stitial":9134,"Ġnipple":9135,"left":9136,"Ġcond":9137,"Ġreson":9138,"ĠKh":9139,"Ġclon":9140,"Ġparenchym":9141,"pa":9142,"ipated":9143,"Ġcritic":9144,"Ġseparated":9145,"Ġsystolic":9146,"actory":9147,"Ġfaint":9148,"Ġrt":9149,"Ġmetronidazole":9150,"ĠSGOT":9151,"CR":9152,"ĠMA":9153,"ĠGO":9154,"Ġraw":9155,"Ġcheeks":9156,"Ġoptic":9157,"Le":9158,"igm":9159,"inemia":9160,"Ġleth":9161,"Ġhypertensive":9162,"Ġwinter":9163,"Ġthreshold":9164,"Ġvesicles":9165,"Ġ600":9166,"Ġurinating":9167,"Ġcoma":9168,"ieve":9169,"orectal":9170,"ĠRevert":9171,"ĠTM":9172,"Ġspecially":9173,"Ġmultip":9174,"Ġprecurs":9175,"Ġadopted":9176,"Cl":9177,"using":9178,"ĠMB":9179,"Ġneedles":9180,"Ġantico":9181,"Ġlymphaden":9182,"osome":9183,"Ġerror":9184,"idem":9185,"Ġroof":9186,"ONE":9187,"Ġnorthern":9188,"Ġbillion":9189,"APT":9190,"Ġ2020":9191,"Ġbasically":9192,"abalin":9193,"Ġentry":9194,"ĠANY":9195,"Ġtriglycerides":9196,"auc":9197,"called":9198,"Ġsinger":9199,"undred":9200,"Ġcrazy":9201,"ĠThyroid":9202,"Ġblockers":9203,"Ġwaste":9204,"Ġregression":9205,"Ġdeficiencies":9206,"aign":9207,"Ġnebul":9208,"oplastic":9209,"Ġinherited":9210,"Ġoffered":9211,"ĠPP":9212,"atically":9213,"Ġsympathetic":9214,"atre":9215,"Ġbmi":9216,"ĠSter":9217,"ĠPT":9218,"Ġocclusion":9219,"mediated":9220,"Ġinterview":9221,"Ġinterventions":9222,"Ġrequiring":9223,"Ġhiv":9224,"],":9225,"phrine":9226,"Ġconnect":9227,"Ġbarrier":9228,"Ġsections":9229,"Ġdelivered":9230,"iently":9231,"Ġwood":9232,"Ġplex":9233,"ĠNote":9234,"Ġtiredness":9235,"Ġidi":9236,"ront":9237,"Ġfocused":9238,"Ġlac":9239,"ĠSag":9240,"ĠEX":9241,"Ġaccumulate":9242,"{\\":9243,"Ġintermediate":9244,"urbation":9245,"ĠPregnancy":9246,"Ġliquids":9247,"Ġspaces":9248,"cellular":9249,"otor":9250,"Ġremission":9251,"Ġatheroscler":9252,"ossible":9253,"Ġchapter":9254,"psia":9255,"These":9256,"Ġexperiment":9257,"Ġmeta":9258,"they":9259,"odes":9260,"osac":9261,"Ġclinician":9262,"Ġcontents":9263,"RS":9264,"To":9265,"Ġchewing":9266,"Ġoverl":9267,"Ġunbear":9268,"Ġinfective":9269,"vas":9270,"acters":9271,"ulsive":9272,"ĠDiagnosis":9273,"Ġcust":9274,"ĠCyst":9275,"ĠDu":9276,"screen":9277,"GE":9278,"\\\"":9279,"ongest":9280,"Ġintensive":9281,"Ġera":9282,"Ġcategories":9283,"Ġwt":9284,"rost":9285,"ĠTop":9286,"Ġshaking":9287,"kh":9288,"Ġkilling":9289,"Ġforced":9290,"Ġbridge":9291,"Ġmer":9292,"ĠFSH":9293,"ĠHELP":9294,"Ġpuff":9295,"ĠPract":9296,"Ġnoise":9297,"Ġflut":9298,"Ġmucous":9299,"poly":9300,"Ġexclusive":9301,"Ġemail":9302,"Ġstimulate":9303,"Ġtonsils":9304,"inyl":9305,"Ġpea":9306,"Ġpale":9307,"Ġanxi":9308,"Ġfoss":9309,"arth":9310,"Ġtriggered":9311,"Ġdistinguish":9312,"cation":9313,"ĠFin":9314,"Ġstrengthen":9315,"ĠâĨ":9316,"Ġrepresented":9317,"Ġpinched":9318,"izz":9319,"Ġdiscs":9320,"Ġsleepy":9321,"Ġoptimal":9322,"ĠApple":9323,"Ġbehaviour":9324,"Ġdivertic":9325,"Ġdilated":9326,"ĠHuman":9327,"atile":9328,"IU":9329,"Ġlumen":9330,"Ġ98":9331,"ghan":9332,"Ġmedull":9333,"Ġsensations":9334,"OB":9335,"avor":9336,"Ġsubset":9337,"Ġwaist":9338,"Ġtunnel":9339,"treating":9340,"under":9341,"Ġlith":9342,"ĠMark":9343,"antib":9344,"Ġactivate":9345,"Ġsweats":9346,"Ġgestation":9347,"otypes":9348,"APTER":9349,"ĠHome":9350,"ĠCroati":9351,"DR":9352,"Ġfo":9353,"Ġbottle":9354,"Ġtric":9355,"ĠTheir":9356,"ĠAh":9357,"utive":9358,"floxacin":9359,"ĠCost":9360,"Ġanger":9361,"Us":9362,"Ġbag":9363,"ĠEr":9364,"ocytic":9365,"Ġpoorly":9366,"atch":9367,"ELL":9368,"Ġholding":9369,"ĠTaking":9370,"ĠSea":9371,"roscopic":9372,"Ġturning":9373,"activity":9374,"ANK":9375,"ĠHelp":9376,"Ġcarp":9377,"Ġsalivary":9378,"ests":9379,"Ġcoagulation":9380,"mann":9381,"MS":9382,"amen":9383,"Ġcharge":9384,"ĠIns":9385,"Ġhospitalized":9386,"ĠSmall":9387,"Ġshaft":9388,"Ġdial":9389,"Ġclimate":9390,"erma":9391,"Ġranges":9392,"burg":9393,"Ġeast":9394,"Ġfurthermore":9395,"ĠDermatologist":9396,"etry":9397,"Ġcontained":9398,"ĠOut":9399,"ephal":9400,"Ġprevents":9401,"Ġexperiences":9402,"App":9403,"isol":9404,"Ġadding":9405,"IDS":9406,"Ġfain":9407,"emale":9408,"ĠLeg":9409,"Ġunbearable":9410,"Ġlean":9411,"Ġsexologist":9412,"ĠParkinson":9413,"Ġuptake":9414,"dis":9415,"Ġcow":9416,"Ġadmission":9417,"Ġfinancial":9418,"ĠRegular":9419,"ĠJapanese":9420,"Ġfiance":9421,"ĠHPV":9422,"Ġsusceptible":9423,"ĠItalian":9424,"Ġstern":9425,"otropic":9426,"Ġrinses":9427,"ĠDAY":9428,"Ġham":9429,"ĠHAD":9430,"Ġproven":9431,"ĠInstitute":9432,"feeding":9433,"Ġtouched":9434,"Ġconsideration":9435,"Ġpun":9436,"ĠObstetric":9437,"imicrobial":9438,"Ġcarrier":9439,"Ġserved":9440,"since":9441,"adryl":9442,"Ġresume":9443,"Ġregulated":9444,"writer":9445,"Ġcollar":9446,"ĠBulgar":9447,"ĠMuseum":9448,"ĠPur":9449,"ĠOff":9450,"Ġethnic":9451,"Ġâī":9452,"Ġtransition":9453,"Ġattend":9454,"stead":9455,"ĠBritain":9456,"Ġabut":9457,"Ġcompens":9458,"Ġindicative":9459,"Ġgargle":9460,"Ġplaque":9461,"otonin":9462,"ĠKe":9463,"ishop":9464,"juvant":9465,"Ġactor":9466,"Ġrna":9467,"irds":9468,"ĠLeft":9469,"Ġtransf":9470,"Ġoptim":9471,"Ad":9472,"elukast":9473,"Ġexists":9474,"ĠScott":9475,"Ġpigmentation":9476,"Ġrheumatoid":9477,"oken":9478,"cher":9479,"alities":9480,"ously":9481,"Ġpresum":9482,"Äģ":9483,"ĠMel":9484,"Ġdox":9485,"Ġfewer":9486,"Ġschools":9487,"Ġcup":9488,"Ġstead":9489,"Ġclassic":9490,"Ġreversible":9491,"ĠTV":9492,"Ġcotton":9493,"Ġglucocortic":9494,"ij":9495,"win":9496,"Ġlives":9497,"Ġtubal":9498,"Ġsurpr":9499,"umor":9500,"atively":9501,"Ġindia":9502,"Ġinitiation":9503,"Ġrecognize":9504,"Ġseriously":9505,"Ġpalsy":9506,"Ġthrobbing":9507,"Ġ#":9508,"Ġsg":9509,"Ġbot":9510,"ĠCur":9511,"Ġsole":9512,"Ġsugars":9513,"Ġblister":9514,"Ġurticaria":9515,"Ġmetformin":9516,"oxin":9517,"Ġinsight":9518,"ocarcinoma":9519,"Ġcataly":9520,"Ġsquamous":9521,"ĠMahesh":9522,"umab":9523,"Ġpathological":9524,"Ġexcretion":9525,"worm":9526,"Ġincontin":9527,"ĠAlf":9528,"Ġherniation":9529,"Ġgraph":9530,"edd":9531,"ĠTR":9532,"Ġabsorbed":9533,"ĠEs":9534,"Ġtouching":9535,"Ġtransferred":9536,"Ġexertion":9537,"Ġdense":9538,"Ġproducer":9539,"Ġclarified":9540,"Ġsupplementation":9541,"Ġcovering":9542,"Ġsubstantial":9543,"Kindly":9544,"ĠDIS":9545,"Ġcapable":9546,"even":9547,"Ġtool":9548,"Ġorthoped":9549,"odipine":9550,"Ġlies":9551,"Ġblade":9552,"lihood":9553,"Ġfiss":9554,"iment":9555,"Ġsecretions":9556,"Ġregen":9557,"ussion":9558,"Ġpolymorph":9559,"Ġsubsides":9560,"mt":9561,"oured":9562,"Ġeffector":9563,"Ġconsiderable":9564,"Ġtitle":9565,"Have":9566,"Reg":9567,"Ġfounded":9568,"Ġpolicy":9569,"Ġsouthern":9570,"Ġ1986":9571,"Ġspeaking":9572,"Ġguided":9573,"Ġarrive":9574,"metic":9575,"ĠCL":9576,"Ġworries":9577,"Ġimpossible":9578,"Ġmeantime":9579,"onitis":9580,"Ġinability":9581,"Ġirre":9582,"PP":9583,"Ġperitoneal":9584,"risk":9585,"Ġmellitus":9586,"ĠMex":9587,"Ġphosphat":9588,"Ġletter":9589,"Ġturns":9590,"Ġducts":9591,"Ġanesthetic":9592,"Ġsimultaneously":9593,"Ġmothers":9594,"Ġpredominantly":9595,"ĠChicago":9596,"Ġtrop":9597,"REAT":9598,"omuscular":9599,"Ġrecomb":9600,"Ġproperty":9601,"Ġtips":9602,"Ġmag":9603,"ĠVar":9604,"Ġsurvive":9605,"Ġscenario":9606,"war":9607,"ĠTri":9608,"Ġmarch":9609,"Ġcurable":9610,"Ġneonatal":9611,"entially":9612,"Ġsemi":9613,"oung":9614,"ĠLFT":9615,"uda":9616,"Ġclearance":9617,"Ġworldwide":9618,"Ġspontaneously":9619,"Ġib":9620,"ĠHaving":9621,"Ġinternet":9622,"Ġmicroscopic":9623,"Ġcreating":9624,"Ġsumm":9625,"Ġunclear":9626,"Ġace":9627,"istent":9628,"ĠBronch":9629,"Ġho":9630,"otics":9631,"ĠRet":9632,"uing":9633,"Ġscars":9634,"Ġcharacters":9635,"Ġletharg":9636,"italopram":9637,"Ġelucid":9638,"thle":9639,"itten":9640,"Ġcutaneous":9641,"Ġderiv":9642,"Dear":9643,"Ġmetabol":9644,"Ġposted":9645,"drome":9646,"Ġ1988":9647,"Ġlimiting":9648,"Ġthickening":9649,"Ġili":9650,"Ġinstances":9651,"Ġpreoperative":9652,"Ġrelationships":9653,"Ġdiclofenac":9654,"ĠTre":9655,"mentioned":9656,"Ġgradi":9657,"uro":9658,"Ġmobile":9659,"Ġbaseball":9660,"Ġunnecess":9661,"Ġwise":9662,"Ġvest":9663,"iphene":9664,"ophils":9665,"engue":9666,"Ġconjug":9667,"ighter":9668,"Ġdrained":9669,"Ġagreement":9670,"Kind":9671,"omical":9672,"Ġlikelihood":9673,"neath":9674,"Ġantidepressants":9675,"Ġtrimester":9676,"ĠGastroenter":9677,"ĠAdd":9678,"iences":9679,"ĠIslands":9680,"racy":9681,"Ġendometrium":9682,"Ġupto":9683,"ua":9684,"ĠTub":9685,"Ġconversion":9686,"Ġangry":9687,"rative":9688,"Ġcolored":9689,"Ġrhinitis":9690,"Ġimag":9691,"diagn":9692,"Ġidiopathic":9693,"ĠPet":9694,"idents":9695,"Ġdeliver":9696,"Ġepidural":9697,"Ġophthalm":9698,"Ġcompanies":9699,"Ġviews":9700,"ensed":9701,"Ġreplication":9702,"ĠVery":9703,"Ġcarbohyd":9704,"ĠStress":9705,"ĠFil":9706,"Ġjer":9707,"Ġknowing":9708,"abilitation":9709,"Ġexhibit":9710,"beat":9711,"Ġabund":9712,"ĠGET":9713,"Ġdesire":9714,"Ġrelaxants":9715,"Ġmanufacture":9716,"water":9717,"estic":9718,"ocr":9719,"ults":9720,"Ġpictures":9721,"iders":9722,"Ġfemoral":9723,"Ġtur":9724,"Ġwit":9725,"ĠFat":9726,"tebral":9727,"ĠSevere":9728,"Ġcourt":9729,"ayer":9730,"arach":9731,"aval":9732,"Ġgenerate":9733,"Ġolig":9734,"pill":9735,"ĠAnyway":9736,"Ġexception":9737,"Neu":9738,"Ġthru":9739,"Ġconsultations":9740,"ometric":9741,"Ġ78":9742,"Ġhistopath":9743,"Ġgp":9744,"ĠScan":9745,"TP":9746,"hex":9747,"ERE":9748,"Ġfro":9749,"ĠSA":9750,"Ġroad":9751,"ups":9752,"olve":9753,"ĠFinally":9754,"Ġconverted":9755,"Ġayurveda":9756,"ĠMat":9757,"Ġtru":9758,"ĠMED":9759,"ocated":9760,"KE":9761,"Ġcesarean":9762,"Ġng":9763,"ĠManagement":9764,"Senior":9765,"icine":9766,"Ġgross":9767,"ĠHol":9768,"ĠAnxiety":9769,"Ġreveals":9770,"ili":9771,"'ll":9772,"Ġcoup":9773,"ĠIgG":9774,"Ġalpha":9775,"cast":9776,"ĠOld":9777,"Ġswab":9778,"Ġsuppose":9779,"Ġphone":9780,"2012":9781,"Ġcomplains":9782,"Ġparallel":9783,"Ġdecongest":9784,"III":9785,"Ġcred":9786,"Ġstored":9787,"Ġterritory":9788,"Ġdorsal":9789,"chang":9790,"ultural":9791,"Ġcancerous":9792,"Ġfort":9793,"Ġswimming":9794,"Ġhundred":9795,"rugs":9796,"Ġtremor":9797,"Ġgonad":9798,"Ġwaking":9799,"apsed":9800,"chest":9801,"Ġretinal":9802,"Ant":9803,"Ġdifferentiate":9804,"Ġpreparations":9805,"ione":9806,"Ġperine":9807,"Ġnative":9808,"ICS":9809,"Ġdirector":9810,"Ġshorter":9811,"eces":9812,"Ġunderneath":9813,"Ġembolism":9814,"bu":9815,"itant":9816,"Ġstaff":9817,"olol":9818,"entricular":9819,"Ġtib":9820,"Ġworkers":9821,"Ġpathogenesis":9822,"Ġmagnitude":9823,"Ġdeposits":9824,"hma":9825,"Ġdl":9826,"ĠKind":9827,"Ġhypoglycemia":9828,".---":9829,"Ġrace":9830,"Ġheavily":9831,"Ġwaves":9832,"Ġ2019":9833,"Ġlesser":9834,"Ġattempts":9835,"ĠMast":9836,"ĠMoh":9837,"duction":9838,"Ġregurg":9839,"Ġ1987":9840,"eless":9841,"ĠForm":9842,"Ġgun":9843,"Ġzero":9844,"Ġprem":9845,"Ġoutbre":9846,"Ġpsychos":9847,"Ġneutral":9848,"ser":9849,"Ġadhe":9850,"Ġcomprehens":9851,"Ġhypertrophy":9852,"Ġinadequate":9853,"ĠBetter":9854,"iap":9855,"Infectious":9856,"Ġgar":9857,"Ġclosure":9858,"absorption":9859,"Ġdiscoloration":9860,"ĠWomen":9861,"Ġmagnesium":9862,"Ġnas":9863,"ami":9864,"Ġapplications":9865,"Ġirritated":9866,"legm":9867,"Ġsonography":9868,"Ġvertebrae":9869,"Ġsli":9870,"ĠAmong":9871,"Ġattempted":9872,"atosis":9873,"enteric":9874,"rose":9875,"ameth":9876,"ĠMen":9877,"Ġuniform":9878,"comb":9879,"Ġhypothesis":9880,"Ġmoistur":9881,".--->":9882,"Ġwarr":9883,"ĠIBS":9884,"egin":9885,"Ġpathologic":9886,"Ġosteoporosis":9887,"zhe":9888,"Ġblind":9889,"your":9890,"Ġcum":9891,"anna":9892,"ceptor":9893,"Ġanxiolytic":9894,"Patil":9895,"aming":9896,"allergic":9897,"Ġpolyps":9898,"Ġconsisting":9899,"forms":9900,"Ġimplic":9901,"Ġchemicals":9902,"ĠHarry":9903,"Ġdefense":9904,"Ġligaments":9905,"Ġpcr":9906,"Ġrepet":9907,"âĪĴ":9908,"ĠAbs":9909,"peridone":9910,"Ġmanifestation":9911,"clin":9912,"ĠAfghan":9913,"Ġresonance":9914,"Ġmine":9915,"Ġarising":9916,"Ġretin":9917,"Ġmotiv":9918,"Ġcorrelated":9919,"Ġsession":9920,"Ġmt":9921,"irs":9922,"Ġplat":9923,"ĠDen":9924,"ĠAppro":9925,"ĠRoyal":9926,"isinopril":9927,"DP":9928,"Ġmono":9929,"Ġattachment":9930,"Ġphag":9931,"Bl":9932,"Ġcoli":9933,"lem":9934,"Ġimper":9935,"reme":9936,"ĠPot":9937,"liament":9938,"Ġvariants":9939,"Ġlogic":9940,"ĠSaturday":9941,"NF":9942,"cancer":9943,"Ġincontinence":9944,"hr":9945,"ila":9946,"Ġselect":9947,"ĠDrink":9948,"Ġiclin":9949,"vast":9950,"GH":9951,"UB":9952,"ocrine":9953,"Ġstimuli":9954,"Ġosm":9955,"Ġidentical":9956,"Ġmeeting":9957,"brid":9958,"fa":9959,"Ġrating":9960,"ymb":9961,"Ġformal":9962,"Ġmigration":9963,"Ġvarying":9964,"Ġcrucial":9965,"06":9966,"Meanwhile":9967,"Ġatypical":9968,"ĠLy":9969,"Ġvariations":9970,"MENT":9971,"Ġeveryone":9972,"Ġsecreted":9973,"zech":9974,"Ġdiastolic":9975,"Ġacetyl":9976,"Ġlowest":9977,"Ġattending":9978,"2011":9979,"Ġclotting":9980,"Ġmurm":9981,"Ġcluster":9982,"OH":9983,"cr":9984,"hoea":9985,"Ġabst":9986,"Ġentered":9987,"Ġ1985":9988,"Ġhereditary":9989,"Ġablation":9990,"Ġcomputed":9991,"Ġantiv":9992,"car":9993,"abdominal":9994,"Ġfluctu":9995,"dy":9996,"Ġtask":9997,"ĠPediatrician":9998,"ĠLDL":9999,"Ġannounced":10000,"Ġemphas":10001,"fib":10002,"ĠTer":10003,"Ġhoriz":10004,"sensitivity":10005,"xia":10006,"Ġsunscreen":10007,"Ġcampaign":10008,"secutive":10009,"Cs":10010,"Ġacqu":10011,"ĠAmericans":10012,"ĠColl":10013,"week":10014,"Ġaccuracy":10015,"Ġbloated":10016,"Ġpurch":10017,"ws":10018,"ignment":10019,"Ġrepeating":10020,"ĠLouis":10021,"ednes":10022,"Ġresources":10023,"ĠOm":10024,"Ġnecessarily":10025,"Ġimmunoglobulin":10026,"iar":10027,"warm":10028,"Ġresearc":10029,"Ag":10030,"Ġbac":10031,"phast":10032,"omyel":10033,"Ġgreatest":10034,"phosphate":10035,"Ġ69":10036,"Ġfarm":10037,"Ġalarm":10038,"Ġtranslation":10039,"Ġendocrine":10040,"ĠVer":10041,"Ġtrunk":10042,"ammed":10043,"Ġcategor":10044,"Ġcerebellar":10045,"bet":10046,"Ġthrombocyt":10047,"Ġsplit":10048,"ĠJewish":10049,"Ġpd":10050,"Ġsubm":10051,"Ġsquare":10052,"enn":10053,"elly":10054,"ĠYEAR":10055,"Ġglans":10056,"Ġadhesion":10057,"reetings":10058,"Ġbiot":10059,"avage":10060,"Ġartificial":10061,"Ġadequately":10062,"oidosis":10063,"Ġ74":10064,"Ġmelanoma":10065,"Ġspecimen":10066,"Ġobserve":10067,"Ġpredicted":10068,"YP":10069,"Ġrats":10070,"icul":10071,"asy":10072,"axia":10073,"Ġboost":10074,"Ġprofession":10075,"ovirus":10076,"bound":10077,"ĠMu":10078,"Ġanytime":10079,"Ġconceiving":10080,"Ġpor":10081,"Ġmenstruation":10082,"Ġvirtual":10083,"ĠThomas":10084,"Ġvertical":10085,"ĠColumbia":10086,"Ġvi":10087,"acement":10088,"Ġheaviness":10089,"Ġpractices":10090,"Ġbug":10091,"Ġbund":10092,"ĠCat":10093,"cel":10094,"Ġwhit":10095,"Ġlived":10096,"Ġbiom":10097,"amma":10098,"ERG":10099,"Ġperfectly":10100,"Other":10101,"ĠTotal":10102,"ipment":10103,"Ġneuropath":10104,"Ġail":10105,"Ġ73":10106,"Ġpeace":10107,"Ġintrauterine":10108,"Ġdiaphragm":10109,"Ġseptic":10110,"ĠGreen":10111,"ĠRead":10112,"ĠControl":10113,"Ġreaching":10114,"Ġtargeted":10115,"Ġmessage":10116,"04":10117,"irt":10118,"Ġbedtime":10119,"Ġcorrectly":10120,"Ġvaccin":10121,"When":10122,"ela":10123,"Ġreadily":10124,"Ġastron":10125,"Ġcarrying":10126,"aked":10127,"ords":10128,"ercise":10129,"Ġspells":10130,"ednesday":10131,"Ġdye":10132,"ĠHenry":10133,"Ġbitten":10134,"cycline":10135,"Ġbio":10136,"icocele":10137,"Ġblot":10138,"ĠAltern":10139,"ORM":10140,"Ġfootballer":10141,"ĠPrimary":10142,"inates":10143,"Ġanyway":10144,"ĠAgain":10145,"Ġpulp":10146,"Ġpatent":10147,"ompl":10148,"Ġsurgeons":10149,"complete":10150,"Ġexpectancy":10151,"ĠMiddle":10152,"Ġshing":10153,"Ġfighting":10154,"Ġminerals":10155,"Ġdegradation":10156,"Ġalleg":10157,"inephrine":10158,"ĠLaw":10159,"Ġpathogen":10160,"Ġhypoth":10161,"ĠScience":10162,"Ġlymphatic":10163,"Hg":10164,"Ġconsecutive":10165,"Ġ1984":10166,"Ġos":10167,"formations":10168,"Ġscript":10169,"Ġdissolved":10170,"Ġhistorical":10171,"unting":10172,"Ġmildly":10173,"ĠComplete":10174,"Ġorange":10175,"Ġlaws":10176,"Ġinfluenza":10177,"cents":10178,"Ġphlegm":10179,"Ġrandomly":10180,"cons":10181,"Ġperiodontal":10182,"Ġestimation":10183,"encing":10184,"Ġ76":10185,"Ġinstruments":10186,"Ġwounds":10187,"Ġblow":10188,"Ġroles":10189,"Ġventilation":10190,"Ġveloc":10191,"Ġcran":10192,"Ġdigestion":10193,"Ġfields":10194,"rary":10195,"asks":10196,"adel":10197,"Ġuncertain":10198,"Ġpylori":10199,"Ġshared":10200,"Ġchor":10201,"ource":10202,"Ġroughly":10203,"Ġreconstruction":10204,"Ġobservations":10205,"only":10206,"atation":10207,"olip":10208,"ĠRay":10209,"Ġmanip":10210,"uct":10211,"Ġapparently":10212,"Ġrab":10213,"Ġassumed":10214,".?":10215,"Ġtargets":10216,"igestion":10217,"Ġscaling":10218,"ĠUnfortunately":10219,"ĠAtt":10220,"Ġsurely":10221,"ĠHAS":10222,"ĠPSA":10223,"Ġkm":10224,"Ġ103":10225,"Ġpillow":10226,"Ġbraces":10227,"ĠPH":10228,"Ġshr":10229,"Ġpsychotic":10230,"Ġeaten":10231,"Ġgirls":10232,"Ġneutrophils":10233,"Ġfibromyalgia":10234,"hypertensive":10235,"bp":10236,"peror":10237,"Im":10238,"roteins":10239,"Ġfifth":10240,"Ġpacks":10241,"Ġnation":10242,"Ġantimicrobial":10243,"Ġautonomic":10244,"inite":10245,"Ġspecimens":10246,"Ġapnea":10247,"oxidil":10248,"UE":10249,"mentin":10250,"ypes":10251,"Ġinhibitory":10252,"Ġtick":10253,"jan":10254,"Ġgynec":10255,"his":10256,"Ġtap":10257,"ĠSSRI":10258,"play":10259,"Ġcontractions":10260,"Ġbehaviors":10261,"ĠFROM":10262,"apine":10263,"Ġcomorbid":10264,"Ġile":10265,"state":10266,"ĠForce":10267,"LEASE":10268,"Ġbor":10269,"Ġhypox":10270,"ĠPls":10271,"Ġprinciple":10272,"Ġuncontrolled":10273,"Ġintroduction":10274,"Ġbuttocks":10275,"Ġinterfere":10276,"Ġrehabilitation":10277,"hav":10278,"law":10279,"Ġ71":10280,"Ġmobility":10281,"enz":10282,"Ġcatch":10283,"Ġdescribing":10284,"Ġemployed":10285,"emaker":10286,"Ġ1950":10287,"Ġcereb":10288,"Ġjoined":10289,"Ġneoplasm":10290,"ivitis":10291,"Ġnauseous":10292,"Ġpolar":10293,"odic":10294,"ĠIsland":10295,"TR":10296,"Ġald":10297,"ĠIM":10298,"ATE":10299,"ĠDutch":10300,"Ġquarter":10301,"obia":10302,"Ġsusceptibility":10303,"Ġ||":10304,"about":10305,"Ġinhibits":10306,"Ġcramp":10307,"Ġrecurring":10308,"Ġkinda":10309,"ĠCzech":10310,"0000":10311,"Ġpeptic":10312,"ĠGenerally":10313,"afil":10314,"perm":10315,"CTOR":10316,"Ġingred":10317,"Ġintestines":10318,"Ġsuicide":10319,"Ġanomal":10320,"Ġinsomnia":10321,"Ġpulling":10322,"illi":10323,"Ġvib":10324,"Ġabort":10325,"Ġurban":10326,"Ġingestion":10327,"ACK":10328,"Ġdopamine":10329,"Ġtow":10330,"Ġcann":10331,"Ġnearest":10332,"ĠBig":10333,"ocomp":10334,"auses":10335,"Ġpericard":10336,"Ġgrew":10337,"ĠPul":10338,"Ġeyel":10339,"Ġperce":10340,"philis":10341,"Ġneuromuscular":10342,"due":10343,"iating":10344,"Ġintended":10345,"ervical":10346,"Ġcorp":10347,"bur":10348,"ancreat":10349,"ĠVisit":10350,"CM":10351,"Ġhang":10352,"Ġgenu":10353,"partum":10354,"bert":10355,"Ġages":10356,"Ġinject":10357,"lived":10358,"idase":10359,"har":10360,"natal":10361,"aternal":10362,"des":10363,"verages":10364,"eclam":10365,"Ġserotonin":10366,"Ġradiates":10367,"should":10368,"ena":10369,"ĠCE":10370,"Ġcopper":10371,"Ġdeficits":10372,"Ġluke":10373,"Ġmatch":10374,"mod":10375,"onide":10376,"Ġcoc":10377,"aya":10378,"ĠProp":10379,"Ġpalate":10380,"Ġshingles":10381,"ĠDent":10382,"Ġcomments":10383,"Ġprincipal":10384,"Let":10385,"ugg":10386,"Ġbc":10387,"Ġinactive":10388,"ostatic":10389,"Ġcompare":10390,"ira":10391,"ophys":10392,"Ġsut":10393,"ĠCourt":10394,"Ġlightheaded":10395,"ENS":10396,"Ġhous":10397,"Ġnews":10398,"Ġdischarged":10399,"binding":10400,"inet":10401,"ĠMO":10402,"Ġallevi":10403,"ĠAcademy":10404,"Ġbeating":10405,"Ġsimilarly":10406,"Ġrelieving":10407,"itual":10408,"ĠMill":10409,"Ġhydrated":10410,"Ġmasturbating":10411,"Ġstrep":10412,"Ġeconomy":10413,"Ġalterations":10414,"ĠMichael":10415,"inge":10416,"Ġteen":10417,"Ġcholest":10418,"Ġgargling":10419,"Ġfibrillation":10420,"Ġrein":10421,"ĠDa":10422,"ĠRenal":10423,"Ġsuppression":10424,"Ġcircle":10425,"itar":10426,"ĠPL":10427,"Ġresemb":10428,"Ġlaparoscopy":10429,"oarthritis":10430,"Ġplexus":10431,"rease":10432,"otrex":10433,"rile":10434,"Ġnoticeable":10435,"ĠHa":10436,"Ġcompartment":10437,"âĢľ":10438,"Ġ1983":10439,"rogenic":10440,"ilib":10441,"Ġdeform":10442,"Ġtemple":10443,"Ġawake":10444,"300":10445,"amber":10446,"Ġinfo":10447,"Ġeliminate":10448,"Ġshortly":10449,"Ġligand":10450,"had":10451,"ostomy":10452,"Ġcompress":10453,"Ġcloser":10454,"avoid":10455,"ampions":10456,"Ġcephal":10457,"Ġgal":10458,"odg":10459,"amics":10460,"Ġexpensive":10461,"Ġviscer":10462,"Ġpubic":10463,"Ġtabs":10464,"Ġdendritic":10465,"On":10466,"don":10467,"has":10468,"uated":10469,"Ġ96":10470,"Ġaggression":10471,"pept":10472,"--------":10473,"Ġpins":10474,"ĠCand":10475,"ĠLuck":10476,"ude":10477,"loxacin":10478,"section":10479,"Ġanast":10480,"idym":10481,"ÂłÂłÂłÂłÂłÂłÂłÂł":10482,"Ġrank":10483,"olly":10484,"Ġimpacted":10485,"iy":10486,"Ġbackache":10487,"ube":10488,"Ġlunch":10489,"Ġnutrit":10490,"Ġexistence":10491,"elled":10492,"Ġcomparing":10493,"Ġmission":10494,"iled":10495,"Ġspan":10496,"Ġquestionna":10497,"abetic":10498,"Ġarticle":10499,"Ġsin":10500,"Ġfash":10501,"derabad":10502,"ĠEat":10503,"Ġvisiting":10504,"force":10505,"Ġconceived":10506,"sts":10507,"Ġcausative":10508,"Ġhandle":10509,"istant":10510,"ĠDeep":10511,"ĠHSV":10512,"Ġmonthly":10513,"Ġsettings":10514,"Ġgait":10515,"bar":10516,"acher":10517,"Ġsport":10518,"Ġmasses":10519,"aiting":10520,"ĠAlcohol":10521,"first":10522,"ĠHealthcareMagic":10523,"CC":10524,"Ġcas":10525,"elvic":10526,"Ġfallopian":10527,"wal":10528,"ulator":10529,"Ġlymphoid":10530,"ĠSudhir":10531,"oria":10532,"Ġreadings":10533,"Ġglasses":10534,"ĠNSAIDs":10535,"Ġatm":10536,"Ġkinds":10537,"ĠExp":10538,"Ġdiarrhoea":10539,"ĠTIM":10540,"ĠHER":10541,"ĠRule":10542,"ipped":10543,"Ġiii":10544,"2013":10545,"Ġepiderm":10546,"Ġechocardiography":10547,"gest":10548,"Ġsd":10549,"Ġnt":10550,"Ġremark":10551,"Ġfacilitate":10552,"Ġmenopause":10553,"kel":10554,"Ġtransverse":10555,"Ġvisits":10556,"str":10557,"ĠWal":10558,"Ġexaminations":10559,"untary":10560,",âĢĿ":10561,"omers":10562,"mond":10563,"obacter":10564,"Ġinduces":10565,"osine":10566,"Ġplans":10567,"Ġvaluable":10568,"Ġ88":10569,"Ġalgorithm":10570,"Ġgout":10571,"Ġfollowup":10572,"Ġtremors":10573,"ĠConstant":10574,"Ġï¬Ĥ":10575,"ranged":10576,"Ġmotile":10577,"ĠIncreased":10578,"Ġinterpretation":10579,"'d":10580,"Ġpup":10581,"ĠCenter":10582,"ĠMeth":10583,"Ġapproxim":10584,"AND":10585,"Ġresponding":10586,"ĠSuper":10587,"gmail":10588,"Ġinactiv":10589,"Ġantacid":10590,"ĠĠĠĠĠĠ":10591,"rospective":10592,"Ġtools":10593,"Ġcytotoxic":10594,"ensin":10595,"Ġarticles":10596,"rition":10597,"opes":10598,"embrane":10599,"Ġvivo":10600,"rem":10601,"Ġvaric":10602,"ĠCheck":10603,"Ġpossess":10604,"ĠMount":10605,"ĠPE":10606,"Ġcomplained":10607,"ĠADHD":10608,"vomiting":10609,"Ġislands":10610,"ĠType":10611,"ĠBru":10612,"Ġammon":10613,"Ġmargin":10614,"Ab":10615,"ĠBron":10616,"ymmet":10617,"Ġequipment":10618,"ĠOCD":10619,"Ġapical":10620,"omatous":10621,"Ġthrowing":10622,"nf":10623,"opa":10624,"Ġdistributed":10625,"Ġillnesses":10626,"Ġgenuine":10627,"Ġbank":10628,"olate":10629,"amel":10630,"ĠThursday":10631,"OLOG":10632,"Ġdeficit":10633,"west":10634,"ĠMiss":10635,"ĠLocal":10636,"ĠMaheshwari":10637,"amental":10638,"Ġsymm":10639,"Ġafterwards":10640,"Ġarrange":10641,"Ġjudge":10642,"Ġfungus":10643,"Ġ@":10644,"Ġperfusion":10645,"Ġattach":10646,"Ġpowerful":10647,"Ġbenzodiazep":10648,"Ġcaught":10649,"ĠEastern":10650,"alamus":10651,"ĠGree":10652,"ĠItaly":10653,"Ġseparation":10654,"Ġantipsych":10655,"ĠCivil":10656,"ĠInternal":10657,"acids":10658,"clovir":10659,"oust":10660,"Ġmap":10661,"ĠCorn":10662,"Ġaccounts":10663,"emporary":10664,"ĠBatman":10665,"ĠIsra":10666,"2010":10667,"ĠQue":10668,"vell":10669,"Ġprick":10670,"Ġsatisfaction":10671,"Ġsan":10672,"uments":10673,"ĠTablet":10674,"gi":10675,"reland":10676,"ecia":10677,"ĠAsk":10678,"Ġretained":10679,"Ġsubstrate":10680,"dim":10681,"ĠLabor":10682,"Ġ77":10683,"Ġpuberty":10684,"Ġfragments":10685,"Ġheterogene":10686,"Rep":10687,"inse":10688,"ĠNeurol":10689,"Ġunwanted":10690,"ĠCOM":10691,"ĠPac":10692,"Ġfamilial":10693,"Ġcouldnt":10694,"Ġobjective":10695,"Ġlowering":10696,"ĠÎ¼":10697,"Ġwatching":10698,"ĠNormally":10699,"rance":10700,"Ġparan":10701,"Ġacidosis":10702,"CO":10703,"link":10704,"ĠMON":10705,"ĠKan":10706,"ĠDevelopment":10707,"Ġjuices":10708,"ĠWall":10709,"ĠUN":10710,"Ġexercising":10711,"Ġsgpt":10712,"pls":10713,"plate":10714,"Ġneighbor":10715,"otrexate":10716,"itched":10717,"ican":10718,"Ġmathemat":10719,"Ġexcessively":10720,"Ġathle":10721,"ĠSign":10722,"Ġdiag":10723,"ĠWHAT":10724,"Ġgradient":10725,"eclampsia":10726,"omon":10727,"ĠCe":10728,"Ġmediast":10729,"Ġpeeling":10730,"Ġplacental":10731,"ozyg":10732,"oliosis":10733,"Ġextremities":10734,"Ġnap":10735,"ĠRam":10736,"Ġdistant":10737,"Ġindications":10738,"Ġsummar":10739,"ga":10740,"vaginal":10741,"Ġnom":10742,"ĠTreat":10743,"ĠDiclofenac":10744,"tage":10745,"Ġstain":10746,"ĠPant":10747,"ĠAmb":10748,"stable":10749,"Ġarises":10750,"apar":10751,"egen":10752,"Ġaggravate":10753,"Brunicardi":10754,"Ġbd":10755,"ĠDiv":10756,"Ġfaith":10757,"Ġtriggers":10758,"uer":10759,"Ġborderline":10760,"Ġinfiltration":10761,"ĠSupp":10762,"ĠLi":10763,"Ġurge":10764,"Ġvaccines":10765,"osper":10766,"Ġdigestive":10767,"Ġtrained":10768,"Ġepidem":10769,"Ġendocrin":10770,"Ġnutrients":10771,"ĠSM":10772,"iliary":10773,"hn":10774,"Ġlady":10775,"Ġcontag":10776,"Ġcontamin":10777,"explained":10778,"Ġimpression":10779,"Ġtonsil":10780,"Ġcomprehensive":10781,"bital":10782,"asse":10783,"idi":10784,"ĠFed":10785,"Ġtransmit":10786,"oven":10787,"Ġsynthetic":10788,"Ġdifferentiated":10789,"ALL":10790,"Ġbandage":10791,"ĠForum":10792,"ĠÃĹ":10793,"ĠHiThanks":10794,"Ġdecade":10795,"Ġstandards":10796,"onephritis":10797,"Ġbat":10798,"Ġserves":10799,"late":10800,"ĠPeter":10801,"ĠWent":10802,"Ġeasier":10803,"Ġsomatic":10804,"Ġhol":10805,"Ġisnt":10806,"Ġstore":10807,"Ġretain":10808,"ĠAcet":10809,"Ġodor":10810,"ĠTayal":10811,"Ġpsychosocial":10812,"uce":10813,"Ġovernight":10814,"ferent":10815,"Ġaccompl":10816,"Ġintox":10817,"Ġalveolar":10818,"ĠNOW":10819,"ĠShort":10820,"zheimer":10821,"Most":10822,"ĠIron":10823,"Ġdiligence":10824,"Ġrecording":10825,"Ġgastroenteritis":10826,"ĠBra":10827,"ĠRichard":10828,"Ġintell":10829,"ĠWithin":10830,"ĠORS":10831,"Ġimmob":10832,"Ġadolescents":10833,"lipid":10834,"Ġitches":10835,"Ġtreatable":10836,"Ġautosomal":10837,"Ġtubular":10838,"ĠPortug":10839,"thyroidism":10840,"Ġcul":10841,"ĠTuesday":10842,"ĠJer":10843,"Ġdanger":10844,".âĢĿ":10845,"indamycin":10846,"Ġinterstitial":10847,"Ġcytokine":10848,"noid":10849,"inction":10850,"acute":10851,"gency":10852,"Ġhospitalization":10853,"high":10854,"ti":10855,"Ġstring":10856,"120":10857,"Ġtrip":10858,"Ġirritable":10859,"ĠPsychiatrist":10860,"ĠSOME":10861,"Ġattribut":10862,"Ġbiochemical":10863,"ESS":10864,"Ġestimate":10865,"Ġsternum":10866,"orial":10867,"Ġhaz":10868,"Ġgray":10869,"Ġnursing":10870,"nas":10871,"oj":10872,"ĠED":10873,"weeks":10874,"Ġchoose":10875,"Ġphotos":10876,"rocytes":10877,"Ġsciatica":10878,"Ġantiviral":10879,"itment":10880,"ĠGur":10881,"Ġperiodic":10882,"Ġbene":10883,"Ġaffinity":10884,"Ġnephrologist":10885,"Ġpieces":10886,"Ġriver":10887,"Ġmetall":10888,"Ġlocations":10889,"Ġbreastfeeding":10890,"Ġrequirements":10891,"Ġneuronal":10892,"rimazole":10893,"Ġchalleng":10894,"Ġprinciples":10895,"ĠTAKE":10896,"Ġmold":10897,"ĠCit":10898,"Ġcorpor":10899,"Ġclarify":10900,"Ġsickness":10901,"Ġdescribes":10902,"ĠFour":10903,"requent":10904,"appy":10905,"eat":10906,"Ġcompletion":10907,"ĠGrand":10908,"Ġsynthesized":10909,"ĠDE":10910,"Ġregist":10911,"Ġcenturies":10912,"ĠWashing":10913,"Ġganglion":10914,"Ġions":10915,"Ġdots":10916,"ania":10917,"Ġstars":10918,"2014":10919,"psych":10920,",\"":10921,"var":10922,"Ġ2021":10923,"Ġblocker":10924,"Ġ1981":10925,"Under":10926,"hered":10927,"Ġheel":10928,"Ġunre":10929,"Ġchosen":10930,"Ġcoeff":10931,"ĠResearch":10932,"Ġclaims":10933,"Ġinstrument":10934,"Ġintolerance":10935,"analysis":10936,"Ġheartbeat":10937,"juana":10938,"Ġlemon":10939,"Ġoxide":10940,"ĠMinister":10941,"Ġsear":10942,"Ġdiverse":10943,"Ġcoverage":10944,"Ġpalm":10945,"Ġpersisting":10946,"Ġcef":10947,"Ġsand":10948,"Ġcer":10949,"enth":10950,"Ġdiuretics":10951,"Ġnov":10952,"Ġappearing":10953,"Ġ1982":10954,"phaston":10955,"irty":10956,"uconazole":10957,"Ġtears":10958,"ends":10959,"ĠBu":10960,"Ġdivers":10961,"ĠEffect":10962,"Ġbrace":10963,"Ġcalcification":10964,"Ġgastroesophageal":10965,"Ġfashion":10966,"tical":10967,"yes":10968,"Ġsought":10969,"Ġhv":10970,"ymp":10971,"Ġchallenge":10972,"stone":10973,"cephal":10974,"ĠUnt":10975,"ĠWellcome":10976,"Ġcitiz":10977,"Ġdrawn":10978,"ĠAch":10979,"Ġencephalopathy":10980,"Ġpage":10981,"ĠPo":10982,"Ġunrelated":10983,"ĠJohnson":10984,"illance":10985,"Ġchew":10986,"arges":10987,"adesh":10988,"Ġnutritious":10989,"vertebral":10990,"ĠHIThank":10991,"Ġdeple":10992,"Ġcorner":10993,"Ġ170":10994,"Ġchromosomes":10995,"exposure":10996,"opal":10997,"ĠWilliams":10998,"Ġresearchers":10999,"Ġaward":11000,"inalysis":11001,"Ġbrand":11002,"RegardsDr":11003,"avorable":11004,"ĠPred":11005,"Ġ82":11006,"ipping":11007,"Ġkgs":11008,"Ġdiagnoses":11009,"criptions":11010,"etime":11011,"Ġsyncope":11012,"Ġstressful":11013,"Ġpurposes":11014,"Ġanastom":11015,"opecia":11016,"Ġinterested":11017,"Ġangioplasty":11018,"Ġeg":11019,"ĠBLO":11020,"ĠFort":11021,"Ġvector":11022,"eper":11023,"chrom":11024,"good":11025,"Ġcardiomy":11026,"ophosph":11027,"ĠStudies":11028,"ĠJews":11029,"ĠSimilarly":11030,"anes":11031,"ĠIB":11032,"Ġ84":11033,"Ġsuffers":11034,"ĠSwed":11035,"Ġignore":11036,"Ġsucceed":11037,"Ġavoidance":11038,"Ġracing":11039,"Ġfibrin":11040,"Ġmicrot":11041,"ĠWHO":11042,"Ġanatomy":11043,"ulu":11044,"ofthe":11045,"Ġretract":11046,"Ġnonspecific":11047,"Ġvehicle":11048,"ĠThor":11049,"Ġregardless":11050,"Ġencourage":11051,"Ġdengue":11052,"Ġbloody":11053,"Ġbiops":11054,"Ġdemand":11055,"Ġclaimed":11056,"ĠEmerg":11057,"ĠDisorders":11058,"Ġpuncture":11059,"Ġataxia":11060,"ounding":11061,"Ġumbilical":11062,"LR":11063,"hips":11064,"Ġ()":11065,"Ġassigned":11066,"Ġreplic":11067,"Ġ800":11068,"SE":11069,"Ġcuff":11070,"ĠDom":11071,"Ġdisturbed":11072,"Ġrotation":11073,"brain":11074,"gu":11075,"Ġhypersensitivity":11076,"Ġexcited":11077,"Ġphosphorylation":11078,"Ġregurgitation":11079,"max":11080,"oside":11081,"ĠDou":11082,"Ġmask":11083,"artan":11084,"rene":11085,"Ġexpanded":11086,"Ġarteri":11087,"Ġindustrial":11088,"ĠBerlin":11089,"Ġannoy":11090,"Ġworms":11091,"Ġcontrovers":11092,"TE":11093,"Ġfamous":11094,"ĠAK":11095,"rous":11096,"stage":11097,"Ġvacu":11098,"oto":11099,"ĠSY":11100,"ĠDN":11101,"oston":11102,"ĠHey":11103,"Ġoxidative":11104,"othor":11105,"Ġhybrid":11106,"Ġprevented":11107,"Ġconsistently":11108,"Ġfibrous":11109,"Ġextending":11110,"Ġconvin":11111,"Ġwarfarin":11112,"NE":11113,"especially":11114,"Ġstitches":11115,"ĠSpain":11116,"Ġinhalers":11117,"ĠIUD":11118,"Ġwheat":11119,"Ġpairs":11120,"ĠCamp":11121,"ĠMah":11122,"abilities":11123,"Ġaddressed":11124,"Ġceleb":11125,"Ġdressing":11126,"opausal":11127,"Ġventil":11128,"ĠIreland":11129,"Ġforgot":11130,"ĠCyp":11131,"Ġspr":11132,"Ġextends":11133,"Ġnucleotide":11134,"works":11135,"ĠBMI":11136,"miss":11137,"Ġheartburn":11138,"oves":11139,"ĠColon":11140,"Ġcommand":11141,"ĠĠĠĠĠĠĠĠĠĠĠĠĠĠĠĠĠĠĠĠĠĠĠĠ":11142,"jury":11143,"Ġherself":11144,"150":11145,"Ġfertilization":11146,"ĠMuslim":11147,"Ġpolymerase":11148,"%),":11149,"onym":11150,"orea":11151,"Ġquote":11152,"Ġcreation":11153,"Ġerad":11154,"Ġmail":11155,"Ġshaped":11156,"Ġstays":11157,"Ġsuspicion":11158,"ĠTa":11159,"Ġstents":11160,"Ġvast":11161,"Ġdefine":11162,"Ġorganized":11163,"ĠmmHg":11164,"ulsion":11165,"Ġneurosurgeon":11166,"Neurology":11167,"Ġdesired":11168,"piration":11169,"oi":11170,"dish":11171,"plz":11172,"FTER":11173,"GG":11174,"level":11175,"zyme":11176,"Ġdistinguished":11177,"Ġ??":11178,"Ġholid":11179,"ĠMax":11180,"ipital":11181,"Ġgrows":11182,"Ġsupports":11183,"Ġcommunities":11184,"hyp":11185,"Ġencountered":11186,"cap":11187,"Ġhp":11188,"Ġflap":11189,"Ġpole":11190,"Ġunfavorable":11191,"threat":11192,"Ġtiming":11193,"Ġbasket":11194,"Ġeats":11195,"Ġcortisol":11196,"ĠÂģ":11197,"Ġleakage":11198,"ĠOrthopedic":11199,"sometimes":11200,"Ġstimulated":11201,"Ġdynamic":11202,"Ġatmosp":11203,"isher":11204,"Ġreaches":11205,"ĠBro":11206,"ostasis":11207,"ANT":11208,"Ġlevocet":11209,"eliac":11210,"Ġeastern":11211,"ĠRevolution":11212,"hour":11213,"Ġbra":11214,"ureus":11215,"Ġtranscript":11216,"mus":11217,"ĠHCV":11218,"oconut":11219,"Ġswelled":11220,"Ġpacemaker":11221,"cobal":11222,"Ġdot":11223,"ĠServ":11224,"ĠInstead":11225,"ĠArmen":11226,"Ġfails":11227,"Ġburden":11228,"ĠHypert":11229,"Ġlatest":11230,"ĠArabic":11231,"cemic":11232,"Ġprove":11233,"ĠBos":11234,"Ġtoxins":11235,"Ġgm":11236,"ĠBase":11237,"book":11238,"sac":11239,"Ġshoes":11240,"ĠLanc":11241,"Ġmicrog":11242,"lamyd":11243,"hd":11244,"iotensin":11245,"ĠShah":11246,"aded":11247,"..,":11248,"ĠOh":11249,"Ġsigned":11250,"roxine":11251,"ĠCet":11252,"abolic":11253,"Ġunfortunately":11254,"ĠEve":11255,"ĠOper":11256,"ĠEnter":11257,"ĠTABLE":11258,"heast":11259,"Ġcab":11260,"ĠCard":11261,"Ġpressures":11262,"clofenac":11263,"Ġopportunity":11264,"health":11265,"upuncture":11266,"ietal":11267,"codone":11268,"ĠNov":11269,"Ġtram":11270,"alamic":11271,"ĠIll":11272,"ĠMur":11273,"ĠWhere":11274,".......":11275,"Ġreasonable":11276,"ĠDOCTOR":11277,"Ġopposed":11278,"ĠMultiple":11279,"ĠWashington":11280,"400":11281,"etically":11282,"ega":11283,"lier":11284,"Ġpermanently":11285,"Ġpapill":11286,"Ġelectrons":11287,"Ġindependence":11288,"Ġblocking":11289,"ĠYoung":11290,"omycin":11291,"ĠHCG":11292,"sf":11293,"Ġlens":11294,"Ġbearing":11295,"Ġlibr":11296,"Ġperception":11297,"Ġyellowish":11298,"Ġcytoplasmic":11299,"osacral":11300,"icit":11301,"ĠRail":11302,"Ġeros":11303,"Ġtolerate":11304,"Ġiliac":11305,"Ġmurmur":11306,"Ġstimulus":11307,"ĠRussia":11308,"Ġdatabase":11309,"Ġ97":11310,"ĠNF":11311,"Ġnewer":11312,"board":11313,"Ġphenotype":11314,"Ġtechnical":11315,"Ġtherm":11316,"Ġanomalies":11317,"cat":11318,"erman":11319,"Ġtells":11320,"ĠNorthern":11321,"www":11322,"Ġfavorable":11323,"ĠMEDIC":11324,"lastic":11325,"ilden":11326,"Ġpatency":11327,"Ġengineering":11328,"Ġamenorrhea":11329,"threatening":11330,"length":11331,"Ġlipids":11332,"Ġmosquit":11333,"Ġcoupled":11334,"ĠBow":11335,"ĠPD":11336,"Ġdipl":11337,"iva":11338,"Ġcapillary":11339,"Ġphysiologic":11340,"Ġfits":11341,"Ġcrisis":11342,"Ġsplen":11343,"Ġavailability":11344,"ride":11345,"Ġexcer":11346,"ĠBor":11347,"apses":11348,"ukary":11349,"Ġdilation":11350,"Ġaccompany":11351,"Ġancest":11352,"stand":11353,"atif":11354,"ĠBank":11355,"Ġhousehold":11356,"disc":11357,"ĠHLA":11358,"ĠAward":11359,"Ġincome":11360,"Ġheparin":11361,"Ġneuron":11362,"ĠContin":11363,"Ġchart":11364,"Ġchief":11365,"Ġbald":11366,"Ġtroubles":11367,"ih":11368,"Ġbt":11369,"Ġcoal":11370,"oxyl":11371,"ĠImp":11372,"Ġasthmatic":11373,"Ġprognostic":11374,"Ġinnate":11375,"Ġtorn":11376,"exas":11377,"Ġ79":11378,"Ġherniated":11379,"Ġhoping":11380,"Ġagonist":11381,"Ġdrank":11382,"Ġfractured":11383,"Ġlanded":11384,"BP":11385,"phy":11386,"Ġcellulitis":11387,"Ġrod":11388,"Ġefficient":11389,"Ġacceptable":11390,".]":11391,"Ġtag":11392,"stud":11393,"ĠVict":11394,"Ġstressor":11395,"Ġobviously":11396,"ĠMartin":11397,"Ġclav":11398,"Ġindigestion":11399,"Ġfascia":11400,"CL":11401,"ui":11402,"alt":11403,"eties":11404,"Ġelastic":11405,"ĠAcid":11406,"ĠAsthma":11407,"infected":11408,"Ġdeviation":11409,"Ġhungry":11410,"race":11411,"Ġhc":11412,"opher":11413,"ĠFood":11414,"Ġagric":11415,"ĠSLE":11416,"Ġfinish":11417,"Ġequally":11418,"Ġsampling":11419,"Ġresearches":11420,"Ġanter":11421,"lude":11422,"Ġ83":11423,"125":11424,"areness":11425,"ala":11426,"ĠUnless":11427,"Ġguy":11428,"olus":11429,"Ġrain":11430,"Ġvon":11431,"ĠWILL":11432,"Ġdecisions":11433,"enger":11434,"Ġslept":11435,"ĠCroatia":11436,"adelph":11437,"ĠNext":11438,"Ġintrinsic":11439,"TIVE":11440,"Ġtemperatures":11441,"Ġhallucinations":11442,"bes":11443,"ĠPET":11444,"Ġlongitud":11445,"Ġaxillary":11446,"Ġphotographs":11447,"Ġovere":11448,"Ġ1979":11449,"Ġminimize":11450,"py":11451,"ĠBern":11452,"ruff":11453,"Ġpox":11454,"Ġleader":11455,"Ġdeeply":11456,"Ġcutting":11457,"Ġstream":11458,"Ġrepeatedly":11459,"Wh":11460,"lit":11461,"oline":11462,"ĠNic":11463,"Ġrecall":11464,"Ġdiscovery":11465,"Ġlukewarm":11466,"mad":11467,"Ġintram":11468,"Ġplates":11469,"Ġelected":11470,"Ġalkaline":11471,"Ġseasonal":11472,"FR":11473,"ĠTime":11474,"peritoneal":11475,"ĠAml":11476,"Ġcarries":11477,"Ġpolycystic":11478,"Ġoccasions":11479,"ospermia":11480,"Ġnotable":11481,"illing":11482,"Ġdelet":11483,"Ġbronchi":11484,"Ġstained":11485,"ittal":11486,"Ġquantitative":11487,"ked":11488,"Ġopted":11489,"Ġagreed":11490,"hematic":11491,"Ġstatement":11492,"IDE":11493,"Ġbout":11494,"cean":11495,"Ġregimens":11496,"Ġacidic":11497,"ĠPhysiotherapist":11498,"ĠDentist":11499,"Ġhcm":11500,"ĠOP":11501,"Ġlaun":11502,"Ġimpl":11503,"08":11504,"Ġloud":11505,"ĠWOR":11506,"Ġtrace":11507,"Ġpara":11508,"Ġmaturation":11509,"Ġroutinely":11510,"ĠParis":11511,"Ġharmless":11512,"nar":11513,"Ġaureus":11514,"anz":11515,"icin":11516,"ĠSum":11517,"Ġattract":11518,"Ġrefused":11519,"andson":11520,"hepatic":11521,"Ġarchitecture":11522,"Ġtrend":11523,"Ġpushing":11524,"ĠALSO":11525,"Ġshut":11526,"agia":11527,"ĠChlor":11528,"Ġocular":11529,"Ġstatic":11530,"obacco":11531,"Jay":11532,"Ġmimic":11533,"ido":11534,"ĠANA":11535,"Ġconformation":11536,"amate":11537,"Ġguitar":11538,"Ġgradual":11539,"KD":11540,"Ġelic":11541,"ĠSen":11542,"ritin":11543,"Ġseeking":11544,"Ġpushed":11545,"Ġidentifying":11546,"Ġatoms":11547,"Ġamn":11548,"ĠNap":11549,"Ġvolatile":11550,"Ġrays":11551,"loss":11552,"present":11553,"Ġnotably":11554,"ĠOncol":11555,"ackson":11556,"Ġcomparable":11557,"Ġtasks":11558,"Ġaph":11559,"ĠmIU":11560,"ellect":11561,"ĠCounty":11562,"Ġspondylosis":11563,"Ġbeaut":11564,"Ġprogressively":11565,"Ġdiminished":11566,"odynamic":11567,"adelphia":11568,"Ġsons":11569,"Ġteams":11570,"Ġendogenous":11571,"vastatin":11572,"lon":11573,"inous":11574,"ĠRef":11575,"ĠViral":11576,"ĠScot":11577,"Ġcollapse":11578,"brevi":11579,"Ġpregabalin":11580,"Ġencourag":11581,"ĠStreet":11582,"Ġconcieve":11583,"ilibrium":11584,"Ġdut":11585,"ĠCatal":11586,"Ġcalling":11587,"Ġbronchial":11588,"ĠModern":11589,"Ġcontagious":11590,"both":11591,"Ġunexplained":11592,"Ġmediat":11593,"Ġfinds":11594,"Ġbirths":11595,"Ġcommittee":11596,"................":11597,"Ġfly":11598,"Ġperoxide":11599,"Ġtwenty":11600,"rosine":11601,"Ġrecovering":11602,"aryngitis":11603,"ĠBreast":11604,"Ġvelocity":11605,"omed":11606,"Ġarrow":11607,"quire":11608,"ĠAndrew":11609,"ĠHIWell":11610,"Ġpreca":11611,"Ġelimination":11612,"Ġgabapentin":11613,"Ġtranspor":11614,"Ġfacility":11615,"Ġpurs":11616,"ĠUnderstanding":11617,"Ġstaging":11618,"Ġhighlight":11619,"Ġeverytime":11620,"Ġideation":11621,"imus":11622,"ĠFert":11623,"iph":11624,"Ġtransm":11625,"Ġrising":11626,"Ġrecommendation":11627,"Ġcircular":11628,"ĠAFTER":11629,"ĠVit":11630,"Ġchemistry":11631,"Ġthorax":11632,"Ġdiscontinued":11633,"view":11634,"ĠHot":11635,"Ġbelt":11636,"ĠDiet":11637,"Ġgentle":11638,"Ġheals":11639,"ĠDA":11640,"Ġsynaptic":11641,"Ġoperate":11642,"Ġmidline":11643,"Ġstayed":11644,"Ġadenocarcinoma":11645,"ĠCRP":11646,"Ġpostpartum":11647,"ERATION":11648,"USE":11649,"Ġerrors":11650,"Ġnarc":11651,"ĠAyurveda":11652,"ĠCarl":11653,"Ġnitrogen":11654,"ĠPROB":11655,"Ġanatomic":11656,"ĠIrish":11657,"rea":11658,"Ġsimpl":11659,"Ġarrhythmias":11660,"agy":11661,"hyse":11662,"Ġstimulates":11663,"ourses":11664,"09":11665,"Ġfoul":11666,"ĠHBV":11667,"Ġtroops":11668,"oprolol":11669,"because":11670,"oups":11671,"Ġ1975":11672,"ville":11673,"ĠAli":11674,"Ġletters":11675,"ozo":11676,"gebra":11677,"ĠBob":11678,"ĠBlue":11679,"oned":11680,"ĠEdu":11681,"Ġsave":11682,"Ġ81":11683,"Ġcardio":11684,"Ġrealized":11685,"dam":11686,"Ġmd":11687,"Ġmn":11688,"Ġshunt":11689,"Ġinstability":11690,"urated":11691,"Ġbreaks":11692,"ructure":11693,"ĠUsing":11694,"fat":11695,"yc":11696,"anal":11697,"ĠCel":11698,"Ġfeeds":11699,"Ġtwin":11700,"Ġswings":11701,"uropathy":11702,"Ġsmoked":11703,"Ġmorphine":11704,"bic":11705,"ĠTen":11706,"oglyc":11707,"rofib":11708,"Ġsubd":11709,"Ġworkup":11710,"ariate":11711,"Ġparasites":11712,"Ġseat":11713,"Ġknew":11714,"Ġcitrate":11715,"ĠJoseph":11716,"viral":11717,"Ġballoon":11718,"Ġlabeled":11719,"ĠMasturbation":11720,"Ġthrombocytopenia":11721,"RY":11722,"Ġcour":11723,"Ġmole":11724,"ĠVERY":11725,"ĠPractice":11726,"anine":11727,"odef":11728,"through":11729,"Ġbreaking":11730,"versely":11731,"Ġbruises":11732,"Ġconsistency":11733,"Ġprecaution":11734,"opia":11735,"inea":11736,"Ġcurious":11737,"Ġperforation":11738,"Be":11739,"Ġconfig":11740,"Ġlymphn":11741,"Ġgaining":11742,"Ġexce":11743,"ĠStep":11744,"Ġparietal":11745,"Ġsterile":11746,"Ġtolerated":11747,"Ġencounter":11748,"ailed":11749,"Ġempir":11750,"Ġdetermining":11751,"ĠFranc":11752,"ĠGluc":11753,"ĠSyndrome":11754,"ĠSTI":11755,"ĠCold":11756,"ULT":11757,"ĠHung":11758,"Ġseed":11759,"Ġshouldn":11760,"armac":11761,"iscus":11762,"Ġrealize":11763,"Ġdilatation":11764,"Ġhorse":11765,"Ġdestroyed":11766,"Ap":11767,"Ã¨":11768,"Ġbands":11769,"Ġbatter":11770,"mental":11771,"ĠBarb":11772,"ĠInfectious":11773,"Ġbothering":11774,"Ġscholars":11775,"usal":11776,"ethe":11777,"Ġenters":11778,"Ġpassive":11779,"Ġhydroly":11780,"Ġassembly":11781,"Ġiodine":11782,"07":11783,"Ġdisrupt":11784,"buterol":11785,"Ġcombinations":11786,"Ġbuy":11787,"ĠHyderabad":11788,"orina":11789,"ĠMo":11790,"Ġbonds":11791,"IFIC":11792,"ĠTy":11793,"Ġadditionally":11794,"uticasone":11795,"Go":11796,"Ġforte":11797,"ĠMale":11798,"ifen":11799,"Ġconsultant":11800,"ĠLew":11801,"Ġcandidate":11802,"Ġtriglyceride":11803,"Ġbuffer":11804,"PL":11805,"Ġdried":11806,"Ġlands":11807,"Ġscab":11808,"Ġ94":11809,"roxyl":11810,"Ġosteoarthritis":11811,"Ġinstitutions":11812,"oclonal":11813,"ĠMagn":11814,"ĠPolit":11815,"ĠJes":11816,"iatry":11817,"Ġfissure":11818,"Ġlub":11819,"Ġendocard":11820,"inence":11821,"ĠMary":11822,"Ġbegun":11823,"DI":11824,"lated":11825,"ĠArth":11826,"arcoma":11827,"Ġandrogen":11828,"Ġhs":11829,"Ġbeverages":11830,"epit":11831,"Ġmanager":11832,"Ġparticipate":11833,"cts":11834,"abard":11835,"Ġvocal":11836,"ropathy":11837,"Ġdeficient":11838,"Ġhemisp":11839,"Ġcrew":11840,"ĠProf":11841,"ĠWithout":11842,"Ġneurotrans":11843,"Ġconsiderably":11844,"Ġayurvedic":11845,"Ġhel":11846,"ĠTw":11847,"ĠFoot":11848,"Ġstaying":11849,"Ġketamine":11850,"Ġsuspicious":11851,"ĠHorm":11852,"ĠSl":11853,"Ġcoinc":11854,"ĠChristmas":11855,"Ġnicot":11856,"Ġeuph":11857,"Ġadaptive":11858,"linked":11859,"Ġbeneath":11860,"Ġpenile":11861,"Ġmandatory":11862,"Ġpollen":11863,"Ġamin":11864,"epile":11865,"Ġscarring":11866,"ĠChile":11867,"Ġ1976":11868,"Ġnuts":11869,"ĠChatDoctorI":11870,"Ġconflict":11871,"oqu":11872,"Ġnost":11873,"ĠFre":11874,"Ġatten":11875,"Ġinducing":11876,"Ġfossa":11877,"Ġsod":11878,"lycemic":11879,"Ġunstable":11880,"Ġinclusion":11881,"ĠOvulation":11882,"itable":11883,"ĠBBC":11884,"ĠPublic":11885,"ĠKen":11886,"unicip":11887,"Ġearth":11888,"ouch":11889,"Ġrif":11890,"Ġunilateral":11891,"Ġautomat":11892,"OST":11893,"Ġsteady":11894,"era":11895,"acting":11896,"ypically":11897,"Ġdiffusion":11898,"Ġedition":11899,"Ġthinning":11900,"Ġsecretory":11901,"Ġdates":11902,"ĠDrug":11903,"Ġpopped":11904,"Ġchloride":11905,"iprofloxacin":11906,"mph":11907,"ĠSil":11908,"Ġactivates":11909,"Ġ1978":11910,"Ġfermentation":11911,"Ġexhausted":11912,"ĠMit":11913,"Ġsomewhere":11914,"Ġprescrib":11915,"Ġcrypt":11916,"Ġadjustment":11917,"Ġangiogram":11918,"Ġpigment":11919,"ĠSHE":11920,"SD":11921,"growth":11922,"Ġconqu":11923,"Ġreporting":11924,"Ġsweet":11925,"ĠAlexand":11926,"Ġphilosophy":11927,"ĠGurabard":11928,"ĠGurabardhi":11929,"Ġwine":11930,"oscope":11931,"Ġlifetime":11932,"Ġcondoms":11933,"Ġimplicated":11934,"Ġsyphilis":11935,"ĠGra":11936,"angle":11937,"Ġaccord":11938,"ĠAdminist":11939,"ĠDepending":11940,"vation":11941,"Ġretrospective":11942,"Ġresolves":11943,"Ġros":11944,"iration":11945,"Ġ104":11946,"Ġhyperp":11947,"Ġcombat":11948,"ĠCardiac":11949,"jun":11950,"ctomy":11951,"Ġperm":11952,"Ġflare":11953,"Ġauthority":11954,"atible":11955,"ĠMer":11956,"ofib":11957,"ChatDoctor":11958,"Ġcolic":11959,"Ġparathyroid":11960,"Ġfiancee":11961,"hol":11962,"Ġsporad":11963,"ĠApart":11964,"Ġlimitations":11965,"sey":11966,"ometer":11967,"Ġ86":11968,"Ġappt":11969,"ĠPhysiotherapy":11970,"Ġprotrusion":11971,"ĠUntil":11972,"could":11973,"Ġflo":11974,"Ġbrainstem":11975,"ropriate":11976,"ĠIntra":11977,"ften":11978,"Ġmitochondria":11979,"Ġlamina":11980,"Ġsell":11981,"Ġabrupt":11982,"anta":11983,"ĠLee":11984,"Ġtwitching":11985,"Ġemesis":11986,"Ġtravell":11987,"Ġregarded":11988,"Ġconcussion":11989,"Apply":11990,"combination":11991,"ĠLip":11992,"Ġwriters":11993,"Ġknock":11994,"Ġexclusively":11995,"Ġspong":11996,"ĠColomb":11997,"rogens":11998,"ĠAcetaminophen":11999,"Ġisot":12000,"Ġnoticing":12001,"ĠKar":12002,"Ġreli":12003,"ialis":12004,"Ġcolorectal":12005,"ĠWeight":12006,"Keep":12007,"WW":12008,"Ġfur":12009,"ruci":12010,"Ġantihypertensive":12011,"Ġtoxin":12012,"ildenafil":12013,"bably":12014,"Ġft":12015,"Ġpersonally":12016,"Ġreturns":12017,"Ġtemporarily":12018,"SG":12019,"}{":12020,"Ġsen":12021,"ĠCB":12022,"Ġretina":12023,"Ġvigorous":12024,"Ġhiat":12025,"Ġeukary":12026,"Ġovum":12027,"Ġpenetration":12028,"ĠInitially":12029,"ocratic":12030,"ĠSorry":12031,"Ġgoals":12032,"okin":12033,"OUT":12034,"askar":12035,"Ġcopies":12036,"heres":12037,"ĠHallow":12038,"ĠIgM":12039,"osporin":12040,"Ġsettled":12041,"Ġthrew":12042,"ĠSon":12043,"Ġweb":12044,"urable":12045,"Ġweap":12046,"Ġsheath":12047,"Ġgrandson":12048,"awa":12049,"Ġ.....":12050,"Ġchirop":12051,"isa":12052,"Ġtaper":12053,"Ġvaried":12054,"Ġvariability":12055,"ĠWhenever":12056,"ĠGovernment":12057,"rip":12058,"oplasmic":12059,"ĠAfghanistan":12060,"Ġcardiomyopathy":12061,"pulmonary":12062,"imp":12063,"ĠMuscle":12064,"Ġsoluble":12065,"Ġdarker":12066,"Ġjuly":12067,"Ġpulses":12068,"Ġrejection":12069,"Ġcaries":12070,"Ġmodalities":12071,"uclear":12072,"!!!!":12073,"Ġmesenteric":12074,"Ġsurveillance":12075,"Ġtetanus":12076,"Ġsummary":12077,"ancer":12078,"ilst":12079,"ĠReview":12080,"Ġnmr":12081,"Ġimplants":12082,"cks":12083,"aties":12084,"ĠSol":12085,"ĠLab":12086,"Ġveg":12087,"CVTS":12088,"ĠBLOOD":12089,"Con":12090,"Ġforamen":12091,"ĠSL":12092,"ĠChildren":12093,"iped":12094,"ĠNotes":12095,"Ġdyspnea":12096,"Ġvestibular":12097,"birth":12098,"heart":12099,"Ġlam":12100,"ĠBall":12101,"ĠProl":12102,"Ġclue":12103,"Ġ1969":12104,"books":12105,"reedom":12106,"su":12107,"Ġconcom":12108,"Ġadopt":12109,"Ġarray":12110,"Ġtestes":12111,"ĠUpper":12112,"Ġclears":12113,"onts":12114,"aky":12115,"occur":12116,"polycystic":12117,"ees":12118,"Ġmad":12119,"angal":12120,"Ġpractical":12121,"ĠUSA":12122,"ĠReport":12123,"Ġsight":12124,"Ġwakes":12125,"Ġbought":12126,"ĠRome":12127,"ĠLower":12128,"Ġpressing":12129,"ĠHal":12130,"Ġship":12131,"ivering":12132,"Ġfixation":12133,"ractory":12134,"ĠIam":12135,"than":12136,"andruff":12137,"Ġpreeclampsia":12138,"Ġshell":12139,"ĠIndividual":12140,"itudes":12141,"Ġbutter":12142,"ĠLV":12143,"ĠOtt":12144,"Ġcomplexity":12145,"Ġreflects":12146,"Ġjune":12147,"Ġclothing":12148,"Ġobser":12149,"urgery":12150,"ĠLIKE":12151,"Ġintoxication":12152,"etc":12153,"ĠAIDS":12154,"Ġapple":12155,"ĠCONSID":12156,"Ġslipped":12157,"kar":12158,"ĠAle":12159,"ĠâĢĶ":12160,"Ġmeanwhile":12161,"Ġmutant":12162,"Ġaccurately":12163,"ĠCharl":12164,"ĠCommittee":12165,"ĠBelg":12166,"Ġlubric":12167,"ulators":12168,"imet":12169,"Ġalopecia":12170,"Ġantacids":12171,"ologous":12172,"Ġinterfer":12173,"Ġworkout":12174,"Ġparticle":12175,"Ġvalves":12176,"neumonia":12177,"Ġencoding":12178,"Ġcontroversial":12179,"ĠGyn":12180,"rons":12181,"Ġglauc":12182,"Ġfevers":12183,"Ġawhile":12184,"reting":12185,"omial":12186,"vey":12187,"ĠHill":12188,"ĠASA":12189,"ĠBesides":12190,"Ġwindow":12191,"Ġhorizontal":12192,"las":12193,"vol":12194,"Ġ1974":12195,"Ġantagonist":12196,"Ġinvest":12197,"Ġ87":12198,"Ġlegis":12199,"Ġpantoprazole":12200,"Ġdegenerate":12201,"Ġbusy":12202,"ĠDepartment":12203,"Ġatherosclerosis":12204,"Ġanch":12205,"Ġmcg":12206,"Ġtylenol":12207,"Ġreserv":12208,"Ġplot":12209,"Ġ1972":12210,"ĠCompany":12211,"urnal":12212,"urches":12213,"Ġdiscontinue":12214,"Ġopioid":12215,"Ġcous":12216,"Ġcoach":12217,"Ġtil":12218,"ĠGa":12219,"Ġemission":12220,"Ġimproper":12221,"Ġsunlight":12222,",,,":12223,"Ġcontributes":12224,"Ġvasculitis":12225,"Ġcv":12226,"Ġpati":12227,"Ġfriction":12228,"othy":12229,"ĠTim":12230,"ĠBoston":12231,"semin":12232,"odontist":12233,"Ġpronounced":12234,"omyelitis":12235,"cor":12236,"itors":12237,"Ġregain":12238,"MRI":12239,"kt":12240,"ĠLes":12241,"ialysis":12242,"ĠStand":12243,"Ġexamining":12244,"Ġhyperthyroidism":12245,"ĠAber":12246,"containing":12247,"Ġequation":12248,"Ġparasite":12249,"omorph":12250,"cells":12251,"ĠImmunol":12252,"carb":12253,"Ġmh":12254,"Ġhb":12255,"agg":12256,"Ġpreventive":12257,"Ġproport":12258,"ĠHistor":12259,"Ġcorrelate":12260,"Ġsurrounded":12261,"Ġstrictly":12262,"ruciating":12263,"Ġpaining":12264,"Ġknows":12265,"ĠJackson":12266,"Ġadhesions":12267,"amethasone":12268,"ĠWednesday":12269,"ĠIsrael":12270,"ĠTENS":12271,"ptives":12272,"ffic":12273,"Ġpepper":12274,"Ġdisappeared":12275,"Ġrepetitive":12276,"Ġmicrotub":12277,"Ġsymt":12278,"Ġerythemat":12279,"ois":12280,"Internal":12281,"Ġpopping":12282,"Ġelsewhere":12283,"ĠBeta":12284,"Ġascending":12285,"Ġinsufficient":12286,"Ġreflexes":12287,"Ġomeprazole":12288,"Ġspend":12289,"menopausal":12290,"Ġsulfate":12291,"iser":12292,"Ġyo":12293,"Ġorbital":12294,"olecular":12295,"Ġcortisone":12296,"angalore":12297,"hand":12298,"ĠSouthern":12299,"Ġthereafter":12300,"Ġgranules":12301,"second":12302,"enced":12303,"Ġpaid":12304,"Ġsedation":12305,"ĠPhiladelphia":12306,"Ġduoden":12307,"izers":12308,"Ġfundamental":12309,"Ġsqueeze":12310,"orus":12311,"adow":12312,"ĠPap":12313,"Ġspring":12314,"ĠALLERG":12315,"diagnosed":12316,"ĠOTC":12317,"ĠAnal":12318,"Ġcreates":12319,"Ġharder":12320,"ht":12321,"sub":12322,"udes":12323,"Ġconcepts":12324,"Ġestimates":12325,"GT":12326,"ĠTexas":12327,"ĠPLEASE":12328,"Ġhistamine":12329,"Ġmiles":12330,"Ġmigraines":12331,"Ġprecursor":12332,"orie":12333,"Ġbiting":12334,"Ġlute":12335,"ĠBL":12336,"leton":12337,"Ġthrush":12338,"ĠEstradiol":12339,"Ġantioxidant":12340,"phen":12341,"Ġcert":12342,"ĠCrit":12343,"Ġapril":12344,"Ġawareness":12345,"Ġvapors":12346,"Ġquestionnaire":12347,"isons":12348,"Ġmyth":12349,"ĠAnge":12350,"Ġtransformation":12351,"Ġbrisk":12352,"Ġexcite":12353,"Ġinnerv":12354,"ĠNeuros":12355,"Ġassuming":12356,"Ġcontributing":12357,"Ġfederal":12358,"ĠCambridge":12359,"Ġanticoagul":12360,"vular":12361,"Ġcoconut":12362,"aning":12363,"opept":12364,"Ġplasm":12365,"Ġ1977":12366,"Ġpredictive":12367,"ĠTele":12368,"Ġfibrobl":12369,"ĠCalcium":12370,"ĠMad":12371,"Ġfecal":12372,"ĠRa":12373,"Ġpersp":12374,"Ġcalamine":12375,"ĠMBBS":12376,"edema":12377,"Ġfamiliar":12378,"Ġquadrant":12379,"teral":12380,"ĠGi":12381,"IND":12382,"Ġdosing":12383,"Use":12384,"will":12385,"Ġpra":12386,"anax":12387,"Ġdioxide":12388,"Ġeti":12389,"otropin":12390,"Ġfragment":12391,"Ġconjunct":12392,"Ġcheese":12393,"ĠClinic":12394,"Ġlearned":12395,"Ġdescending":12396,"Ġsubunits":12397,"Ġdecompression":12398,"ĠEconomy":12399,"othorax":12400,"ulty":12401,"ĠAsian":12402,"ammad":12403,"ococci":12404,"Ġseptum":12405,"begin":12406,"ented":12407,"ĠWater":12408,"best":12409,"Ġbreaths":12410,"myel":12411,"Ġcad":12412,"Ġsneeze":12413,"existing":12414,"ensor":12415,"ausea":12416,"Ġcompliance":12417,"atories":12418,"Ġvulner":12419,"Ġpalliative":12420,"Ġperceived":12421,"meric":12422,"ĠBR":12423,"rub":12424,"Ġwouldn":12425,"Ġtuberc":12426,"ĠTem":12427,"Ġrinse":12428,"Ġstudying":12429,"Ġhusbands":12430,"Ġportions":12431,"ĠCough":12432,"resistant":12433,"Ġbleeds":12434,"Ġcetirizine":12435,"sur":12436,"ĠFer":12437,"Ġspecified":12438,"Ġindependently":12439,"PD":12440,"Ġcis":12441,"Ġrat":12442,"ĠPed":12443,"artments":12444,"Ġdryness":12445,"Ġbronchodilator":12446,"ĠRadio":12447,"ĠHum":12448,"olving":12449,"veland":12450,"Ġstatistics":12451,"Ġurinalysis":12452,"ĠAlzheimer":12453,"ĠAmoxicillin":12454,"Ġprogresses":12455,"Ġphosphatase":12456,"Ġsul":12457,"Ġspoken":12458,"Ġinteresting":12459,"Some":12460,"Ġrural":12461,"Ġhyster":12462,"Ġembarr":12463,"Ġmalignancies":12464,"Ġmicroscope":12465,"ĠPROBLE":12466,"ĠCONSIDERATION":12467,"Ġrow":12468,"itol":12469,"aratus":12470,"Ġcovers":12471,"Ġreddish":12472,"Ġcongestive":12473,"HE":12474,"Read":12475,"argin":12476,"Ġdependence":12477,"Ġhematologist":12478,"erbai":12479,"zer":12480,"Ġasymmet":12481,"ĠBle":12482,"ocrin":12483,"ĠBiopsy":12484,"Ġplaques":12485,"ellectual":12486,"Ġbeer":12487,"Ġbiology":12488,"Ġmoderately":12489,"Ġviewed":12490,"Ġlacking":12491,"ĠActually":12492,"Ġscratching":12493,"rauma":12494,"Ġautomatically":12495,"bour":12496,"cient":12497,"ulas":12498,"opically":12499,"ĠBah":12500,"Ġmari":12501,"Ġhyperg":12502,"ĠMDMA":12503,"ĠBEEN":12504,"ĠBone":12505,"ĠOB":12506,"Ġ1930":12507,"akistan":12508,"inted":12509,"Ġuniversal":12510,"Ġirreversible":12511,"Sav":12512,"alo":12513,"Ġgiant":12514,"liver":12515,"Ġmultif":12516,"Ġburping":12517,"Ġsequencing":12518,"Ġnarrows":12519,"family":12520,"symb":12521,"Ëľ":12522,"ĠMM":12523,"Ġwasnt":12524,"Ġ92":12525,"ĠUnlike":12526,"Ġreturning":12527,"Ġexcruciating":12528,"Ġfrozen":12529,"Ġie":12530,"Ġactress":12531,"lymp":12532,"ethyl":12533,"ĠCertain":12534,"ĠSit":12535,"Ġships":12536,"Ġretard":12537,"Ġfallen":12538,"white":12539,"Ġinstitute":12540,"Ġmargins":12541,"ĠTherapist":12542,"isine":12543,"eminal":12544,"medicine":12545,"Ġfatigued":12546,"Ġvaccinated":12547,"ogether":12548,"ĠRisk":12549,"Ġ1973":12550,"Ġradial":12551,"iae":12552,"Ġscoliosis":12553,"dered":12554,"itin":12555,"Ġchamber":12556,"izumab":12557,"Ġarranged":12558,"ggulu":12559,"Ġresidents":12560,"Ġresidues":12561,"Ġscope":12562,"Ġinhab":12563,"Ġpsychosis":12564,"Ġvoltage":12565,"nam":12566,"Ġarous":12567,"UST":12568,"Ġbuildings":12569,"Ġsilver":12570,"ĠHSG":12571,"wan":12572,"utation":12573,"ĠMem":12574,"Ġboys":12575,"Ġparen":12576,"group":12577,"ĠPrevention":12578,"ĠSel":12579,"Ġnotes":12580,"Ġcomfort":12581,"Ġhasnt":12582,"ĠCongress":12583,"Ġneurotransmit":12584,"opos":12585,"Ġorbit":12586,"ĠDC":12587,"issue":12588,"Ġserial":12589,"odds":12590,"forming":12591,"ĠPeriod":12592,"je":12593,"Ġreadjust":12594,"orado":12595,"ĠApproximately":12596,"Ġsuture":12597,"ativ":12598,"ĠLim":12599,"Ġcontributed":12600,"Ġswitched":12601,"Ġentity":12602,"minimal":12603,"Ġlosses":12604,"ĠTurk":12605,"110":12606,"ĠOften":12607,"Ġflora":12608,"syn":12609,"ĠINF":12610,"Ġoxidation":12611,"ĠMRSA":12612,"uz":12613,"Ġmol":12614,"comI":12615,"Ġcosmetic":12616,"ĠIFN":12617,"Ġclusters":12618,"ĠHERD":12619,"Ġdistinction":12620,"Ġxrays":12621,"Ġorganizations":12622,"Ġstrokes":12623,"eness":12624,"ĠmRNA":12625,"Ġcontraceptives":12626,"umber":12627,"Ġconstipated":12628,"ushan":12629,"CHAPTER":12630,"Ġargued":12631,"ĠTechn":12632,"NP":12633,"Ġadjuvant":12634,"ĠLos":12635,"ĠOl":12636,"tesy":12637,"Ġphoto":12638,"times":12639,"omach":12640,"ĠĠĠĠĠĠĠ":12641,"Ġvictim":12642,"effective":12643,"Ġcitizens":12644,"Ġcourses":12645,"Ġbases":12646,"ĠPTH":12647,"Ġundert":12648,"ĠJr":12649,"Ġelectronic":12650,"ĠCuba":12651,"ĠRespected":12652,"RING":12653,"Ġcholecystectomy":12654,"Ġhypo":12655,"Ġprevalent":12656,"Ġnostril":12657,"diff":12658,"Ġbes":12659,"Ġmemor":12660,"ounting":12661,"Ġdoor":12662,"Ġperme":12663,"ĠJul":12664,"icked":12665,"Ġvaricocele":12666,"Ġvirtually":12667,"Ġantagonists":12668,"Ġiso":12669,"Ġ105":12670,"Ġ93":12671,"Ġoffers":12672,"Ġenhancement":12673,"Ġmicrobial":12674,"FA":12675,"ME":12676,"tobacco":12677,"Ġforth":12678,"ĠBACK":12679,"Ġinitiate":12680,"Ġeliminated":12681,"Ġinqu":12682,"Ġbread":12683,"ĠTREAT":12684,"Ġips":12685,"ĠEt":12686,"Ġhistologic":12687,"Ġrestored":12688,"ĠMexico":12689,"ĠPacific":12690,"chron":12691,"ĠYEARS":12692,"Ġbasketball":12693,"irium":12694,"ĠStop":12695,"Ġfacilities":12696,"Ġ1971":12697,"Its":12698,"See":12699,"Ġantibacterial":12700,"Ġmultic":12701,"Ġchromosomal":12702,"dimensional":12703,"uity":12704,"Ġwilling":12705,"Ġcompromised":12706,"Savaskar":12707,"ĠTram":12708,"Ġups":12709,"ava":12710,"inton":12711,"clinical":12712,"othe":12713,"ĠThrough":12714,"Ġparad":12715,"Ġimmunodef":12716,"Ġtyrosine":12717,"Ġascites":12718,"Ġboiled":12719,"Ġpicked":12720,"Ġfainting":12721,"Ġâī¥":12722,"ding":12723,"Ġprocessed":12724,"Ġessentially":12725,"Ġmesh":12726,"Ġdeclared":12727,"Ġencephalitis":12728,"ĠSeries":12729,"Ġassisted":12730,"Ġeru":12731,"roxen":12732,"ĠAzerbai":12733,"Ġmrna":12734,"ĠTherapy":12735,"nat":12736,"Ġsom":12737,"ĠTEST":12738,"ĠHg":12739,"Ġchron":12740,"Ġpert":12741,"lectomy":12742,"ĠShark":12743,"Ġfacet":12744,"Ġcapture":12745,"ĠVirgin":12746,"Ġmas":12747,"ĠBon":12748,"Ġganglia":12749,"Ġadipose":12750,"ORMAL":12751,"osh":12752,"ulose":12753,"Ġascertain":12754,"ĠLapar":12755,"Ġmononucle":12756,"Ġteaching":12757,"Ġconsisted":12758,"Ġpleasure":12759,"Ġreligion":12760,"Ġuncons":12761,"Ġsubunit":12762,"Ġruling":12763,"ston":12764,"Ġpartly":12765,"Ġwriter":12766,"Ġepididym":12767,"iber":12768,"ĠLisinopril":12769,"oker":12770,"Ġphases":12771,"Ġferritin":12772,"Pain":12773,"Ġdual":12774,"Ġdedic":12775,"Ġje":12776,"olites":12777,"Ġinapp":12778,"adays":12779,"aluation":12780,"ĠPrinc":12781,"ĠDiseases":12782,"Ġextremity":12783,"Ġmarijuana":12784,"ĠCast":12785,"third":12786,"ilty":12787,"ĠAbnormal":12788,"tw":12789,"Ġtables":12790,"Ġprenatal":12791,"ranch":12792,"Ġfavour":12793,"Ġabundant":12794,"Ġailments":12795,"ĠEmergency":12796,"etts":12797,"ĠMuc":12798,"Ġexpressing":12799,"Ġimmunocomp":12800,"Ġtennis":12801,"Ġpollution":12802,"Ġvisceral":12803,"Ġannoying":12804,"==":12805,"Pro":12806,"ĠPediatric":12807,"Ġleague":12808,"ibl":12809,"Ġassociations":12810,"Ġconfined":12811,"Ġcalls":12812,"Ġisolation":12813,"choline":12814,"ĠEthinyl":12815,"alc":12816,"ĠFree":12817,"Ġprovider":12818,"Ġincorporated":12819,"ĠAlfred":12820,"peptide":12821,"Ġwks":12822,"Ġbin":12823,"ĠDrugs":12824,"Ġconsensus":12825,"Ġpreserved":12826,"ĠXray":12827,"ĠComb":12828,"Ġreferral":12829,"ĠCleveland":12830,"Ġdramatic":12831,"Ġkh":12832,"Ġassays":12833,"Ġpostures":12834,"Ġflexion":12835,"Ġmatters":12836,"Ġbriefly":12837,"Ġembarrass":12838,"ilia":12839,"Ġprojection":12840,"ĠThose":12841,"Ġadvances":12842,"Ġfolds":12843,"Ġdoxy":12844,"Ġejection":12845,"Ġmaneu":12846,"ĠAnat":12847,"EK":12848,"Ġthi":12849,"Ġdeeper":12850,"Ġblunt":12851,"ĠIgE":12852,"ystem":12853,"eta":12854,"Ġcharged":12855,"Ġclock":12856,"ĠAbdominal":12857,"Ġsacral":12858,"ĠAdditionally":12859,"food":12860,"olam":12861,"Ġengaged":12862,"rospiren":12863,"rospirenone":12864,"hew":12865,"ĠSar":12866,"Ġexclusion":12867,"ĠGlob":12868,"ceptors":12869,"Ġprobe":12870,"Ġpocket":12871,"ĠSaint":12872,"illaries":12873,"reatinine":12874,"ĠLC":12875,"Indu":12876,"ĠPlus":12877,"Ġbelief":12878,"Ġthousands":12879,"Understanding":12880,"ĠSqu":12881,"Ġune":12882,"Ġunion":12883,"Ġjog":12884,"Ġmini":12885,"regulation":12886,"Ġlactose":12887,"Ġpromotes":12888,"Ġendocrinologist":12889,"Ġglaucoma":12890,"Ġpatience":12891,"ĠSharka":12892,"ĠArist":12893,"ĠLM":12894,"ĠNeg":12895,"ĠChol":12896,"Ġequilibrium":12897,"Ġammonia":12898,"consult":12899,"ech":12900,"osyn":12901,"Ġevaluating":12902,"Ġcircles":12903,"ĠDeath":12904,"Ġ1968":12905,"Ġabscesses":12906,"ĠMONTH":12907,"Ġlongitudinal":12908,"UC":12909,"Ġfloss":12910,"berry":12911,"Ġsurviv":12912,"Ġdrip":12913,"ĠObstetricians":12914,"Ġcontaminated":12915,"atoma":12916,"Ġholes":12917,"ĠTor":12918,"exual":12919,"ĠLung":12920,"ĠLately":12921,"Ġrelatives":12922,"ĠDiffe":12923,"Ġresponded":12924,"Ġparanoid":12925,"Ġef":12926,"ĠDig":12927,"ĠBan":12928,"Ġimprovements":12929,"Ġefficiency":12930,"Ġlaugh":12931,"cd":12932,"ĠHDL":12933,"Ġpainting":12934,"ICE":12935,"shaped":12936,"ECIFIC":12937,"Ġeducational":12938,"Se":12939,"gastro":12940,"Ġyours":12941,"tub":12942,"ĠChen":12943,"ĠSR":12944,"Ġadm":12945,"Ġflank":12946,"Ġassessing":12947,"semination":12948,"ĠOrthopaedic":12949,"adian":12950,"rica":12951,"Ġappropriately":12952,"Ġcompromise":12953,"Ġexcitement":12954,"Ġcam":12955,"Ġconcurrent":12956,"Ġmarkedly":12957,"ĠHbA":12958,"ĠGynecologists":12959,"illus":12960,"ĠColorado":12961,"ĠTransport":12962,"Ġthreatening":12963,"Ġtramadol":12964,"Ġbid":12965,"uric":12966,"atial":12967,"Ġ225":12968,"Ġobsessive":12969,"Ġglomerular":12970,"anic":12971,"ĠSocial":12972,"Ġregime":12973,"plastic":12974,"many":12975,"ĠExamples":12976,"ĠHospitals":12977,"ĠHydro":12978,"Ġsoc":12979,"Ġconnections":12980,"Ġharb":12981,"ĠPS":12982,"Ġevac":12983,"Ġ1940":12984,"Ġrose":12985,"Ġdraining":12986,"Ġcopd":12987,"Ġdogs":12988,"Ġiclinq":12989,"studies":12990,"ĠCONSIDERATIONSP":12991,"Ġeruption":12992,"herent":12993,"Ġaber":12994,"phone":12995,"raline":12996,"viously":12997,"Ġglucocorticoids":12998,"foot":12999,"orient":13000,"Ġcamer":13001,"Ġbent":13002,"Ġmum":13003,"ĠPy":13004,"Ġ1920":13005,"Ġgenomic":13006,"ilding":13007,"ERS":13008,"Ġhemorrhagic":13009,"Ġisolates":13010,"cortisone":13011,"ĠCONSIDERATIONSPART":13012,"ĠFetal":13013,"neal":13014,"Ġenerg":13015,"Ġapproval":13016,"ĠRecent":13017,"ĠNeuro":13018,"Ġlobes":13019,"]{":13020,"Ġdex":13021,"Ġresusc":13022,"Ġrestore":13023,"clav":13024,"Ġdysph":13025,"Ġhydr":13026,"Ġmistaking":13027,"Ġparenchymal":13028,"Ġalleviate":13029,"onom":13030,"ĠSand":13031,"Ġoccult":13032,"amsb":13033,"angladesh":13034,"Ġarrived":13035,"Ġeuphoric":13036,"bel":13037,"Ġgently":13038,"Ġarc":13039,"ospasm":13040,"ĠConn":13041,"hetics":13042,"ĠBhushan":13043,"fish":13044,"odox":13045,"oping":13046,"Ġrs":13047,"Ġpaste":13048,"Ġtailbone":13049,"ĠPossibility":13050,"ĠOrganization":13051,"reams":13052,"Ġlt":13053,"Ġgenotype":13054,"Ġcyan":13055,"Ġpeel":13056,"Ġbrach":13057,"retin":13058,"wasys":13059,"erson":13060,"Ġevolved":13061,"upg":13062,"Ġchromat":13063,"fonts":13064,"Ġprogen":13065,"Ġchocol":13066,"Ġcrust":13067,"ĠGuggulu":13068,"ĠStudy":13069,"Ġsizes":13070,"ĠBil":13071,"rsfs":13072,"Ġfaced":13073,"amsmath":13074,"amssymb":13075,"amsfonts":13076,"mathrsfs":13077,"idemargin":13078,"oddsidemargin":13079,"amsbsy":13080,"wasysym":13081,"upgreek":13082,"Ġwax":13083,"Ġapparatus":13084,"ITY":13085,"Ġcandidates":13086,"documentclass":13087,"Ġrheumatologist":13088,"Ġagonists":13089,"Ġendocarditis":13090,"ocin":13091,"ĠMcG":13092,"Ġling":13093,"ĠExercise":13094,"Ġhorn":13095,"ĠCirc":13096,"ĠEF":13097,"ifier":13098,"Ġpoet":13099,"Ġrestoration":13100,"They":13101,"Ġmaximal":13102,"Ġicing":13103,"Ġweighs":13104,"SS":13105,"Ġwarts":13106,"ĠEsc":13107,"Ġovulating":13108,"ĠProper":13109,"Ġorders":13110,"Ġspreads":13111,"Ġblurred":13112,"Ġmontelukast":13113,"Ġreality":13114,"2015":13115,"setlength":13116,"Ġpriv":13117,"}{-":13118,"mother":13119,"Ġstories":13120,"ĠPRE":13121,"eping":13122,"akh":13123,"rams":13124,"Ġneurofib":13125,"Ġactively":13126,"Ġballs":13127,"itoneum":13128,"ĠEverything":13129,"%).":13130,"ĠDVT":13131,"Ġpresently":13132,"heumatic":13133,"ĠCry":13134,"ĠOD":13135,"Ġdesignated":13136,"ectin":13137,"Ġ89":13138,"Should":13139,"Ġcloth":13140,"cycl":13141,"Ġoccipital":13142,"Ġ128":13143,"Ġsmokers":13144,"Ġtranslated":13145,"Ġpalpitation":13146,"seminal":13147,"long":13148,"ĠLove":13149,"Ġassociates":13150,"AMP":13151,"ĠNevertheless":13152,"].":13153,"Ġtan":13154,"Ġnarr":13155,"Ġconvers":13156,"ĠNavy":13157,"ĠJon":13158,"Ġsecrete":13159,"MD":13160,"ositis":13161,"ayal":13162,"Ġprime":13163,"Ġsynov":13164,"respons":13165,"ĠGreece":13166,"Ġbact":13167,"oting":13168,"Ġgang":13169,"ĠGastroenterologist":13170,"RH":13171,"Ġbis":13172,"ĠPit":13173,"Ġaccidentally":13174,"Ġscientifically":13175,"PR":13176,"Ġexceed":13177,"essation":13178,"Ġmonoclonal":13179,"Ġflag":13180,"Ġhomeopathy":13181,"Ġvolumes":13182,"ĠHEAL":13183,"Ġtonsill":13184,"Ġlymphadenopathy":13185,"ĠDNB":13186,"ĠIde":13187,"Ġconcrete":13188,"ĠOpin":13189,"arial":13190,"Ġ(âĢľ":13191,"Ġrefractory":13192,"Ġprovince":13193,"Ġprofound":13194,"Ġheavyweight":13195,"Ġlumbosacral":13196,"ĠWhether":13197,"Ġbundle":13198,"Ġoverex":13199,"Ġmediators":13200,"Ġquiet":13201,"ĠLess":13202,"Ġreserve":13203,"Ġparties":13204,"2016":13205,"block":13206,"Ġhypoxia":13207,"ey":13208,"ĠDys":13209,"Ġtors":13210,"ĠBus":13211,"akers":13212,"Ġdescent":13213,"Ġparac":13214,"Ġsonogram":13215,"ĠProv":13216,"oconazole":13217,"ĠLibrary":13218,"ĠScottish":13219,"ĠId":13220,"Ġfilaments":13221,"Ġplantar":13222,"Ġlid":13223,"andibular":13224,"ĠThan":13225,"ĠcareDr":13226,"Ġcuts":13227,"ĠFlu":13228,"Ġske":13229,"ĠAj":13230,"ĠCross":13231,"illes":13232,"Ġfeas":13233,"Ġclitor":13234,"Ġoldest":13235,"ALLY":13236,"chnar":13237,"vasoconstriction":13238,"Ġingredients":13239,"uzz":13240,"Ġprojects":13241,"ĠDrospirenone":13242,"Ġliterally":13243,"ĠEvecare":13244,"lers":13245,"igmentation":13246,"abled":13247,"ĠKhan":13248,"Ġbrady":13249,"Ġbike":13250,"Ġanatomical":13251,"reactive":13252,"Ġpaint":13253,"aka":13254,"obs":13255,"Ġendemic":13256,"Ġexplore":13257,"hg":13258,"ĠBag":13259,"ĠPub":13260,"ĠVan":13261,"Ġmethotrexate":13262,"Ġrepresenting":13263,"Ġutil":13264,"ĠASAP":13265,"Ġsending":13266,"ĠCV":13267,"ĠInflamm":13268,"Ġtread":13269,"Ġdebris":13270,"Ġunderwear":13271,"ĠKanchnar":13272,"Ġmosquito":13273,"thesis":13274,"ett":13275,"Ġdiscrim":13276,"Ġheads":13277,"urisy":13278,"agland":13279,"Ġremote":13280,"Ġconfident":13281,"ĠEndocrin":13282,"Ġignored":13283,"hexidine":13284,"elve":13285,"Ġsector":13286,"Ġemerged":13287,"Fe":13288,"bb":13289,"lower":13290,"pin":13291,"Ġ_":13292,"olipid":13293,"ĠBeng":13294,"ĠLord":13295,"cyt":13296,"Ġprophylactic":13297,"Ġadviced":13298,"Ġneuralgia":13299,"Ġaerobic":13300,"lamydia":13301,"Ġconcomitant":13302,"Ġloosing":13303,"ĠOxford":13304,"epithelial":13305,"Once":13306,"ĠEc":13307,"econd":13308,"Ġsustain":13309,"arant":13310,"Ġgolf":13311,"Ġvisc":13312,"ĠArora":13313,"ĠExcess":13314,"Ġdemonstrates":13315,"ĠSuggest":13316,"lined":13317,"Ġwil":13318,"Ġrecessive":13319,"ĠSecret":13320,"Ġceliac":13321,"Ġperit":13322,"ĠNAS":13323,"Ġoutpatient":13324,"ĠCompl":13325,"Ġdysplasia":13326,"ealand":13327,"Ġupdate":13328,"BI":13329,"Ġimmunotherapy":13330,"ĠâĪĴ":13331,"Ġcaptured":13332,"Ġorientation":13333,"ĠLancet":13334,"TA":13335,"Ġvoid":13336,"Ġresident":13337,"ĠONE":13338,"-(":13339,"kindly":13340,"Ġsi":13341,"Ġsar":13342,"Ġbatt":13343,"otides":13344,"olateral":13345,"ĠCervical":13346,"Ġubi":13347,"Ġexcised":13348,"Ġpalms":13349,"Ġholds":13350,"Ġorgasm":13351,"Ġbuttock":13352,"Ġcarriers":13353,"romal":13354,"Ġmentally":13355,"otri":13356,"ĠSUR":13357,"Ġalgebra":13358,"Ġshivering":13359,"Ġimplications":13360,"ĠTHANK":13361,"Ġinfluences":13362,"Ġsarcoma":13363,"Ġsymmet":13364,"Ġsynth":13365,"Ġlymphocyte":13366,"Ġautom":13367,"Ġguard":13368,"Ġadren":13369,"ignant":13370,"ĠAlmost":13371,"Ġartists":13372,"Ġophthalmologist":13373,"Ġsporadic":13374,"urine":13375,"phi":13376,"ferase":13377,"ĠBeen":13378,"Ġodds":13379,"bility":13380,"okines":13381,"ĠOrig":13382,"ĠChristianity":13383,"nutrition":13384,"Ġdying":13385,"ĠHR":13386,"Ġstores":13387,"ĠSleep":13388,"ĠDS":13389,"Ġtransp":13390,"Ġteach":13391,"Ġsupplies":13392,"ika":13393,"ĠDepression":13394,"ĠUrinary":13395,"ympathetic":13396,"gment":13397,"Î³":13398,"Ġcrow":13399,"Ġrush":13400,"anguage":13401,"Here":13402,"rants":13403,"ĠDub":13404,"Ġsert":13405,"Ġdriven":13406,"ĠNeurology":13407,"Ġaxons":13408,"Ġdisplacement":13409,"ĠTreaties":13410,"YN":13411,"onian":13412,"ĠAud":13413,"orkers":13414,"Ġcolony":13415,"Ġcodes":13416,"ench":13417,"Ġoverw":13418,"roduced":13419,"ĠPlate":13420,"Ġelectrocardi":13421,"bumin":13422,"Ġleukocytes":13423,"Note":13424,"bec":13425,"Ġinterface":13426,"ĠTHERE":13427,"strual":13428,"azepine":13429,"Ġconvinced":13430,"Ġcp":13431,"Ġgrey":13432,"imb":13433,"Ġinfest":13434,"ieval":13435,"Ġimplemented":13436,"Ġlaunched":13437,"unning":13438,"Ġcontracted":13439,"Ġsmells":13440,"ĠComputer":13441,"Ġallele":13442,"Ġurethral":13443,"ĠTIME":13444,"Ġpathogenic":13445,"Ġaggravated":13446,"Ġnails":13447,")?":13448,"Ġremod":13449,"Ġhemolytic":13450,"Ġmalformation":13451,"Ġdomestic":13452,"'.":13453,"ĠCr":13454,"ĠPV":13455,"rends":13456,"ĠYear":13457,"Ġ),":13458,"Ġpostural":13459,"Ġsensor":13460,"ĠClaud":13461,"Ġengage":13462,"pirin":13463,"Ġvasodil":13464,"Ġconstructed":13465,"Usually":13466,"Ġwart":13467,"Ġatom":13468,"Ġleaking":13469,"Ġcavities":13470,"ĠReprod":13471,"cephalus":13472,"Di":13473,"Ġtl":13474,"ails":13475,"Ġthinner":13476,"Ġresponds":13477,"Ġsoldiers":13478,"TER":13479,"Ġmi":13480,"ĠTom":13481,"arma":13482,"common":13483,"requency":13484,"Ġrepresentative":13485,"ĠMechan":13486,"assemia":13487,"Ġfriday":13488,"Ġheating":13489,"ulpt":13490,"ima":13491,"chain":13492,"ĠFolic":13493,"Ġrepaired":13494,"Ġactivating":13495,"ĠANTI":13496,"Ġintegr":13497,"Regarding":13498,"Ġdiversity":13499,"Ġtrapped":13500,"Ġdiuretic":13501,"Ġanemic":13502,"ĠConstit":13503,"Ġadaptation":13504,"Ġoutbreak":13505,"rept":13506,"Ġbouts":13507,"ĠAx":13508,"ĠEL":13509,"Ġlabs":13510,"inflammation":13511,"Ġemotions":13512,"Ġcarbohydrate":13513,"ĠJesus":13514,"Ġcontemporary":13515,"Ġantis":13516,"ĠJud":13517,"Ġelabor":13518,"Ġirritating":13519,"hetamine":13520,"Ġprogramming":13521,"ĠNEED":13522,"BV":13523,"DNA":13524,"Ġanthrop":13525,"ibly":13526,"new":13527,"Ġpaediatrician":13528,"Ġanaer":13529,"Ġpg":13530,"add":13531,"Ġrememb":13532,"Ġbowels":13533,"Ġazithromycin":13534,"ĠAtlantic":13535,"raveen":13536,"Ġunconscious":13537,"hrs":13538,"yles":13539,"ftal":13540,"ĠHor":13541,"Ġvote":13542,"ĠPO":13543,"Ġsoil":13544,").,":13545,"ĠUl":13546,"Ġsalts":13547,"Ġmalformations":13548,"Ġconcer":13549,"Ġkil":13550,"rys":13551,"teen":13552,"Ġversions":13553,"Ġoccupational":13554,"',":13555,"wall":13556,"Ġwww":13557,"Ġgli":13558,"ĠCond":13559,"Ġdisruption":13560,"Ġjapan":13561,"Ġdetecting":13562,"Ġpcos":13563,"ĠMusic":13564,"Ġdisplayed":13565,"uction":13566,"Ġteacher":13567,"Ġpillows":13568,"who":13569,"Ġmetabolites":13570,"ĠCycl":13571,"Ġunnecessary":13572,"Ġhate":13573,"ething":13574,"ĠFried":13575,"iful":13576,"Ġmonday":13577,"apping":13578,"Ġsatisfactory":13579,"Ġbiopsies":13580,"atology":13581,"Ġcessation":13582,"Ġbif":13583,"Ġclick":13584,"Ġirritability":13585,"Ġrepresentation":13586,"Ġsedim":13587,"Ġinstitution":13588,"whe":13589,"ĠFDA":13590,"Ġbias":13591,"Ġcurves":13592,"Ġaneurysms":13593,"Ġsucceeded":13594,"mes":13595,"amox":13596,"ĠMain":13597,"Ġadul":13598,"ĠBuddha":13599,"Ġregeneration":13600,"onso":13601,"Ġnep":13602,"ĠFound":13603,"Ġ1945":13604,"anges":13605,"Ġautism":13606,"Ġnodal":13607,"Ġangiotensin":13608,"Ġcapillaries":13609,"ĠTuberculosis":13610,"Ġtheres":13611,"Ġlamin":13612,"ĠLin":13613,"Ġmornings":13614,"Ġirrig":13615,"ĠAdvil":13616,"Ġfibroids":13617,"Ġyog":13618,"oproteins":13619,"umbar":13620,"ccessful":13621,"Ġadapted":13622,"ĠOccasionally":13623,"OK":13624,"isition":13625,"estival":13626,"ĠPop":13627,"Ġhypothes":13628,"Ġworsened":13629,"Ġorthopedician":13630,"Ġmanual":13631,"ometasone":13632,"Ġtrees":13633,"ICH":13634,"pres":13635,"ĠMr":13636,"Ġadvent":13637,"Ġsaturation":13638,"Ġlaid":13639,"Ġintegrated":13640,"Ġds":13641,"Ġgrap":13642,"ulence":13643,"uting":13644,"orexia":13645,"Ġadj":13646,"ĠRock":13647,"ĠNeph":13648,"ĠOUT":13649,"avail":13650,"Ġending":13651,"oplasia":13652,"Ġmirror":13653,"ĠCells":13654,"Ġlithium":13655,"Ġmetallic":13656,"Ġduodenum":13657,"Give":13658,"PE":13659,"Ġaqu":13660,"Ġcogn":13661,"umors":13662,"ĠFlor":13663,"Ġblast":13664,"ĠLarge":13665,"Ġnewsp":13666,"onald":13667,"Ġdetermination":13668,"ĠPCP":13669,"Ġworsens":13670,"Ġbinary":13671,"omotor":13672,"roduction":13673,"Ġcement":13674,"Ġtheories":13675,"cturnal":13676,"thood":13677,"ĠDan":13678,"TIS":13679,"Ġappointed":13680,"Ġauditory":13681,"aedician":13682,"ĠQUERY":13683,"hus":13684,"upper":13685,"osus":13686,"Ġincomp":13687,"Ġcyto":13688,"Ġindicator":13689,"Ġprofiles":13690,"Ġneutrophil":13691,"Ġmunicip":13692,"ĠAk":13693,"Ġ(>":13694,"Ġcomposer":13695,"Ġtwins":13696,"Ġdesper":13697,"Ġpressed":13698,"Ġwarning":13699,"normally":13700,"Ġthecal":13701,"Ġdoppler":13702,"Ġvic":13703,"ĠNut":13704,"ĠObs":13705,"Ġstimulating":13706,"Ġeconom":13707,"Ġaugust":13708,"Ġexcreted":13709,"ĠInvestig":13710,"Till":13711,"Ġtubule":13712,"Ġnamely":13713,"Ġ1966":13714,"Ġcollecting":13715,"ĠEducation":13716,"attered":13717,"ĠSup":13718,"Ġtaught":13719,"ĠFemale":13720,"Ġsecurity":13721,"Ġhemangi":13722,"Ġburs":13723,"Ġquantities":13724,"Ġethics":13725,"Ġdepress":13726,"Ġhipp":13727,"Ġincubated":13728,"Ġstere":13729,"ĠDCH":13730,"ĠVas":13731,"Ġepig":13732,"Ġargument":13733,"$$":13734,"ĠCape":13735,"ĠBY":13736,"asthen":13737,"ĠJac":13738,"Ġdepo":13739,"Ġwanting":13740,"Ġdaughters":13741,"ĠAnton":13742,"Ġhumid":13743,"\"),":13744,"One":13745,"rone":13746,"Ġproof":13747,"ĠAncient":13748,"Ġproteinuria":13749,"Ġpromoting":13750,"ĠICU":13751,"Ġclomid":13752,"Ġcontraindicated":13753,"Ġaband":13754,"Ġdrs":13755,"Ġimmunization":13756,"Ġreviews":13757,"ĠProblem":13758,"Ġproductive":13759,"Ġanaest":13760,"ĠMuh":13761,"Ġdandruff":13762,"ota":13763,"ĠFA":13764,"ĠNob":13765,"ORT":13766,"Ġpersonnel":13767,"Ġsteel":13768,"Ġcuisine":13769,"Ġrearrange":13770,"Ġleadership":13771,"ĠUP":13772,"Ġurg":13773,"lix":13774,"Ġchromatin":13775,"ĠCarol":13776,"Ġfeatured":13777,"Ġimmig":13778,"Ġaimed":13779,"Ġnipples":13780,"Par":13781,"bling":13782,"mo":13783,"nac":13784,"ocele":13785,"ĠPs":13786,"ĠAbd":13787,"Ġseparately":13788,"Ġcompetition":13789,"ĠBulgaria":13790,"Ġgf":13791,"operation":13792,"ĠCOU":13793,"ĠFall":13794,"ĠOlymp":13795,"ĠAmaz":13796,"Ġblockade":13797,"ĠINR":13798,"ECTION":13799,"song":13800,"Ġgamma":13801,"ayani":13802,"ĠPraveen":13803,"Ġtermination":13804,"Ġsticky":13805,"Acc":13806,"Paed":13807,"heck":13808,"erated":13809,"odia":13810,"ĠEur":13811,"ĠNight":13812,"Ġcompressed":13813,"opharyngeal":13814,"Ġhitting":13815,"Ġprofessionals":13816,"thy":13817,"orted":13818,"Ġinterrupt":13819,"Ġimportantly":13820,"Ġ135":13821,"irena":13822,"Ġneuropathic":13823,"Ġintelligence":13824,"mot":13825,"ums":13826,"ĠMP":13827,"Ġacupuncture":13828,"acts":13829,"Ġsmelling":13830,"ĠAnglic":13831,"rocyte":13832,"Ġmultivitamins":13833,"itance":13834,"ĠHom":13835,"Ġaren":13836,"ĠNet":13837,"ĠForces":13838,"ĠArthur":13839,"CER":13840,"hp":13841,"allerg":13842,"Ġmedically":13843,"Ġprobiotics":13844,"Ġphysio":13845,"Ġanalyze":13846,"ĠSemen":13847,"ĠHand":13848,"ostal":13849,"Ġopine":13850,"ĠParliament":13851,"Ġ1964":13852,"calc":13853,"Ġtargeting":13854,"itzer":13855,"Ig":13856,"two":13857,"oreg":13858,"sof":13859,"ĠRom":13860,"Ġpref":13861,"Ġscabies":13862,"Ġformat":13863,"ĠAtari":13864,"Ġnetworks":13865,"invasive":13866,"Ġshrink":13867,"ophysiology":13868,"ĠEN":13869,"Ġdeterioration":13870,"BA":13871,"flex":13872,"sim":13873,"ocular":13874,"Ġgenetically":13875,"plan":13876,"ĠArm":13877,"Ġviolent":13878,"Ġmountain":13879,"Ġatmosphere":13880,"Ġhoc":13881,"Ġjelly":13882,"Ġtransported":13883,"ĠCauses":13884,"Ġatomic":13885,"Ġars":13886,"Ġfluticasone":13887,"Ġovulate":13888,"Ġelong":13889,"ĠBCE":13890,"Ġmasterb":13891,"Ġinterferon":13892,"idden":13893,"ĠPresent":13894,"Ġcontribution":13895,"oblastic":13896,"Ġexams":13897,"Ġlabour":13898,"ographical":13899,"aid":13900,"inol":13901,"ellar":13902,"rah":13903,"early":13904,"Ġpointed":13905,"Ġ1967":13906,"ĠColombia":13907,"coun":13908,"onad":13909,"erts":13910,"abel":13911,"dering":13912,"250":13913,"ĠAugmentin":13914,"Ġfebrile":13915,"ĠIliri":13916,"spec":13917,"ĠCere":13918,"ĠOt":13919,"Ġvisualized":13920,"ĠInternet":13921,"ĠLooking":13922,"although":13923,"Ġrises":13924,"130":13925,"Ġimplementation":13926,"Ġrecipient":13927,"Ġabstinence":13928,"antic":13929,"ĠOste":13930,"ificant":13931,"ĠFirstly":13932,"Ġdeformity":13933,"epileptic":13934,"Ġooz":13935,"Ġintellectual":13936,"Ġflav":13937,"Ġprogressed":13938,"Ġmicroorgan":13939,"Ġsurprising":13940,"PF":13941,"ĠFriend":13942,"perayani":13943,"Ġdistrict":13944,"rombin":13945,"ĠMostly":13946,"Ġunsu":13947,"Ġcomputers":13948,"iture":13949,"ĠLake":13950,"Ġspecialists":13951,"Ġtendons":13952,"ranean":13953,"lipidemia":13954,"inatal":13955,"Ġgard":13956,"ulent":13957,"igma":13958,"opres":13959,"Ġchurches":13960,"ĠRab":13961,"aminal":13962,"Ġ91":13963,"Ġova":13964,"2009":13965,"Ġnephropathy":13966,"Ġcardinal":13967,"onephrosis":13968,"inking":13969,"olization":13970,"Ġshake":13971,"Ġcleans":13972,"Ġdelirium":13973,"Ġpredic":13974,"Ġfitness":13975,"Ġscrotal":13976,"Ġincubation":13977,"Ġcarpal":13978,"Ġmanufacturer":13979,"wa":13980,"Ġcaution":13981,"Ġdoll":13982,"ĠNations":13983,"Ġreflected":13984,"Ġtraction":13985,"ĠImport":13986,"Ġsuspension":13987,"Ġopposition":13988,"Ġmaxillary":13989,"Ġconstitu":13990,"UI":13991,"Ã§":13992,"ĠRad":13993,"ranolol":13994,"sibly":13995,"Ġthermal":13996,"ĠColumbus":13997,"olis":13998,"Ġescape":13999,"ĠCulture":14000,"Ġalert":14001,"ĠMI":14002,"Ġchond":14003,"actam":14004,"Ġstabilize":14005,"Ġwire":14006,"ĠFO":14007,"ATH":14008,"Ġawful":14009,"hu":14010,"sure":14011,"ĠBody":14012,"anned":14013,"Ġimmunosuppressive":14014,"ĠGal":14015,"ansas":14016,"icians":14017,"Ġ145":14018,"Ġmeniscus":14019,"ĠFEEL":14020,"Pl":14021,"chi":14022,"onset":14023,"101":14024,"rogenase":14025,"ĠBrunicardi":14026,"ĠCommission":14027,"Ġtoothache":14028,"ĠArk":14029,"ĠZealand":14030,"ĠDiff":14031,"ĠMorning":14032,"aphylococcus":14033,"Ġwbc":14034,"amond":14035,"ĠBible":14036,"ĠThird":14037,"Ġdupl":14038,
[...]
